#version: 0.2
Ġ t
Ġ a
i n
h e
r e
o n
Ġt he
e r
Ġ s
Ġ w
a t
Ġ o
n d
Ġ c
i t
o r
e s
o u
i s
e n
Ġ f
in g
Ġ b
Ġ p
a n
e d
Ġt o
a l
Ġ m
a r
Ġa nd
Ġ in
Ġo f
Ġ d
i c
Ġ h
l e
a s
o m
i on
Ġt h
â Ģ
l l
Ġ l
en t
Ġ T
Ġ I
v e
Ġ e
Ġ re
s t
Ġ n
r o
Ġ y
Ġ g
l y
c t
Ġb e
Ġ S
Ġ A
Ġy ou
e t
u t
Ġ is
o t
i d
Ġ on
Ġf or
a y
Ġ C
o w
u r
s e
i m
c e
a d
i g
a m
v er
Ġth at
Ġ u
c h
it h
i l
Ġs t
at ion
Ġ M
o l
âĢ Ļ
Ġw ith
i r
Ġ it
Ġ he
Ġ B
Ġ P
ĠT he
Ġw e
Ġ W
r a
Ġa n
i ll
Ġw h
Ġa s
er s
k e
Ġp ro
i f
Ġ H
Ġa re
Ġh a
t er
Ġ D
g e
Ġ F
Ġc on
o o
l d
Ġo r
he r
u l
es s
at e
p p
Ġ R
c k
Ġc om
Ġa t
Ġs e
o re
es t
m ent
Ġ 1
r i
Ġd e
u s
Ġ âĢ
ig h
a b
t h
r om
Ġ 2
Ġ L
Ġw as
Ġn e
is t
Ġ (
p e
Ġe x
u n
Ġ N
Ġ G
an t
Ġ E
it y
q u
Ġs u
Ġ v
Ġha ve
i ve
re s
Ġyou r
or t
Ġ -
o p
Ġ r
e m
ar t
Ġ O
a in
Ġth is
u st
Ġf rom
n t
Ġn ot
Ġs h
u m
e l
Ġa l
o s
i es
Ġc h
Ġb y
Ġc an
igh t
a nd
Ġw ill
om e
Ġ le
al l
ar d
ou t
i e
ou ld
u d
Ġa b
Ġd o
Ġw or
re d
ou r
al ly
i v
Ġ J
g h
Ġp l
o st
t e
Ġa ll
o d
r ou
Ġ j
c i
id e
as t
e ar
a k
0 0
' s
in e
Ġ k
a g
Ġs o
u re
p er
Ġh as
f e
ĠT h
Ġm e
Ġw he
Ġb ut
ĠâĢ ľ
âĢ Ŀ
p t
a ck
ic e
Ġ U
a ge
Ġu s
ĠI n
Ġo ut
Ġa d
t her
a c
Ġcom p
ct ion
a ke
Ġu p
ic h
oo k
on e
Ġthe y
Ġthe ir
Ġm ore
in d
a re
s o
ver y
r y
Ġ en
l o
Ġm y
on g
ab le
im e
Ġt e
oo d
Ġ Y
c c
at ed
ou s
it e
Ġon e
i ke
i p
Ġh is
Ġs a
an s
Ġab out
i z
Ġ im
or m
Ġo ur
Ġwh o
am e
Ġ K
Ġg o
Ġcon t
i b
Ġf e
Ġm an
o g
r u
Ġ "
ion s
an ce
ĠI t
Ġin c
d u
a ct
č Ċ
Ġc l
Ġwor k
Ġ2 0
n e
Ġwh ich
i a
ĠS t
i re
a ch
b er
Ġre s
as e
re e
o c
ay s
a ce
ig n
Ġa pp
f f
re at
ic k
a p
Ġin t
ation s
Ġp er
v en
a il
Ġof f
Ġo ther
e p
Ġ qu
Ġ V
Ġl ike
Ġy ear
ul t
ar y
ĠW e
Ġt ime
a u
Ġs ome
as s
Ġal so
p l
u b
Ġan y
ic al
Ġg et
ĠC h
i le
u e
ar k
ou nt
Ġd is
Ġs p
n ow
Ġ 3
f orm
Ġu n
ve l
en ce
Ġthe m
Ġne w
ing s
or d
Ġp art
er v
Ġbe en
Ġh ad
Ġp e
res s
on d
Ġa g
Ġo ver
Ġhe r
Ġthe re
Ġwe re
Ġwhe n
ĠH e
o ve
ou gh
Ġwh at
it ion
Ġw ould
a v
ent s
Ġa r
i al
Ġ if
in k
or s
ĠTh is
Ġj ust
Ġth an
p ort
Ġ ro
il d
en s
Ġs pe
Ġp re
Ġt r
ou nd
Ġ20 1
Ġbe c
Ġre c
op le
is h
w n
Ġne ed
in t
Ġk now
m er
Ġint o
Ġsa id
ow n
. .
ir st
re n
Ġs c
Ġh ow
Ġn o
f ter
nd er
Ġa m
or y
Ġa cc
Ġc o
o se
Ġpe ople
at er
rou gh
ad e
l ic
Ġt w
it t
n ing
an g
ver s
Ġit s
o v
ĠâĢ ĵ
ol d
Ġs he
ci al
Ġd es
l ud
ĠW h
on s
c es
u al
Ġm ay
l p
Ġf irst
au se
ĠR e
Ġm ake
w e
i an
Ġcom m
ĠY ou
Ġon ly
Ġ 4
he d
u ll
Ġm ost
Ġhe lp
at es
Ġt ra
' t
Ġbe t
Ġl ook
Ġad d
l es
f t
r ic
Ġb ack
ment s
e nd
re nt
Ġe very
at ing
o b
i ly
Ġ 5
Ġpro v
Ġp o
Ġw ant
d ay
Ġth rough
rou nd
ter n
Ġin d
Ġinc lud
is e
i ous
Ġse e
h ing
Ġu se
Ġwe ll
ĠA s
Ġtw o
Ġ1 9
Ġa ct
Ġb u
p le
Ġcon s
Ġpro du
Ġe m
g r
Ġthe se
ĠI f
k s
ĠN e
ie w
Ġu nder
se l
e ct
Ġa fter
it ies
Ġc ould
fe ct
if e
Ġs erv
Ġp h
is s
) .
p h
er t
Ġsu pp
f ore
he n
Ġpl ay
x t
c ed
ĠA nd
o ll
Ġ very
Ġd if
t ing
ro w
if ic
u ch
Ġg ood
Ġw ay
Ġyear s
Ġe ven
Ġman y
ur n
a w
f ul
r it
ĠS e
Ġin v
j ect
Ġre l
on t
in ess
Ġp r
Ġre g
o y
ak ing
ers on
Ġn ow
Ġsh ould
Ġs y
le ct
al s
o ol
an ge
Ġwhe re
Ġ ke
Ġst ud
Ġde c
Ġthe n
Ġ ra
pe ct
Ġf l
os s
Ġc ol
Ġre m
Ġe v
ot h
Ġh im
ation al
ĠU n
il ity
Ġex per
w ard
Ġs m
ĠA n
c ess
b s
ib le
as ed
Ġd id
Ġbec ause
Ġst art
. âĢĿ
t s
Ġd on
Ġse c
an y
g et
Ġr ight
Ġo wn
Ġg u
Ġb us
u res
id ent
b le
Ġf in
ol og
Ġg reat
Ġd own
ul ar
ic es
at h
Ġm uch
Ġ $
Ġa c
Ġ2 00
ĠB ut
ĠC om
Ġb l
ow er
ur ing
l i
Ġth ink
Ġto o
Ġat t
er m
t y
Ġ ent
Ġim p
h ip
ĠP ro
Ġd ay
u p
it s
at ive
form ation
ĠF or
ra ct
y s
he s
al th
Ġl ong
ĠD e
Ġh igh
c om
ot her
Ġ 6
om et
Ġsu ch
Ġf ind
it ed
Ġag ain
) ,
vel op
Ġt ake
ĠS o
Ġs et
or k
ic t
st em
a ir
g an
ic s
Ġwe e
ar ch
Ġin st
Ġb est
u nd
Ġbe ing
Ġdo es
Ġre ad
Ġin s
Ġhe re
Ġbe fore
Ġm on
Ġm ade
en er
l ine
Ġin te
Ġdif fe
Ġsh ow
Ġth ose
as on
Ġc ar
am p
c y
ĠA l
n er
Ġe nd
ch ool
Ġ &
u ally
Ġp erson
i ed
ĠB e
Ġm in
Ġc all
Ġp res
Ġl oc
ri b
Ġh ome
Ġf am
Ġwor ld
Ġs ur
Ġbe l
al k
Ġb r
ĠNe w
u es
Ġre qu
Ġm ark
Ġl ast
Ġas s
Ġbus iness
i x
Ġc he
Ġl ife
Ġ1 0
v ing
oll ow
w ay
Ġin formation
Ġa v
re st
a x
ĠS h
Ġs im
sel f
Ġha nd
an k
e ll
gr am
Ġm ed
i o
ĠThe re
in ce
Ġ 7
g g
Ġde velop
Ġre ally
Ġwh ile
Ġo p
n g
f fect
Ġe ar
Ġdis c
in s
T he
Ġus ed
l ed
at ch
at her
Ġc re
a ve
Ġm em
.. .
Ġgo ing
Ġtr ans
a z
Ġar t
Ġle ad
Ġp ol
ar m
ro s
ĠH ow
ub lic
ak es
iv es
Ġsy stem
ch n
Ġa round
Ġexper i
Ġte am
im es
Ġv is
Ġe ach
Ġdes ign
, âĢĿ
Ġin ter
Ġm od
n ess
ĠThe y
Ġth ough
ou se
Ġsu b
p r
Ġsupp ort
Ġc ount
Ġprodu ct
Ġs omet
Ġ 8
l and
Ġst ill
Ġn um
al ity
in es
et s
al e
o ck
re ad
en e
ĠL e
ce pt
Ġch ild
Ġfe el
ri end
ou n
Ġre t
Ġc are
Ġd et
v ed
Ġf ollow
Ġcomp le
ĠC l
Ġc our
v iew
Ġex p
Ġc ur
rou p
Ġad v
ĠO n
as h
Ġprov id
Ġ ed
ĠA d
Ġdiffe rent
d er
we en
Ġb ook
Ġs ay
ire ct
ion al
ag es
Ġst r
Ġfor m
iz e
Ġpo int
itt le
Ġs k
Ġch ar
ĠA r
Ġs er
ction s
Ġg r
Ġs ign
Ġr un
Ġs ame
Ġf ound
Ġe as
a h
. "
mer ic
le ase
Ġs l
Ġc le
Ġa ut
ust om
i vers
Ġb oth
2 0
Ġpl ace
Ġfe w
Ġb o
Ġbet ween
un ity
ut e
O N
w ays
Ġth ree
Ġl ot
ar s
at a
Ġha pp
Ġpro gram
Ġ 9
Ġm et
Ġf ree
m an
Ġim port
Ġl ove
Ġto p
Ġl ist
e ver
Ġpro f
v es
Ġth ings
t on
l ess
Ġp ost
ĠS he
Ġp ur
am es
et y
od y
b e
Ġre p
Ġhe alth
Ġre al
ĠWh at
Ġf ull
Ġmon th
Ġl ittle
00 0
ut ion
Ġf un
iz ed
Ġex t
Ġpl an
Ġst ate
ĠA meric
i red
Ġpro cess
Ġl ar
ĠT e
ĠT o
th ing
ĠA ll
Ġke ep
i ent
it al
Ġg ener
t en
ant s
Ġav ail
or n
Ġre port
ar n
Ġte chn
ros s
ist s
ĠW hen
c er
Ġs chool
olog y
u c
Ġf il
Ġd uring
Ġcom e
at t
Ġf act
ver n
Ġg ame
Ġop en
ra nd
Ġf r
Ġde f
in ing
Ġapp ro
Ġp oss
er ing
o h
Ġmark et
Ġs ol
u g
Ġc ustom
Ġbet ter
Ġsomet hing
ĠP l
Ġp ut
ic ally
Ġpart ic
b ers
ĠA t
en se
Ġre f
Ġ Q
Ġf riend
Ġcont in
c ent
Ġus ing
iv ing
Ġt y
m s
Ġinclud ing
l ing
Ġall ow
Ġb ig
g y
ĠE x
at ure
o ot
Ġal ways
Ġwith out
Ġis s
in ed
Ġres p
Ġne xt
Ġp at
Ġcomp any
Ġg ot
Ġres ult
us s
ie ld
Ġqu est
ĠI s
c on
Ġv ar
Ġsm all
Ġo b
Ġt ry
Ġre st
Ġinte rest
Ġp ri
Ġavail able
lo y
is hed
a red
Ġp ass
Ġan other
Ġfam ily
Ġm ust
Ġm ain
Ġw ater
Ġhe ad
Ġwee k
i qu
Ġc ent
ĠâĢ ĺ
Ġg roup
at ur
Ġo pt
Ġm ight
Ġt ri
ent ion
Ġst and
ĠâĢ Ķ
Ġbu ild
g er
Ġc or
Ġcon f
Ġw om
ĠF r
ĠTh at
Ġd ist
Ġp ay
Ġs ince
Ġm us
Ġ ide
âĢ ¦
Ġsec ond
Ġv al
Ġd ri
Ġh ard
Ġor gan
Ġe ffect
Ġne ver
, "
i er
i k
st and
Ġw r
p loy
Ġexperi ence
Ġimport ant
Ġm ov
Ġre ce
ate ly
Ġle t
Ġo pp
re en
Ġinc re
Ġsu re
ill ion
Ġ i
Ġpro ble
ert ain
Ġas k
Ġper form
Ġc r
one y
is ion
Ġpro ject
w are
ĠP h
ĠI nd
m e
Ġp ublic
el s
Ġex am
Ġnum ber
Ġd ays
ĠW ith
Ġcl ass
a j
Ġb ro
Ġle vel
Ġd ata
Ġo ld
is m
r ist
Ġon line
Ġw in
Ġc ost
cc ess
Ġd irect
Ġinv est
Ġg ive
Ġ ve
Ġin f
Ġab le
Ġserv ice
Ġagain st
Ġl ess
p s
Ġp ower
Ġ 0
Ġg row
Ġb re
c l
ard s
t ed
ivers ity
Ġc a
Ġspe c
Ġre se
Ġ Z
Ġp os
ĠC on
i or
Ġex pl
Ġ1 2
Ġb lo
ren ce
ir d
Ġl aw
Ġu nt
ĠO r
Ġs it
c o
ĠB l
t he
ĠT r
Ġe l
pe nd
as es
Ġbel ie
u ck
g in
w ork
Ġse em
ĠN o
Ġprov ide
Ġt est
ĠU S
our s
r al
en cy
i ents
Ġor der
Ġcur rent
E R
Ġme et
ro l
ĠC ol
c ing
Ġt urn
a ut
e red
re t
Ġ '
t o
Ġf our
Ġto day
ot e
Ġwith in
pp ed
Ġpre v
in al
ĠS p
at s
Ġpro per
Ġan n
iv id
Ġserv ices
ent ly
Ġwork ing
ĠM y
Ġh um
ab ly
an n
Ġf ood
ou th
ra ph
1 0
ff ic
Ġle g
Ġd i
is ed
Ġp op
Ġm aking
Ġs ays
he re
Ġa way
Ġl ight
iss ion
Ġacc ess
Ġgo vern
m ed
Ġpro te
ain s
pp ing
Ġj ob
Ġchild ren
Ġ est
ru ct
Ġare a
Ġen g
ĠR es
Ġspe cial
j oy
Ġs ing
em ber
r ation
Ġo per
Ġadd ition
p os
Ġp rom
ĠM ar
ot t
i um
o k
âĢ Ķ
Ġe qu
en g
r on
Ġwe bs
Ġ1 8
le y
id er
Ġn ight
Ġv iew
o int
Ġt ru
Ġth ing
Ġloc al
Ġbe h
Ġunt il
ĠCom m
Ġg l
id s
Ġs al
Ġde m
it ing
Ġlook ing
Ġph ot
ĠM e
ĠM an
Ġ1 5
or ies
Ġp ast
te nd
ord ing
u red
at ter
Ġ <
re am
um p
Ġch ang
Ġcour se
Ġch ange
Ġc ase
o pe
Ġv ide
Ġc ap
Ġse ason
if ied
Ġh ist
Ġro om
Ġm oney
are nt
Ġ .
h or
ĠC an
Ġwh y
ab ility
Ġstud ents
ur y
Ġimp ro
Ġb as
Ġp ract
ir on
Ġin tern
. ,
ĠCh rist
in a
ĠS c
Ġprof ess
ĠO ne
ĠC ent
Ġf ac
or th
ne y
Ġk ind
at or
Ġex pect
le t
Ġsu ccess
Ġpres ent
Ġlar ge
Ġev ent
ar ing
Ġunder stand
Ġt imes
Ġw rit
Ġs ite
Ġwor d
au gh
ent ial
Ġof ten
Ġa ir
Ġcon st
om m
le ction
Ġd r
ĠM ay
Ġcomple te
Ġdid n
if y
ill s
Ġem ploy
' re
it ions
Ġle ft
p or
Ġto get
oc us
Ġtoget her
ri es
Ġ [
Ġle arn
iv en
age ment
ut es
con om
Ġal ong
Ġact iv
is ing
Ġha ving
Ġind ust
g ed
Ġd ra
ic le
w w
Ġen joy
ĠO ur
iz ation
m in
s h
Ġen ough
ĠG od
Ġche ck
Ġ1 1
l ish
Ġte ll
Ġn ame
p art
Ġ es
Ġt erm
Ġc reat
read y
ene f
Ġt alk
ĠC o
Ġne ar
en n
Ġm ove
Ġe ver
ver al
Ġapp lic
Ġcon d
Ġbu y
ĠThe se
Ġ Â
so ci
ĠD o
ĠS u
aj or
iv ed
ĠA m
Ġst ory
s ide
Ġp ain
an e
Ġt reat
it ive
Ġs ide
Ġbec ome
Ġp a
c u
Ġoff er
as ter
ĠA fter
ĠC ar
I N
Ġproduct s
Ġfe at
al f
Ġneed s
Ġrese arch
b r
Ġh ouse
oh n
a im
in ation
ivid ual
od e
Ġsh ort
ot s
ĠUn iversity
Ġoff ic
Ġcomm unity
Ġde v
Ġm ar
Ġwom en
Ġacc ount
Ġc lo
Ġb ody
P H
ir l
Ġb it
Ġal ready
Ġm akes
s on
Ġinclud e
u ro
er y
ĠS te
Ġl ine
5 0
Ġd one
b o
Ġm en
Ġs w
b y
Ġqu ality
Ġcon ne
Ġposs ible
Ġrec ord
Ġso cial
e ad
ON E
ra p
Ġget ting
er n
Ġcount ry
Ġf ar
Ġl ive
Ġeas y
f ort
Ġmem bers
ĠA pp
Ġcall ed
Ġmus ic
ur s
ĠF e
Ġdo ing
ĠHow ever
ater ial
t ain
Ġwebs ite
o ice
Ġb enef
Ġc ertain
us h
Ġp ot
Ġme ans
iqu e
Ġf ocus
lo ad
Ġother s
Ġ3 0
Ġtr ad
ĠE ng
ow s
ore d
un e
Ġb ased
Ġperson al
Ġc ou
Ġme an
ut ure
Ġm il
Ġse veral
Ġc ame
Ġvis it
Ġo cc
Ġfollow ing
Ġind ividual
f er
' m
ail s
Ġact ually
Ġf und
Ġm illion
3 0
it her
Ġnew s
ĠJ ohn
e c
Ġl o
v iron
Ġre view
Ġed uc
Ġgovern ment
Ġm ind
and s
ĠAmeric an
Ġm ajor
Ġcom es
Ġf av
ort s
Ġle ast
ci ally
Ġdoes n
Ġf ore
an ces
PH ONE
Ġc amp
Ġcont rol
ward s
a ff
Ġqu ick
Ġopp ort
Ġn on
Ġt re
Ġac ross
W e
Ġl im
id es
Ġl a
Ġh old
o f
ĠN ot
os ed
ĠF l
Ġthough t
id d
Ġcre ate
' ve
m ost
E S
y le
Ġon ce
Ġ19 9
ĠR o
ull y
Ġchar act
Ġde al
Ġcle ar
ĠR ep
Ġtoo k
1 9
Ġm om
ĠP r
A T
Ġw on
ĠE n
Ġyou ng
Ġret urn
Ġc e
Ġstart ed
c hed
Ġper cent
Ġe y
at ic
a pe
Ġfriend s
Ġbe aut
t t
Ġm ult
Ġl ow
Ġc ity
Ġhapp en
Ġcont act
Ġw ent
Ġn et
i ans
A R
ĠC ont
Ġe lect
ro p
ĠM ed
Ġso ft
Ġdevelop ment
c hes
Ġf uture
er al
b ook
pt ion
Ġpartic ular
Ġm aterial
ur ity
Ġinv ol
Ġc ut
on es
Ġvide o
a pp
Ġcomm un
ĠY our
ĠB r
Ġspec ific
Ġor ig
ĠIn st
er r
Ġ vers
Ġmonth s
e e
Ġw a
Ġre du
Ġcomp et
on y
Ġr is
ur ther
in o
m ber
Ġper fect
Ġbr ing
Ġstr ong
Ġear ly
Ġh ot
ap s
u ff
Ġe conom
viron ment
ip s
Ġh ours
Ġ- -
ro om
Ġan al
Ġre ason
Ġcomp an
c le
ll ing
ak en
Ġty p
oo se
Ġl ink
ĠW or
Ġke y
Ġhe art
Ġsh are
Ġrequ ire
Ġto ld
Ġf ive
f or
n ot
Ġy et
u se
Ġl ater
b all
id ay
g es
du ct
b al
l f
c rib
Ġh ig
ĠIn tern
os p
ar r
en ces
Ġproble m
m m
is ter
Ġbe gin
Ġstud y
Ġ ess
Ġclo se
if t
w h
ĠUn ited
og raph
Ġ X
st er
Ġexam ple
Ġ1 4
Ġ1 6
Ġch all
l ished
fe rence
Ġw alk
un ch
T h
Ġst ep
Ġco ver
ĠS y
ate g
Ġe le
Ġt em
Ġg ames
ĠCom p
O R
Ġapp ear
ic y
Ġpur ch
ight s
Ġp ack
n ers
Ġit em
Ġcom b
Ġt ax
Ġre le
Ġmin utes
ĠC he
s w
Ġ ident
a i
Ġevery thing
Ġe t
ut ions
Ġindust ry
our ce
Ġ /
h od
Ġknow n
Ġp ress
Ġhum an
Ġpri v
Ġvar i
Ġdisc uss
ul ation
Ġan t
Ġsp ace
Ġst ay
Ġbel ow
Ġf ace
our ces
A N
l er
ĠSt ate
re et
Ġaut hor
id ence
her s
p ro
Ġrel ations
Ġp ick
Ġs ound
Ġpro b
ĠB y
ĠN ow
Ġg iven
or ing
res ent
Ġsome one
Ġse en
Ġp age
ac y
1 2
o ver
ĠWh ile
il ities
pe cially
Ġst e
ĠT w
re w
Ġp ar
Ġp ie
Ġen s
ill ed
i od
n ed
ĠS ome
Ġsing le
Ġde li
Ġf ield
le ge
Ġcompan ies
Ġto ol
Ġen er
ens ive
ĠG u
Ġbre ak
o on
Ġresp ons
Ġto t
Ġquest ion
Ġmed ia
p ar
' ll
ĠS erv
ĠC ount
ĠA b
Ġt aking
ĠY ork
atur al
Ġwho le
p ly
th ough
ur al
Ġpr ice
ac es
am a
Ġwhe ther
ĠHe re
Ġcle an
c he
il t
Ġam ong
ra in
Ġv ol
Ġen c
ĠP e
il ar
Ġsu per
Ġc ra
Ġh ope
our n
ib ility
Ġam ount
Ġpol it
Ġag o
ct or
Ġ1 00
Ġh alf
ĠC ity
ĠC al
Ġhist ory
id ed
ĠE uro
Ġbelie ve
Ġj o
sel ves
ur ch
Ġcl aim
g s
Ġw ind
Ġ1 3
Ġm or
Ġany thing
Ġa ge
Ġc ult
Ġrec omm
ric t
Ġex c
ent al
ious ly
is on
ne w
ĠD es
Ġrecomm end
ir m
Ġf all
ab or
ĠD r
Ġcont ent
Ġiss ues
Ġm ess
Ġc red
u ed
Ġf re
Ġman ag
Ġab ove
f ully
Ġquest ions
Ġser ies
Ġde l
d e
Ġd ue
ir t
Ġb rand
ain ed
Ġtechn ology
i ver
Ġp lease
an cial
g o
Ġph ys
ĠE d
Ġ1 7
f ic
Ġg irl
Ġfr ont
Ġresult s
Ġwork s
ĠB ro
Ġcons ider
Ġm ot
Ġs ci
el t
Ġse x
Ġbuild ing
ĠP res
Ġevery one
gg est
I L
Ġp ort
u ation
ĠM r
as ing
Ġp ub
Ġen vironment
Ġw ond
Ġal most
Ġadd ress
a f
Ġst ore
Ġw atch
Ġe ff
Ġide a
og n
ĠH is
1 1
Ġa ud
il i
I t
Ġtra vel
ĠSe c
Ġc rit
Ġimpro ve
ĠM c
ĠJ ust
Ġcomm on
Ġ z
ĠM ore
Ġfeat ures
ĠK e
Ġent ire
Ġ *
ĠM in
Ġtra ining
Ġr ange
Ġb ad
Ġp arent
im ate
c ome
m b
Ġb ar
Ġre pl
Ġe ither
Ġ2 4
Ġp ict
g le
ĠB o
ĠG o
e x
at ors
Ġener gy
Ġm iss
an ks
Ġ #
Ġper iod
Ġqu ite
Ġc al
Ġa ff
Ġ201 2
il le
Ġfil m
led ge
Ġde b
Ġ2 5
ĠP er
c ri
b ack
Ġsu ggest
Ġf urther
Ġtra ck
Ġth ird
ĠQ u
Ġes pecially
Ġwant ed
ĠJ e
it es
if ul
ĠJ an
Ġval ue
Ġs ix
Ġcon cer
ch ie
E D
Ġm ag
E N
ĠG r
M A
ĠN ational
Ġcustom ers
Ġpoint s
Ġrelations hip
ce ll
Ġfav or
itt ed
g ing
Ġlike ly
Ġtry ing
ĠD is
Ġperform ance
us ed
Ġoff ers
Ġpre t
ĠEuro pe
Ġd ou
ĠW ill
ar ning
Ġf oot
Ġspe nd
ri ed
Ġd ig
Ġg lo
Ġbl ack
Ġty pe
am s
Ġse lf
Ġse arch
as k
ĠD on
Ġem ail
g est
Ġprote ct
Ġpartic ip
ĠS outh
Ġsim ple
Ġt aken
ive ly
pl ay
Ġme as
fic ult
ĠWor ld
Ġo il
Ġman agement
Ġ5 0
Ġneed ed
g ress
ĠS chool
Ġadd ed
om es
Ġcom ing
Ġsign ific
Ġmet hod
I T
ĠS m
ĠP art
ro du
Ġs ent
Ġwe b
Ġw ays
v ent
t ime
res h
y ear
. )
Ġhow ever
ver t
Ġis n
Ġinst all
Ġcons um
Ġprob ably
Ġvar ious
Ġare as
Ġst op
Ġask ed
Ġel se
s y
ĠM ark
Ġdif ficult
Ġpret ty
Ġsim ply
/ /
ĠI m
Ġst aff
a ur
ĠG e
A S
it ch
Ġprovid es
Ġne cess
ĠD ep
Ġl and
ĠP re
ĠSt ates
f act
Ġh ost
le x
Ġd am
ĠN orth
Ġc ard
I S
o id
: //
Ġre d
Ġr ather
ĠJ u
Ġcontin ue
Ġl iving
Ġprofess ional
Ġoff ice
ĠT ra
i res
Ġ :
Ġdo cu
Ġrequ ired
Ġv i
Ġab s
Ġiss ue
ach ing
i ally
Ġbeh ind
Ġc ir
Ġris k
ic ation
Ġcomp ut
Ġwrit ing
ĠâĢ ¢
Ġass ist
Ġan sw
y n
Ġ201 3
it or
ang u
Ġte xt
Ġso on
Ġpos ition
ĠT H
itt ing
Ġev ents
Ġproble ms
âĢ ĵ
ĠA ust
um b
Ġann oun
Ġyour self
ab les
ĠA cc
Ġup d
ition al
ri e
Ġc ell
Ġin j
ĠB ar
ast ic
Ġro ad
Ġb ed
pl es
un g
Ġacc ording
Ġh y
he ad
Ġc ook
Ġfor ward
Ġpre p
ĠP ark
ur ance
Ġword s
z e
Ġf lo
ĠS pe
ru ction
ĠA g
Ġl ov
Ġproper ty
w here
Ġex ist
Ġcharact er
ib r
Ġin it
Ġt ou
Ġnot hing
re me
Ġm atter
ĠA pr
ĠF rom
ĠP lease
ĠAd d
is es
Ġwee ks
A L
er a
m y
ro ll
ĠIn c
Ġinf l
1 5
ob ile
Ġconne ct
min ist
Ġimp act
pp er
u ge
ĠA f
v al
Ġpop ular
ĠP ol
Ġa ction
Ġun ique
Ġro le
Ġwh ite
Ġs le
i ence
Ġfin al
ĠO ct
Ġac cept
ĠCent er
Ġout side
Ġk ids
Ġn atural
iv al
an c
Ġsignific ant
Ġh on
Ġsim ilar
r ing
itt en
Ġph one
et h
Ġa chie
Ġrep resent
ĠA ug
op y
e es
Ġg ra
Ġs ize
Ġprovid ed
Ġincre ase
Ġt akes
Ġsu m
Ġf ail
ver age
a ily
med i
Ġdet erm
Ġf ire
Ġtru e
Ġext ra
Ġsec urity
Ġfin ancial
Ġbeaut iful
l t
Ġde ath
ific ation
ĠCount y
ĠSt ud
Ġsub ject
a pt
o le
Ġw ide
Ġoffic ial
Ġsk in
Ġpart y
Ġeduc ation
ou d
Ġchang es
I C
Ġs we
Ġinclud es
u fact
ĠRe g
Ġst at
n es
ĠPres ident
n a
ie f
Ġsa fe
Ġrec ent
ul es
Ġd ate
Ġreg ard
Ġrun ning
Ġcou ple
ĠM arch
Ġg round
Ġco ll
Ġgener al
Ġl og
ĠC or
ou ra
Ġhe ld
ĠA ct
Ġlong er
ist ic
Ġin n
Ġse lect
Ġdesign ed
er c
Ġopport unity
Ġus ually
Ġl oss
Ġeng ine
ĠP a
Ġpa per
Ġseem s
Ġse nd
Ġle ave
ĠThe n
Ġcom fort
ĠD av
Ġmem ber
ove red
Ġrec ogn
ĠAmeric a
f fe
Ġt it
Ġins ide
ĠW est
Ġag ree
Ġcre ated
um e
Ġart icle
Ġsoft ware
Ġopt ions
Ġtreat ment
Ġsystem s
Ġh tt
av ing
est s
Ġch oose
ĠF in
Ġl at
Ġc oun
Ġreg ular
Ġdef in
ĠU s
Ġt able
Ġf ast
Ġmod el
em pt
Ġan im
Ġ x
an ced
ad es
ck s
Ġf ig
ĠH igh
ĠB u
o x
ol ution
Ġthrough out
Ġus ers
ic ro
Ġwor th
Ġb ott
ĠJ une
it er
Ġplay ers
Ġ201 1
A C
Ġspe ak
f ace
Ġest ab
Ġto wn
Ġhig her
Ġatt ack
Ġpot ential
Ġshow s
Ġrece ived
Ġres pect
Ġmom ent
Ġs ong
Ġcan not
Ġas soci
idd le
Ġl ives
Ġread y
op h
ĠApr il
k y
Ġrece ive
Ġf a
ac ed
Ġens ure
Ġread ing
Ġind e
Ġany one
ar ter
iz ing
ar get
op s
Ġne g
ĠD ay
Ġcol lect
Ġsa w
Ġgrow th
am ed
Ġf it
Ġhapp y
an a
Ġh it
Ġnet work
Ġpr int
ĠE m
i et
Ġg en
Ġl ay
Ġknow ledge
es e
Ġmed ical
ad a
Ġat tend
ud e
Ġr ate
Ġgo al
re g
ĠHe alth
I D
I n
Ġorig inal
Ġlead ers
Ġtot al
Ġst ri
Ġdet ails
Ġm ach
Ġup on
Ġet c
if f
Ġn ice
Ġbo x
Ġn ational
Ġcont ract
ĠE l
Ġs ense
Ġn orm
ĠW as
Ġcol or
en ing
oo gle
at form
Ġcont rib
R E
ag ing
ĠSe pt
Ġrec ently
Ġde pend
Ġsal es
Ġp ric
re ct
Ġfun ction
Ġc ause
c il
Ġ ill
Ġr ad
a ign
Ġb ase
Ġst ra
Ġsh o
u ary
Ġl ate
h ib
az ing
ĠI nt
ci ety
Ġwond er
Ġbook s
Ġquick ly
Ġ ,
ain ing
Ã ©
Ġvers ion
et er
ĠO f
Ġcl ick
Ġex act
d o
Ġde p
Ġce le
Ġd om
Ġp ark
Ġmor ning
Ġ2 1
ĠJu ly
Ġcurrent ly
Ġthem selves
m it
ĠM ich
2 00
ab y
ĠAr t
at ory
Ġb all
Ġle arning
ed eral
Ġfor mer
ag ue
Ġdec ision
Ġcare er
Ġ19 8
Ġplay ing
Ġde ep
Ġpract ice
Ġv ia
b ased
Ġd est
ĠH er
Ġcour t
Ġwork ed
Ġblo g
ĠO b
Ġapplic ation
l ike
ĠH ouse
Ġpri or
Ġp le
ad em
Ġprodu ction
Ġ ut
id ge
c ast
ear ch
ĠM on
Ġ201 0
ĠO ff
Ġhand s
ic les
Ġitem s
Ġst yle
Ġdes crib
g u
Ġpriv ate
ĠFe b
ed d
Ġl ost
Ġaddition al
e k
li er
b or
Ġc y
Ġpol icy
ĠE very
Ġm ass
Ġw ar
Ġcred it
ĠFr iday
ĠF irst
Ġexp ress
ĠM ost
Ġt our
Ġwas n
Ġve h
Ġbo ard
Ġab ility
Ġcustom er
ĠV al
Ġdown load
Ġ ...
ir it
Ġha ir
Ġa ffect
Ġl angu
Ġmy self
Ġte ac
Ġpat ients
Ġsum mer
Ġ4 0
Ġp an
Ġb al
ed s
o ff
Ġc ases
Ġaut om
2 5
Ġf ight
O U
Ġright s
Ġinclud ed
Ġprogram s
ĠH ar
Ġwe ight
Ġactiv ities
Ġde g
Ġco ol
Ġs qu
Ġw all
ac hed
Ġdri ve
Ġst ruct
Ġsc reen
ĠRe ad
d d
art ment
Ġs ens
ĠA ut
Ġem b
Ġbe gan
Ġmeet ing
Ġcon c
Ġs at
ĠS w
u x
o ber
Ġim medi
Ġgo es
Ġc as
Ġsa f
Ġman ufact
Ġins p
ĠJ o
Ġm atch
am ent
Ġterm s
Ġp ers
Ġch ance
as ons
ĠF ace
Ġlat est
Ġvi ol
m ing
Ġeas ily
Ġit self
Ġparent s
it ter
ĠW ar
Ġcl os
Ġd ru
Ġbl ood
im um
ĠS an
Ġwom an
Ġb ud
Ġe p
ĠL et
n y
o ke
Ġ201 4
ys is
Ġpr im
er ve
ess ion
ourn al
ĠS und
1 6
Ġmult ip
ĠS atur
ir th
ĠCh ar
Ġar ri
ec ut
Ġo bs
a ction
1 3
g round
_ _
Ġdis e
Ġsk ills
in ary
Ġc am
Ġdra w
Ġdec ided
Ġ ri
Ġintern ational
Ġint rodu
1 4
Ġf elt
ĠM us
l ight
Ġappro ach
Ġinst ead
Ġm ix
W h
Ġlook s
ĠA re
ren g
it c
Ġsur pr
Ġgr ad
Ġlevel s
h ood
h am
Ġr ound
Ġt al
Ġch oice
air s
cl us
l im
ĠWe ll
r ight
Ġh ol
Ġob ject
O T
Ġchall eng
Ġinvol ved
Ġs un
ĠP ost
or g
Ġstud ent
Ġim m
ĠAs soci
ĠC our
Ġ201 7
Ġfavor ite
s c
Ġbu ilt
ĠC ons
Ġrem ember
Ġcl ients
Ġpl atform
Ġpolit ical
Ġon es
Ġcond itions
Ġmarket ing
Ġm other
ut h
ĠAl so
1 8
he l
olog ical
m on
en ced
Ġc and
ro wn
att le
Ġleg al
ĠAust ral
Ġbec ame
ĠT V
Ġf resh
ĠAug ust
Ġcamp aign
ĠE ven
Ġt arget
ĠA c
Ġcount ries
h aps
ĠG et
Ġproject s
r is
Ġor d
Ġatt ention
h a
Ġinvest ig
Ġapp e
ĠB rit
ĠP ar
Ġst ock
Ġ201 6
ĠBl ack
Ġinte gr
p ose
b it
ip ment
Ġpl ans
Ġ2 2
Ġlead ing
Ġv ict
ĠSatur day
Ġbenef its
er ous
Ġl ower
Ġse ll
i am
Ġapp ly
ĠD irect
Ġre lease
ĠDep artment
Ġmain tain
Ġwr itten
ĠAf ric
Ġallow s
Ġb ur
Ġstand ard
Ġenc oura
Ġj ud
Ġm ention
ĠS im
us es
Ġwr ong
Ġe mer
ill ing
Ġcost s
Ġide as
rough t
Ġsaf ety
Ġ >
ĠU p
Ġcomm it
Ġh uge
j ust
her n
Ġwr ite
Ġtou ch
p ri
t ers
Ġplay ed
ict ion
at ives
6 0
Ġmov ie
Ġs n
ffic ient
s u
Ġb oy
Ġpres ident
Ġatt empt
Ġnecess ary
Ġrel ated
Ġvari ety
ke nd
Ġglo bal
Ġhe ar
r ay
Ġgroup s
Th is
av es
Ġset t
Ġb i
Ġreport ed
ĠOct ober
in c
w ood
Ġ201 5
u el
Ġa w
Ġse par
ĠP at
ĠJan uary
ĠM ond
Ġget s
Ġv ac
Ġus er
p ut
ĠCal if
ic ated
am b
Ġthink ing
ĠEng lish
1 7
ĠU K
ough t
Ġdr ink
st r
IN G
Ġs us
Ġeffect ive
Ġex cept
ĠSund ay
on se
b ody
Ġam azing
Ġl if
al es
v is
Ġg ave
Ġsay ing
ĠO ther
Ġey es
Ġcomput er
ĠWh y
Ġ200 9
ir ing
Ġp ull
O S
Ġmod ern
h old
Ġcomplete ly
Ġopt ion
Ġd aily
Ġde fe
Ġs il
ĠFace book
iv ity
ĠG oogle
Ġl ab
ĠIntern ational
Ġpro pos
ĠS er
Ġr out
ove mber
ple ment
Ġf air
Ġpol ice
ĠAn y
ĠB us
Ġst ru
Ġb ank
ĠSept ember
Ġst reng
av y
ĠA ir
y l
Ġcir c
2 2
Ġtr ust
Ġexpect ed
es ter
Ġpurch ase
ĠS ch
Ġd ating
it ary
ond on
ber t
ĠR ed
ag ed
ens ion
mer cial
p ite
Ġg iving
Ġsh all
ci p
Ġs old
Ġpos itive
id ing
' d
Ġnot e
Ġansw er
ĠM any
Ġinterest ing
re l
Ġex cell
Ġa verage
Ġh or
g ar
Ġk new
w ise
Ġg ives
ish ing
ĠO ver
S t
Ġprev ent
Ġdo or
Ġres ources
en ge
Ġs ource
Ġ ur
Ġpie ce
Ġent er
Ġpart s
k ing
Ġsit uation
ent y
Ġtyp es
Ġde part
Ġsit es
ĠS en
Ġl ed
Ġsa ve
Ġm id
ĠF ree
u le
Ġprovid ing
Ġdis play
Ġrequ est
Ġext reme
Ġcom ment
Ġad minist
cri ption
et t
Ġcent er
Ġd iv
ide red
Ġdig ital
Ġcele br
Ġ2 3
Ġ +
z y
Ġte le
osp ital
Ġp red
Ġsl ow
Ġrem ov
Ġc ross
Ġsle ep
ce mber
Ġhim self
Ġloc ated
Ġsomet imes
Ġsc he
ĠS ci
ĠNew s
ĠMond ay
Ġhe ard
Ġfl ow
Ġins urance
Ġdocu ment
Ġtool s
Ġ201 8
id ents
Ġorgan ization
Ġc at
E C
Ġim age
b and
f l
v ille
ve y
Ġde ad
it ation
orn ia
ic a
n s
a el
il ies
Ġinter view
Ġhigh ly
Ġfe ed
A M
ĠN ovember
Ġpl ant
y ond
Ġd ark
Ġhelp s
ur t
ci ous
Ġstart ing
ver se
ĠG ener
4 0
ag n
om s
al t
Ġey e
Ġinfl u
Ġloc ation
Ġc up
ce ed
ĠOn ce
ke y
2 1
Ġbro ad
Ġqu al
Ġplay er
Ġpart ners
hing ton
Ġst uff
ĠN et
Ġca pt
ĠG erm
Ġw ood
un t
ite ly
Ġpub lished
Ġp ath
l in
Ġcol lection
Ġre ach
or ge
Ġwee kend
Ġof fe
ĠS ince
ĠL ondon
Ġ2 8
ĠK ing
Ġturn ed
Ġb rought
Ġf ine
Ġst ories
Ġtri p
it ute
Ġpro gress
Ġf ile
Ġav oid
Ġdet ail
m ission
ib ly
ac hes
im ately
as te
Ġdirect ly
ĠC O
p re
Ġre ve
ap an
ĠL aw
Ġpr in
Ġar ch
ĠâĢ ¦
Ġm obile
ĠCh ina
Ġst ates
ak er
Ġcon duct
m a
Ġsp ent
Ġg reen
Ġ200 8
Ġex erc
ĠO ut
Ġphys ical
Ġrele ased
ad d
Ġblo ck
ĠCalif ornia
ĠSt reet
Ġa ware
Ġemploy ees
om en
ĠC oun
un ities
Ġcond ition
Ġsol ution
al y
Ġre v
Ġd ream
Ġb and
sy ch
Ġf arm
Ġmultip le
Ġcons idered
il es
ru ary
Ġlangu age
c ies
Ġfeel ing
Ġto wards
Ġim plement
Ġfe ll
Ġcon vers
Ġw arm
ar a
ĠD em
Ġf irm
ĠW ind
âĢĿ .
ĠDe cember
ues day
Ġsuccess ful
ĠG l
Ġp en
Ġeconom ic
U S
Ġmaterial s
Ġlim ited
ic ations
se c
bo ard
Ġfe ature
Ġ19 7
Ġfin ally
augh t
Ġsp ot
ĠJ es
Ġn ature
" .
Ġequ ipment
ro te
Ġcons ist
en ed
Ġindividual s
u ate
Ġcar ry
ĠL a
Ġb ag
Ġse ction
Ġne igh
ĠDav id
Ġeffect s
E O
ĠTr ans
al ing
Ġh our
Ġg e
ĠWas hington
Ġpl aces
Ġt ick
Ġlook ed
ĠR uss
itc hen
Ġd ro
ure r
c ause
ore s
x ic
Ġm is
Ġl ack
al d
Ġim ag
ĠPro f
ĠE ar
z z
iv il
Ġadv ant
Ġrest aur
ĠG roup
ĠJ ack
Ġhtt p
Ġgrow ing
Ġn ation
Ġcl ub
iz es
Ġbud get
Ġs on
Ġinn ov
Ġresp ond
Ġprev ious
Ġcertain ly
f ord
Ġexper t
Ġra ce
ĠTH E
Ġf ather
Ġdo g
ĠM et
Ġt en
Ġm ount
Ġf ix
Ġd ed
te e
Ġresp onse
Ġgo als
Ġsu bs
ar ies
Ġinterest ed
nd s
ra ft
ain t
Ġfull y
Ġcomple x
Ġachie ve
ar ily
Ġe at
Ġspe ed
ou l
E MA
Ġad ult
Ġexact ly
Ġtrad itional
Ġv ot
augh ter
Ġ2 7
Ġbusiness es
ĠCol lege
Ġphot os
ren ces
Ġdevelop ed
ĠC le
E T
om ing
Ġplan ning
ĠT od
Ġk n
ww w
urs day
Ġeff ort
Ġtri ed
Ġs en
ĠG reat
Ġcor rect
ant ly
r ast
Ġhealth y
Ġsub st
Ġorgan iz
Ġdeli ver
an cy
Ġc ode
Ġteam s
ĠA N
Ġfe et
Ġbeh av
ĠWh ite
E L
oc r
Ġcon cept
Ġl ic
ard en
ĠFeb ruary
un k
Ġst age
Ġc opy
m as
Ġreg ist
id a
m ark
ĠW ed
is ions
Ġmess age
f ield
he t
Ġ2 6
ĠM or
Ġi P
Ġb irth
Ġd ry
Ġprom ot
Ġcol lege
an i
ĠBus iness
? âĢĿ
ĠServ ice
ĠPa ul
ĠT uesday
Ġst ress
Ġbegin ning
Ġmov ing
b ur
r am
ar ant
Ġnear ly
ar i
Ġdist rib
Ġreg ul
ĠAcc ording
Ġro ll
Ġg old
Ġwant s
Ġcons ult
ĠO p
v ant
Ġa ward
Ġwe l
Ġcreat ing
ograph y
Ġev idence
ĠJ apan
i pping
Ġd ress
v in
u k
ĠB est
Ġfam ilies
Ġpre m
ra el
ol ute
Ġanal ysis
Ġth reat
Ġimp ress
ĠR em
) :
Ġannoun ced
Ġschool s
b um
Ġsh oot
ĠWe b
Ġacc om
ut ed
ĠCour t
Ġcult ure
ĠE ast
Ġdiffe rence
Ġ6 0
s p
Ġw ife
Ġsol utions
Ġem ot
ub e
ĠAl though
Ġb ra
ĠAs s
Ġpric es
Ġal tern
Ġu lt
Ġinde pend
ĠPl ay
Ġpress ure
Ġactiv ity
d own
w ide
err or
eng th
Ġdise ase
Ġtalk ing
ĠInd ia
Ġstra ight
Ġw ish
it able
Ġpa id
Ġwa it
Ġm at
Ġpict ure
w or
Ġhist or
Ġstr ateg
y ing
Ġdem and
Ġb illion
a res
ĠTe x
Ġover all
Ġmay be
Ġexcell ent
an ch
Y ou
Ġopport unities
ĠÂ £
ĠTh ursday
EMA IL
se qu
ĠSu per
Ġbenef it
Ġh op
Ġb aby
ĠM od
ĠI N
ibr ary
ĠB ook
Ġg as
ĠG ood
he st
in ner
Ġsh ot
erv ed
Ġf at
Ġdev ice
Ġflo or
- -
Ġre nt
Ġdem on
ĠO h
ag er
Ġreport s
Ġa part
Ġser ious
m itted
Ġrequire ments
ru it
Ġdirect or
o ly
ate ver
m ore
Ġt er
Ġparticular ly
Ġw rote
Ġa im
ĠTe chn
Ġfre qu
re ed
Ġpro t
Ġimmedi ately
Ġtit le
Ġincre ased
Ġocc ur
ĠCl ick
Ġf ans
ate gy
es tern
Ġcould n
nes day
Ġth ous
Ġbe yond
Ġunderstand ing
und red
row s
ĠH ome
Ġpur pose
e w
Ġd ire
Ġac qu
Ġinst ru
at o
Ġear lier
oc ol
Ġs ort
Ġwho se
ĠP al
Ġhe at
I P
Ġdo ll
A P
ĠW ork
ren ch
Ġcom mercial
Ġanal y
an cing
Ġappro pri
Ġal one
Ġh ous
Ġreg ion
du c
Ġin form
Ġlov ed
B C
Ġsp irit
ound s
or age
Ġallow ed
Ġc ert
Ġass ess
Ġdou b
ĠJes us
Ġ â
Ġcan cer
ord s
is c
Ġim ages
Ġapplic ations
Ġinvest ment
Ġincre asing
Ġdefin itely
as c
Ġt ur
re ci
I ON
Ġn ut
9 9
ĠG old
Ġm iddle
Ġadv ice
ĠIs rael
Ġro ck
ven ue
im in
am m
Ġe ight
ĠL ast
ĠServ ices
ous ly
ol f
ĠG reen
ĠSe e
Ġl ik
ĠI r
ĠD ist
ĠBe cause
ĠPro gram
Ġl iter
ĠP ort
Ġb le
Ġsupp ly
Ġtr ade
ĠRep ublic
ĠS ub
Ġse ven
Ġrel ig
Ġ ver
ĠD el
Ġop in
> .
Ġown ers
Ġf em
Ġus es
Ġdam age
ĠI I
ash ion
Ġstru gg
g en
ron ic
ecut ive
il s
H e
al ed
Ġser ve
ĠE ach
p m
ĠW he
Ġchar ge
Ġf ederal
Ġf ear
Ġob tain
Ġg ar
Ġs ale
Ġtem per
ĠH all
ĠB el
Ġpro ced
Ġv oice
Ġchang ed
Ġpat tern
Ġg rand
Ġen h
Ġcor por
Ġal though
ĠAssoci ation
Ġcand id
v ision
Ġh us
ĠS ur
Ġnum bers
Ġredu ce
v est
Ġrem ain
Ġchall enge
Ġstate ment
Ġsur v
ĠJ ames
Ġsci ent
d om
use um
Ġu nd
a ult
ĠP ri
Ġmean ing
Ġmach ine
Ġcont ain
for ce
Ġsm art
ĠMich ael
is f
Ġr ules
Ġcap ital
Ġnorm al
ĠS pr
ĠEurope an
Ġex tend
ĠWed nesday
Ġeas ier
Ġhappen ed
Ġ201 9
Ġad vert
i ant
ĠIntern et
Ġcom ments
ĠY ear
Ġre asons
Ġr ates
Ġare n
ĠC ong
ĠInd ian
Ġqu arter
ĠRes earch
Ġpart ner
Ġjob s
Ġoffe red
Ġm ax
ĠT y
ib er
s et
lo ck
Ġch urch
ĠSy stem
o oth
Ġmov ed
ĠF ound
Ġhelp ed
Ġlo ad
li ed
Ġc ateg
Ġrespons ible
Ġphot o
Ġbas is
Ġact ive
Ġgu ide
ĠSu pp
Ġc old
ch an
Ġ2 9
ĠIn ter
Ġal bum
ĠCan ada
Ġas pect
ĠTex as
ĠP M
Ġcl in
ĠM ac
ĠDe velop
ch ange
Ġgl ass
Ġmil itary
Ġf ab
Ġd ang
p a
or row
b an
Ġtru ly
ĠY es
Ġconst ruction
Ġstud ies
Ġh undred
ffe e
le ment
Ġc ru
Ġ ing
Ġfor ce
rap y
Ġess ential
Ġjo in
ĠGo vern
Ġpre fer
ĠChrist mas
Ġ20 20
Ġprofess ion
ol ic
ĠOb ama
ĠPe ople
Ġinst it
Ġpat ient
ar c
Ġsci ence
Ġp et
Ġbas ic
ag o
Ġa head
Ġp ow
ĠR et
Ġoff ering
ĠTod ay
is l
Ġsh own
Ġdou ble
Ġsp read
os ing
Ġdev ices
ing er
Ġeff orts
Ġref lect
il ing
Ġp ages
Ġc ash
Ġabs olute
2 4
ic ip
Ġintern et
Ġdeli very
Ġ200 7
h ouse
8 0
Ġbott om
Ġlar gest
Ġgu ys
Ġatt ract
ĠDes ign
it iz
ĠA v
nd ed
Ġnot ice
ĠR ich
Ġw ild
edd ing
ist ry
Ġg one
Ġf ra
in y
ic ate
Ġst ick
Ġdeg ree
ord er
ĠE duc
m p
ĠL ike
ĠM ake
Ġann ual
ĠCoun cil
se e
Ġn amed
ĠA M
ĠOff ice
om b
ĠI S
Ġgu y
Ġsp orts
Ġs am
Ġveh icle
Ġwonder ful
Ġsu st
Ġw ww
Ġgreat er
ĠMark et
we ll
Ġhelp ing
Ġm er
ĠM em
Ġst ar
com ing
ĠTh anks
ĠA nt
ist ics
ak ers
Ġl ines
rie f
Ġlot s
Ġmeas ure
port s
our ney
Ġsur round
ĠS am
Ġmil es
ĠChe ck
Ġacc ur
Ġpe ace
Ġpo or
ri al
C h
Ġpower ful
Ġassoci ated
Ġgirl s
Ġad just
R O
Ġfin ish
Ġset ting
Ġfollow ed
qu e
l a
Ġper haps
Ġdec l
ĠAn ge
Ġcl ient
Ġfr ame
ĠChrist ian
ĠCh urch
Ġd en
ĠC r
Ġk itchen
Ġ @
Ġb ill
Ġsl ight
Ġfin ished
et ic
hip s
Ġexp and
ĠU se
Ġapp reci
Ġpict ures
ĠComp any
ĠFl or
Ġhus band
Ġb rain
s s
ĠBrit ish
ite ct
Ġstreng th
ative ly
pl ace
ĠL oc
b on
Ġt rou
Ġsh op
Ġocc as
ĠP ublic
c are
Ġbl ue
i pped
Ġstr ategy
Ġwork ers
b ed
ĠBo ard
Ġserv ed
Ġprodu ce
am ic
ĠD uring
Ġso ciety
ĠCl ass
ĠTw itter
A D
Ġcomp on
Ġob v
ĠR el
Ġextreme ly
Ġsee ing
Ġcharact ers
Ġev al
l s
it ude
Ġhot el
Ġregard ing
st on
ĠS ol
Ġlet ter
Ġbro ther
Ġstep s
P S
Ġf ant
Ġche m
ang ing
Ġcl ot
ĠAn n
ĠJ er
Ġb reat
ĠR om
Ġinc ome
Ġcoll abor
ĠRe c
ly ing
k en
Ġrepl ace
Ġwe ather
ter m
t ies
Ġfa ith
Ġtrans fer
Ġopen ing
Ġh omes
Ġc ast
Ġcomp ared
ĠDirect or
ĠAn other
Ġlearn ed
Ġpro s
Ġswe et
in ated
ĠH ot
ĠB ig
Ġke pt
Ġdru g
Ġl ock
Ġcrit ical
ĠB ill
ĠU nder
en cies
Ġb orn
Ġcam era
Ġwe ar
ĠH el
hen s
s es
f riend
un te
Ġeconom y
Ġtrans port
Ġant i
Ġtr uth
ĠC ur
ĠRe view
Ġexist ing
ĠAb out
re m
Ġre b
Ġgu arant
Ġaff ord
ĠL ear
Ġha ven
ul f
Ġadvant age
ĠTw o
er o
im al
Ġv irt
Ġpie ces
Ġdri ving
Ġw at
ĠT op
as y
Ġon to
ad y
r ig
ĠS T
ĠM art
Ġpl us
Ġcontin ued
Ġexperi enced
e ch
l ies
ap ter
Ġg ift
Ġmove ment
Ġthan k
Ġlead er
ĠM ag
Ġv ill
du le
Ġprote ction
ac ity
Ġpop ulation
L E
Ġrun s
Ġappropri ate
Ġcomfort able
Ġaud ience
Ġtra in
ic ed
ĠGener al
2 3
Ġlar ger
ĠWh o
Ġch o
ĠE v
Ġsu ff
amp ions
i able
c ul
er ia
Ġh arm
Ġsur face
Ġapp oint
ĠAustral ia
ĠTh om
Ġwould n
Ġcol le
am ing
ĠV is
Ġp sych
ify ing
Ġbig gest
Ġb ath
ĠI T
Ġc ry
Ġdis app
ĠPh ot
ĠRo ad
ĠL ife
ru pt
ĠD own
Ġ ir
Ġre pe
ic ine
Ġbe g
Ġh om
Ġb ow
Ġknow s
im ent
ĠT ime
Ġsat isf
ĠWind ows
Ġfoot ball
Ġdo ctor
Ġorganiz ations
r ange
ĠR ob
I f
Ġinit i
Ġl ength
Ġcreat ive
olog ies
Ġsc ore
Ġsc ene
Ġfig ure
ĠM icro
ĠH um
Ġent ertain
Ġpass ed
ĠC am
us ing
ĠF rench
g n
Ġmod els
ust r
Ġhig hest
ĠB ra
Ġuse ful
ph one
Ġte nd
ĠB ay
Ġpay ment
ĠL ook
g ency
Ġinc red
S T
Ġre ality
ĠApp le
Ġhe avy
ad o
I V
Ġes c
Ġgener ally
Ġback ground
ĠIs land
re y
row d
Ġdi et
ĠPh il
se y
Ġcontin u
Ġto ward
Ġdemon str
Ġfind ing
ĠM ary
us ion
ĠPl an
g al
Ġad op
Ġno vel
Ġst orage
ĠW in
Ġact ual
ĠM att
Ġrequ ires
rou d
ĠB ank
Ġcomple ted
Ġst ream
ĠCh ild
it ors
ĠS un
por ary
Ġmethod s
ĠL ord
ĠH ist
pect ive
ĠT om
ĠS k
Ġstruct ure
a e
Ġcall s
ud d
Ġpr ay
Ġstand ards
Ġold er
Ġgu id
Ġt ips
ra w
Ġchalleng es
ri age
Ġestab lished
Ġcon ference
Ġd aughter
Ġprim ary
est ival
Ġj ourney
un ately
re es
Ġac adem
Ġm ist
ĠC are
ĠR ock
ines e
Ġal le
Ġown er
Ġrem ind
a ven
Ġn ames
Ġex hib
4 5
k er
y m
Ġ8 0
Ġst o
1 00
or ial
Ġf an
z a
ĠF am
Ġ =
Ġ200 6
ĠB ack
i os
bo x
Ġm ission
Ġcell s
Ġsh ared
Ġret ail
Ġwh atever
ĠF ind
Ġd ied
Ġsc en
Ġexerc ise
Ġun it
ri an
Ġreview s
il ed
os ure
Ġman age
ĠR iver
Ġexperi ences
Ġco ach
Ġprodu ced
i j
I G
ĠH ave
Ġcomp l
ant a
nd ing
ĠP C
ĠCl ub
ĠTh ank
Ġut il
at ically
Ġcompet ition
oo s
ĠFlor ida
Ġorig in
Ġfil es
on a
ĠInst itute
O L
ress ion
Ġc ards
Ġsen ior
D A
Ġto m
Ġconne ction
Ġc ivil
ve re
ĠComm ission
Ġsol id
ra b
Ġ3 1
Ġd rop
Ġh ospital
Ġthan ks
Ġeven ing
Ġrem ains
Ġpre c
Ġme ant
ĠM iss
o very
Ġf ish
Ġsec ure
Ġm ill
ĠB er
Ġcommun ities
Ġstat us
f ree
Ġhapp ens
Ġess ay
Ġsp ring
Ġofficial s
ick s
Ġpl aced
Ġelect ric
Ġmanag er
Ġch ann
ĠS a
Ġsy m
Ġwa iting
Ġfl av
ens es
os h
Ġm aster
Ġcent ury
C C
ent ially
Ġres ist
iqu es
5 00
ĠS al
Ġlim it
Ġra re
wor ks
Ġc overed
ĠJe w
Ġgu ess
ac ing
Ġcontin ues
Â ®
Ġf ill
re ak
ĠMan agement
it ar
Ġsec ret
ĠIn formation
Ġpo ol
Ġestab lish
az ine
Ġpart ies
Ġclaim s
ĠT O
Ġbal ance
ĠC ap
ĠB en
Ġtra ffic
Ġear n
Ġview s
Ġco ffee
l ook
Ġw ine
ĠP ower
ĠM al
ut y
ĠP ress
Ġthere fore
ger y
i ation
Ġme chan
Ġkeep ing
Ġg un
ĠUS A
ĠSo cial
Ġl ose
ul a
ĠTr ump
ĠCh ic
so ft
y er
Ġr ich
Ġfact ors
ĠIn s
Ġca used
Ġpass ion
Ġm att
Ġse lection
erv ation
Ġla unch
f ast
Ġspend ing
te xt
Ġst reet
ĠT ake
stand ing
Ġwatch ing
ĠProf ess
ĠS l
ĠO F
3 5
Ġf ashion
Ġro b
Ġt on
Ġs ession
Ġbe at
ad s
Ġref er
Ġl uck
Ġopen ed
Ġh ar
Ġform s
ĠC amp
ĠW ater
ĠL ou
ĠEduc ation
Ġcas ino
and er
Ġb oo
ĠD et
Ġear th
Ġtechn ical
âĢĿ ,
Ġide al
ĠSt ar
ĠDe c
os is
Ġvide os
Ġs ources
Ġte aching
az on
Ġb atter
Ġ9 0
ot a
Ġprep ared
Ġf ol
ĠS um
Ġdevelop ing
Ġep is
Ġbec omes
ĠW here
ĠSm ith
ĠCh inese
m en
ĠCong ress
Ġwin ter
Ġmention ed
Ġshow ed
Ġfund s
Ġexc ited
oo p
Ġe gg
Ġfor get
M S
um n
Ġrel ax
i pe
Ġseem ed
Ġlink s
Ġle aving
ĠP et
Ġdeterm ine
Ġex clus
Ġj ump
ro id
ĠOp en
k now
Ġc rowd
Ġgr ant
Ġcra ft
Ġl ands
A s
Ġcr is
it ness
Ġing red
Ġthous ands
Ġvis ion
ad ing
am in
2 7
Ġc atch
ul ed
ĠEng land
ĠB et
ĠMe xic
Ġ19 6
v ention
Ġmajor ity
Ġcommun ication
Ġp roud
ĠAfric a
Ġpl enty
l or
Ġpresent ed
Ġadd ing
Wh at
Ġtest ing
Ġest ate
Ġf lex
Ġleg isl
Ġstart s
Ġoper ations
Ġfore ign
Ġpain t
Ġbut ton
Ġele ments
Ġhand le
ĠV ir
Ġt im
oo per
Ġpol ic
ct ors
ill er
Ġc itiz
Ġdire ction
l ig
T S
Ġbec oming
ĠPro ject
Ġcoun ter
ĠM ount
m iss
Ġ ice
Ġg ain
Ġim pl
ĠGe orge
oy al
Ġra p
ap ers
Ġe th
R e
ent ed
ĠF ore
ĠSte p
Ġmem ory
Ġpost ed
Ġsh ape
Ġdes pite
i pp
Ġw edding
ĠC all
ĠThe ir
Ġsu gar
ĠS ing
Ġwind ow
ĠS il
Ġe fficient
R A
ĠL ake
Ġun c
Ġp air
Ġfam ous
Ġf urn
as p
Ġinj ury
Ġple as
Ġj ournal
g ment
o e
Ġrecord s
i ers
Ġdescrib ed
es ome
ĠBe fore
i ency
u gg
Ġmin ute
Ġclear ly
ĠDem ocr
Ġleaders hip
Ġs now
ĠM il
or ney
Ġindepend ent
ĠG lo
ĠBro wn
od es
Ġar gu
Ġst ation
Ġvict im
do or
ell ow
Ġk id
P A
ĠA lex
he m
Ġvol unte
Ġdepart ment
Ġsche dule
Ġg raph
ĠB oth
ĠL ove
Ġded icated
Ġr ank
Ġfl u
Ġdi agn
h ow
ĠC ustom
O W
Ġdisc over
Ġcent ral
Ġs and
Ġest im
Ġwel come
Ġwill ing
Ġlo an
ili ar
Ġcre am
ĠAt t
Ġappear s
ur ies
ĠOn line
ant ic
Ġother wise
Ġval ues
Ġappro x
Ġres idents
Ġdec ide
Ġd at
ĠF orm
Ġcar s
2 6
Ġm ental
Ġcl oud
et te
Ġrem ove
ĠV ol
lo g
ĠF ood
Ġcon ven
Ġsc hed
Ġend ed
Ġag ency
Ġwor ry
Ġt ask
Ġnum erous
? "
cri pt
ĠB ur
ĠH y
Ġv ir
Ġwin ning
Ġfocus ed
Ġle aves
st e
Ġsmall er
Ġra ised
ĠSci ence
out hern
w in
Ġ3 5
Ġcl osed
Ġdec isions
Ġshow ing
2 9
st ate
Ġsust ain
Ġfab ric
Ġart ist
Ġadv ance
Ġst y
oll y
est ic
Ġv ote
2 8
f it
ick en
Ġexper ts
ĠT ur
Ġdri ver
Ġclass es
Ġhon est
Ġsepar ate
p oint
Ġb ird
ed y
ĠSt r
se mb
c raft
b ing
ent ure
os ition
Ġs ch
Ġsym pt
ĠM ot
Ġpres ence
n ight
Ġcont ains
Ġsho pping
I M
Ġpract ices
h y
ic on
ĠComm unity
ab ilities
Ġcap acity
in ct
Ġpl ants
Ġdec or
Ġchang ing
Ġanim als
Ġagree ment
b l
ĠM ain
Ġe ating
Ġde lic
ten ance
ĠV e
Ġt aste
ĠChic ago
k a
ne ct
ber g
Ġc ab
p an
Ġg arden
go ing
Ġopin ion
O M
Ġsex ual
om a
a ctions
Ġth row
Ġbuy ing
ak ed
ĠComm it
Ġb on
Ġhol iday
Ġt ree
is co
ĠF ire
ĠT imes
Ġwalk ing
Ġsm ooth
Ġc ore
Ġlist en
ĠW ood
Ġmark ets
Ġsh ip
Ġ7 0
Ġ200 5
Ġthough ts
Ġbr ight
in n
it z
ill a
Ġinc or
C A
k i
cept ion
Ġexpl ore
Ġr ide
ĠLe ague
Ġth us
Ġmot or
Ġslight ly
Ġm ail
7 0
ĠF ollow
Ġb ul
Ġupd ate
Ġb ought
Ġmanufact urer
Ġre ached
s hip
Ġpo ll
Ġ ign
Ġtra il
Ġtrans l
Ġlist ed
ĠMus ic
Ġd inner
Ġdef ense
Ġse ctor
Ġs pl
Ġl abor
it ure
Ġm icro
Ġmanag ed
" ,
Ġm o
ĠP ay
act ive
out s
Ġrele vant
U R
Ġfund ing
Ġa ctions
Ġbr ings
Ġb rief
an o
Ġbehav ior
ĠFr anc
Ġabsolute ly
Ġsh aring
ĠH ill
Ġtri al
Ġart ists
Ġrestaur ant
ĠSpe cial
Ġfeel s
ĠDevelop ment
The re
g l
Ġclass ic
ĠD iv
ĠL u
i xt
Ġcor ner
Ġteac hers
Ġarch itect
! âĢĿ
Ġident ify
Ġput ting
g a
Ġr id
ident ial
ĠCar ol
Ġinit ial
Ġlaw s
Ġass ign
Ġrelationship s
Ġneigh bor
Ġr ule
Ġprev iously
ĠBl ue
ĠSc ott
Ġcomb ination
Ġnot es
Ġcol ors
Ġfl at
ro y
Ġcover age
re hens
Ġencoura ge
r or
Ġbeaut y
ĠA P
ĠG ra
Ġb attle
Ġ( <
ck et
Ġse m
is ation
fe rences
ĠW il
Ġk ick
Ġsound s
p ress
Ġmost ly
ĠL ong
ĠSt art
E M
ĠCent ral
ĠM er
Ġsh ut
Ġv s
ĠS omet
ĠH ol
Ġart icles
ester day
is hes
Ġdeb t
i ance
Ġevent ually
ci pe
Ġad apt
B S
Ġadv anced
Ġpolic ies
ĠT im
Ġfac ilities
Ġsu mm
Ġem p
Ġoper ating
Ġvis ual
ĠSh ow
Ġdocu ments
Ġm outh
ĠG rand
ĠTe am
ĠW omen
Ġspe ct
9 0
ocol ate
B A
Ġar m
Ġask ing
Ġrespons ibility
Ġexc iting
Ġm ort
Ġconcer ns
Ġcirc um
ce l
Ġconnect ed
ĠAr ch
N A
ri pt
un ction
ĠAN D
ĠD ri
Ġla un
land s
Ġaltern ative
r d
Ġwh om
Ġse lling
Ġdiscuss ion
ĠAmeric ans
Ġsit u
m ail
p et
Ġfe e
Ġent ry
ĠSec urity
ĠSo ciety
Ġenvironment al
Ġ er
ĠJ im
omm od
Ġk illed
Ġdoub t
un ning
ĠEn ter
Ġf illed
all s
ĠAm azon
l ife
ar ge
ĠF ort
Ġd u
Ġch air
Ġselect ed
Ġadminist ration
h one
Ġr at
Ġbe ach
Ġcomp ar
wh ile
Ġve get
tern al
ĠJ ournal
ul ated
Ġneg ative
Ġcl im
Ġf uel
Ġ200 0
ĠRo bert
ĠEx per
ĠRe al
e ction
7 5
Ġth r
ĠDist rict
Ġmin or
ic ians
w ord
n o
ĠFound ation
ĠM ad
ĠCol or
Ġa p
Ġs outh
ĠOn ly
Ġprofession als
te red
ok es
Ġfriend ly
Ġaccom pl
) ;
Ġteac her
C H
ĠC D
ĠBe ach
in i
Ġsp ort
Ġfre ed
ĠE lect
r ont
Ġpost s
us hing
ĠJ ud
ĠIt s
Ġreturn ed
Ġexp ensive
c oh
arr ant
Ġpack age
h ab
Ġwas te
Ġtemper ature
I A
ĠTh ose
Ġgener ation
og rap
ess ions
ruct ure
us hed
at ures
Ġm ap
EN T
Ġmar riage
ĠA L
Ġed ge
ĠT or
Ġse a
ree k
fort unately
Ġun less
Ġt ight
Ġj oint
Ġcons id
f in
ĠKe ep
up s
Ġsong s
Ġfem ale
Ġra in
Ġm ur
s pe
ĠMc C
if ts
ĠA S
Ġmult i
Ġallow ing
ĠV iew
ĠCommit tee
Ġhelp ful
ĠMed ia
Ġpl astic
know n
i us
Ġpl ays
ĠM ont
Ġcorpor ate
Ġr ise
Ġmed ium
ĠWhe ther
e ed
ĠVal ley
n oon
ll ig
Ġtrans form
Ġrad io
b ut
Ġmet al
ĠAt l
ĠSt and
or ter
Ġn or
Ġyou th
ĠM el
Ġspec ies
Ġapp lied
n el
ĠD ata
Ġenjoy ed
Ġhe aring
Ġsign ed
Ġgu ests
ĠL at
Ġroom s
Ġ200 4
Ġtechn iques
ĠPro duct
Ġfe es
Ġar rest
ĠFr ank
Ġtyp ically
9 5
ol a
Ġsur vey
ul ate
ĠAc adem
ĠT re
Ġsee k
ĠJ ul
Ġproper ties
ĠC ard
Ġlead s
ĠH am
Ġ4 5
od ies
ĠU N
ĠP eter
Ġsecond s
Ġconvers ation
âĢ ľ
Ġread ers
ĠEng ine
Ġind ic
ĠQ ue
Ġopt im
Ġhold ing
Ġinflu ence
Ġimport ance
Ġwrit er
Ġn orth
Ġassist ance
ĠUn ion
Ġmin imum
Ġdist ance
is her
ĠNe xt
Ġbus y
um ber
Ġcomm itted
Ġour selves
Ġra ise
Ġsympt oms
r im
ĠGovern ment
__ __
ĠM ike
Ġthem e
Ġcl imate
Ġfor ces
ult ure
Ġjo ined
ot ic
Ġconsum ers
ĠO ffic
Ġprin ci
Ġnot ed
Ġs itting
ĠD ig
Ġp al
g ers
Ġse qu
Ġp ush
Ġbut ter
ĠOr gan
t op
as ks
Ġfor g
Ġb rows
Ġwe ap
ĠVir gin
r s
ĠM ass
Ġmeas ures
Ġfac ility
ĠL ist
ol es
Ġt ough
ort hern
Ġprocess es
Ġche ap
ĠN Y
ĠInst ead
ĠCon st
u ce
Ġp un
Ġcon text
ĠMicro soft
ord in
Ġsur gery
Ġtop ic
ĠR ad
ear s
Ġte ach
ĠR E
Ġfour th
pr ise
Ġat h
Ġdis p
Ġrecommend ed
Ġmiss ing
Ġvisit ors
3 3
ig an
Ġsh ipping
os en
Ġe lection
Ġperform ed
Ġcall ing
ĠM a
Ġrese arc
Ġset s
Ġfam iliar
ĠEar th
Ġdist rict
Ġsp ons
Ġrep air
Ġn ine
ĠP erson
Ġqu iet
wh at
Ġingred ients
Ġsa v
Ġacc ident
Ġappe ared
ĠFam ily
t ion
ĠFr ance
ist an
Ġproper ly
Ġsal t
e al
S A
z en
Ġup gr
c her
Ġb an
ĠC EO
ĠBu ild
Ġexpl ain
Ġtot ally
p o
Ġth ick
ĠN ov
Ġsupp osed
ĠR y
Ġsign s
Ġstore s
Ġ5 00
w ith
um s
Ġposs ibly
y a
ol ars
wh ich
Ġapp arent
uc le
Ġj u
Ġannoun ce
w ater
Ġc ities
pos es
Ġdo gs
ĠL os
Ġst ret
Ġacc ommod
Ġsee king
ĠCont act
Ġc aught
Ġanim al
d en
Ġm ent
Ġf if
ĠF il
Ġoper ation
ĠThom as
roll ed
Ġcon cent
om in
Ġacadem ic
ĠW estern
u able
Ġr an
Ġpred ict
Ġd ie
ig r
ĠW ord
Ġcult ural
ĠJo e
ĠPart y
Ġc art
ĠCh ris
l ist
Ġwebs ites
ĠAfric an
Ġd ur
r ical
ci ent
ive red
ĠSec ond
Ġs oul
ĠN ote
Ġdes k
Ġconf idence
Ġinte llig
Ġ3 6
Ġse at
Ġmain tenance
Ġmar ried
Ġd yn
Ġsc ale
Ġadult s
Ġconf lic
Ġg all
ag s
Ġcomb ined
k in
ci pl
Ġl ived
Ġh un
um in
ĠL ight
Ġviol ence
and a
Ġform at
Ġafter noon
Ġtell s
i at
ĠB ob
av ig
Ġcour ses
Ġclean ing
ĠT est
ĠN OT
Ġdoll ars
Ġserv ing
ĠD ou
Ġmag n
Ġprof ile
Ġre cipe
Ġe ffic
Ġchar ges
ĠS and
ĠMay be
Ġcon v
L C
Ġst ated
Ġspecific ally
Ġcont em
ĠM o
Ġ200 3
it a
Ġdisc ount
Ġpan el
Ġde pos
Ġph il
Ġchem ical
Ġm ale
Ġy es
ĠMed ical
Ġd ance
ĠPol ice
Ġt un
Ġch at
Ġtre es
Ġocc up
Ġar g
Ġdes ire
ĠRep ort
Ġext ensive
Ġenh ance
Ġw ire
Ġpre gn
Ġdat ab
ĠT ri
Ġloc ations
! )
ing ly
Ġpur poses
ĠN or
Ġthe rapy
ĠO ld
Ġremov ed
ĠG ame
room s
y e
Ġmot iv
Ġdec ades
ĠHe ad
i en
ĠWill iam
er g
Ġreal ize
Ġv an
res p
ĠS et
Ġprom ote
ir ation
Ġex change
Ġval id
Ġfor ced
Ġfail ed
Ġto w
Ġaw esome
ĠL o
Ġemer gency
ic ian
Ġbring ing
an ia
im inal
ĠW all
Ġany where
Ġtele vision
ult y
f ol
Ġ rom
ĠO k
os es
ĠG en
Ġintern al
m es
iven ess
C T
c les
ĠCan ad
Ġb ike
Ġb ond
Ġre cip
ĠM useum
Ġcitiz ens
Ġs ides
Ġex ecutive
Ġinte nded
i est
ri er
Ġl unch
Ġf old
idd en
Ġman ner
Ġapprox imately
Ġun s
Ġhundred s
ĠD an
Ġappear ance
Ġr ub
Ġmil k
ĠL im
Ġrap id
Ġfav our
Ġpro p
Ġord ers
rehens ive
Ġdisc overed
Ġlands c
Ġfant astic
Ġsu it
Ġemploy ee
I R
Ġmax imum
Ġf ruit
Ġd er
Ġar range
Ġaccount s
ĠB i
Ġstrateg ies
Ġmen u
Ġstand ing
Ġj oy
Ġconsum er
ĠHum an
Ġre ference
l ines
Ġbas k
Ġste el
Ġaspect s
fe ction
Ġapp s
Ġve ter
Ġdepend ing
ph as
ĠS ign
Ġwor se
Ġbeg ins
Ġg ather
Ġam b
ĠF und
ut s
k ins
Ġl ibrary
Ġgreat est
ĠiP hone
ĠG ar
pect ed
ĠGerm an
Ġca uses
Ġcircum st
Ġmov ies
Ġed itor
Ġun its
Ġboo st
Ġsto pped
ar p
Ġveh icles
ars h
Ġfail ure
e v
coh ol
Ġbig ger
ag ram
ĠLou is
Ġf aster
e per
ĠTh rough
Ġvol ume
c ont
Ġbre ast
ĠGerm any
ĠI ll
Ġinterest s
Ġsw itch
ĠAut hor
ĠJe ff
e qu
ĠP ub
Ġser ver
Ġintrodu ced
b u
Ġqu ant
3 6
ĠD en
Ġqu ot
Ġupd ated
ide o
Ġr ing
Ġpropos ed
ĠK now
ra g
T H
re ens
ific ations
ĠA ud
ĠY OU
ĠIn vest
Ġconcer ned
b our
Ġpay ing
Ġb urn
ĠJ ose
rast ructure
ĠF ull
Ġeduc ational
Ġdesign s
ĠI D
ĠPro v
Ġass um
ĠJohn son
Ġrelig ious
rel ated
Ġan x
Ġtest s
Ġbro ken
dd en
C R
Ġm ir
Ġdel ivered
Ġf le
Ġre venue
Ġtw ice
ĠA ward
Ġt ables
Ġu ne
Ġst ars
el ines
Ġsh ock
e en
ĠI d
Ġcommit ment
Ġte en
ow nt
Ġinst ance
Ġwe aring
Ġdec re
Ġfl ight
Ġm ine
a it
Ġfact or
ĠW ild
ĠB as
Ġhigh light
ĠT own
are n
Ġdetail ed
Ġgood s
Ġsupport ed
Ġt ast
m et
ner gy
Ġappro ved
Ġlaun ched
Ġadvert ising
ĠO per
Ġrec overy
Ġdru gs
Ġel imin
Ġpr ison
Ġimpro ved
Ġparticip ants
Ġdet ect
Ġfreed om
Ġl ux
Ġprovid er
Ġb ound
Ġturn s
ĠSec ret
Ġaud io
Ġag reed
as er
ir med
Ġbelie f
ĠC up
Ġcomm and
Ġcris is
Ġte a
ĠC y
ĠE conom
Ġk ill
Ġtell ing
Ġf ly
Ġbro wn
or ough
ĠC ath
ul ous
ĠI P
az z
ĠLe ad
Ġbrand s
ĠV ict
Ġcompon ents
Ġclin ical
Ġdra ft
ĠInt e
Ġy esterday
Ġy ards
Ġdefe nd
Ġsu dden
Ġch ief
r ad
Ġprep are
ll a
Ġtechn ologies
ĠDo es
ce an
ĠUs ing
ĠC as
Ġv en
Ġsw im
er ry
Ġwork sh
lud ing
Ġarri ved
Ġro t
Ġdis s
ĠChar l
Ġwe ak
Ġs ister
Ġsupport ing
Ġtru ck
Ġlab el
Ġspe aking
oss ible
ĠRuss ian
Ġoccas ion
Ġsy mb
4 4
ĠD i
Ġjud ge
ĠNet work
Ġcon sequ
ĠPro te
Ġincor por
Ġdeterm ined
Ġspe ech
ĠPl us
ĠSer ies
en a
Ġtrou ble
Ġfood s
het ic
Ġro of
ar io
Ġinsp ired
M y
ĠG al
Ġsc r
Ġsqu are
ĠDown load
ens ions
Ġme at
ĠWe ek
Ġhous ing
Ġcre ation
ĠW ay
Ġa id
Ġw itness
Ġp u
Ġc op
Ġclos er
Ġredu ced
Ġcho ices
ĠRuss ia
Ġplan ned
Ġhe ro
ĠP an
Ġun iversity
ĠM aster
k es
Ġe c
ĠM en
Ġse vere
. âĢĻ
Ġentire ly
Ġaffect ed
Ġconsid ering
ĠSupp ort
Ġele ment
Ġl iqu
Ġprocess ing
h ors
Ġme al
ĠW al
ri a
Ġconcer n
Ġrem ark
F L
Ġan g
ĠO N
Ġkind s
Ġhtt ps
Ġs ac
Ġend s
n ov
Ġepis ode
Ġdang erous
Ġneighbor hood
Ġimag ine
t ra
ĠF ederal
ĠTechn ology
Ġtick ets
Ġexpl ained
ĠAnd roid
C E
Ġpark ing
all ed
Ġs ad
en cing
ĠK ore
ĠMexic o
ĠGlo bal
Ġinvest ors
le g
est yle
ĠA T
S h
Ġtre ated
bur g
igh ter
Ġrem aining
ĠCon ference
3 2
e f
ĠAd v
ul ations
erv es
Ġinvestig ation
ir ty
ib ilities
ĠAnge les
h t
le ts
Ġcomp lic
Ġvict ory
ĠChild ren
em s
or ry
is er
ĠP R
Ġadv oc
ĠS ar
Ġoffic er
pre ne
Ġeffect ively
Ġco ast
ĠMart in
Ġd ial
ĠM ax
Ġv ary
C S
Ġt ro
Ġpers pective
Ġt error
Ġv it
Ġpo ly
Ġbo at
or ation
Ġconst it
I F
Ġcateg ory
r ick
ĠL ab
ĠAd minist
c ol
ult ural
o or
3 8
il it
Ġcook ing
pa per
ĠJ on
re prene
Ġw arrant
Ġrece iving
Ġres ol
ition ally
re al
Ġparticip ate
Ġcrit ic
ĠI ra
Ġcal cul
W hen
Ġexam ples
rom e
Ġmass ive
Ġp ure
h and
Ġne ck
os oph
ĠN E
og a
Ġknow ing
ost on
Ġag encies
Ġpick ed
Ġexpert ise
Ġch ocolate
Ġinstall ed
ap ed
Ġher self
Ġcar ried
g age
ĠW atch
ĠF urther
Ġw al
Ġiss ued
Ġregular ly
Ġscient ific
Ġrel atively
w ing
Ġfun ctions
Ġl it
Ġconf irm
i ams
Ġcol our
Ġhy d
Ġbel ong
Ġcomm ission
ĠJapan ese
ĠHist ory
Ġrecord ed
Ġr ough
ĠTh ough
Ġcut ting
L A
ne ver
Ġmod e
Ġv oc
Ġphot ograph
Ġupd ates
Ġvac c
D F
O P
ĠB ow
ig ration
Ġrem ote
Ġis land
ĠCh ief
ĠVirgin ia
Ġconst ruct
Ġ Ð
Ġch art
Ġfil ms
Ġcr ime
Ġfeed back
! "
Ġsurpr ise
Ġcompet itive
Ġauthor ity
Ġinstall ation
Ġregist ered
Ġag ent
Ġa f
Ġb en
ĠV er
ĠIs l
Ġreve aled
Ġindust rial
ĠB re
ĠAr ts
Ġboy s
Ġident ified
Ġinnov ative
5 5
Ġ3 2
ĠDe v
V ID
ad ed
Ġche ese
ĠComm un
ĠE xt
i ability
Ġwe alth
Ġmatt ers
ĠP enn
w est
ĠJ ones
Ġus ual
ot i
Ġun like
Ġ200 1
Ġg rown
ĠM ur
Ġperfect ly
ak s
Ġch ain
at re
ĠL and
F or
3 4
ĠDes pite
Ġtop ics
ci a
ĠH en
Ġwin ner
Ġhappen ing
Ġm el
Ġgu est
Ġobv ious
ĠC A
og ue
ĠInd ust
Ġhouse hold
Ġaccept ed
Ġchar ged
ĠS qu
Ġinvol ve
i as
Ġres ource
ĠC re
Ġpract ical
Ġch osen
ĠRe v
Ġemploy ment
Ġout door
Ġmiss ed
Ġtrad ing
Ġemot ional
ĠB rand
ĠH aw
Ġresearc hers
Ġadminist r
Ġpurch ased
ir ms
ĠH D
ĠA ccess
ĠCont in
ĠLe e
ic ing
ĠLear n
ploy ment
Ġp m
Ġob lig
e ah
Ġme re
Ġmom ents
ck now
Ġun f
Ġprote in
Ġfol ks
ĠE nd
Ġbuild ings
Ġo dd
Ġsignificant ly
Ġthe ory
ual ity
Ġcount y
Ġb read
Ġso le
Ġpos itions
Ġcandid ates
al ian
ĠL ink
ĠB oy
H ow
ar ian
S P
Ġworld wide
Ġex cess
Ġp ump
ĠIra q
Ġf ulf
Ġansw ers
Ġcircumst ances
ĠE nergy
Ġst orm
. '
Ġrest rict
in ch
ĠC H
r ate
Ġfor t
Ġem phas
Ġbask et
m osp
Ġcont ro
Ġlove ly
Ġreg ister
he w
u nder
Ġcomp rehensive
A nd
Ġt ail
Ġproced ure
Ġsc ored
Ġaccur ate
u ated
Ġfrequ ently
Ġequ al
ĠAustral ian
U T
u a
ĠY et
ĠD id
app y
Ġattack s
Ġdisapp oint
Ġfell ow
Ġcre w
Ġlic ense
ĠSpr ing
Ġval uable
n et
Ġinf rastructure
Ġm al
ĠR ight
Ġsc ript
in er
re ets
Ġrout e
Ġautom atically
Ġbatter y
Ġch icken
ed ia
Ġcent re
Ġt aught
Ġn one
Ġg ro
Ġmess ages
O n
he nt
ert s
ĠW alk
g as
Ġ200 2
3 7
Ġfeat ured
Ġn ucle
ĠP age
ap es
Ġris ks
ĠYou ng
Ġmon it
ĠM ic
Ġhold s
Ġun ivers
ĠSte ve
h us
ĠC at
ĠC ost
Ġhon or
Ġguarant ee
ĠOh io
N o
Ġconst antly
Ġfollow s
ĠM iddle
ĠB oston
ric s
Ġcy cle
ĠSomet imes
Ġl osing
i ors
i i
we ight
Ġmonth ly
ill y
N ew
ĠC reat
ĠMin ister
Ġ error
ĠF air
ĠJack son
4 8
M P
Ġh ur
Ġre new
Ġhistor ical
ly mp
Ġp ed
ack s
m ond
ourn ament
Ġlight s
ĠCor por
ic it
c ers
Ġg rew
Ġtur ning
ĠT em
ang ed
ĠKe y
Ġsp r
Ġfurn iture
ĠA ri
ĠM id
Ġra nd
Ġmag azine
ĠWill iams
Ġbreak fast
Ġdo ors
Ġsho es
Ġshoot ing
Ġafford able
Ġf ro
Ġle ague
Ġdistrib ution
ĠTh ree
ĠD ani
Ġear ned
Ġproced ures
Ġfore st
Ġfield s
Ġ iron
Ġsim pl
ĠÂ ©
Ġs an
Ġprovid ers
ĠG all
Ġo k
Ġs ick
Ġrep ut
ĠWh ich
lud ed
Ġstud io
Ġmeet ings
ĠCarol ina
Ġkeep s
Ġprotect ed
ĠO pt
Ġmed icine
Ġath let
Ġmus ical
ĠCanad ian
em ic
Ġ3 00
mer ce
ĠE U
Ġa cknow
Ġc orn
ĠD u
ro ad
Ġwind ows
Ġl augh
ĠL ive
ĠC ook
p ot
Ġco vers
Ġt ack
s m
Ġh ook
Ġelect ronic
he red
Ġsh ares
Ġwor st
ĠH and
ĠE r
ĠFin ally
x y
ĠSo ft
ans ion
Ġoffic ers
Ġel ig
Ġen em
ĠA rab
A n
Ġgu ard
à ¤
om y
Ġcr iminal
Ġappreci ate
el ess
Ġcont rast
ĠAcadem y
Ġab use
Ġinc hes
Ġconduct ed
i ety
Ġdis h
Ġdr am
ĠT it
Ġchann el
Ġatt orney
ĠP ac
Ġdom estic
Ġk ing
ĠJ un
r um
Ġdeg rees
Ġsched uled
Ġper man
4 9
ĠCent re
Ġaware ness
Ġen able
ĠF estival
Ġincred ible
p ass
Ġinstit utions
Ġc ro
Ġ20 21
ĠSt ill
ĠPr ice
ĠRich ard
Ã Ń
Ġout put
Ġass ets
Ġm ut
ĠT ru
ang es
or a
Ġrestaur ants
t a
ans as
Ġrout ine
ĠD ate
Ġl ib
Ġmanufact uring
y ou
ĠO R
Ġup coming
ĠP ack
Ġengine ering
an ish
Ġdri vers
osp it
Ġgra b
ĠL ibrary
ampions hip
O D
ĠThere fore
ĠMan ager
Ġs essions
Ġpro ceed
c a
Ġwalk ed
Ġcomp ens
Ġrecogn ized
Ġdatab ase
Ġhor se
Ġfix ed
Ġrand om
Ġpresent ation
Ġh urt
Ġar ms
ĠF our
Ġpl ate
p ret
Ġt rib
Ġal cohol
h i
ang er
Ġsett ings
Ġsubst ant
Ġfight ing
Ġn avig
ĠM S
Ġnot iced
The y
ĠGe org
ĠR est
Ġtyp ical
Ġst one
ar row
Ġentertain ment
Ġcont est
Ġrel iable
ĠA ff
Ġro w
ĠHot el
G B
cu it
ĠP ass
Ġpl ug
Ġa st
Ġvis iting
ĠO lymp
Ġeffic iency
S o
ĠÂ ·
oos ing
3 9
Ġmill ions
Ġsu itable
Ġsitu ations
Ġfac ing
Ġorgan ic
I s
Ġfor th
Ġreport ing
ĠS ports
ĠC oll
lo c
ĠAg ain
ck ing
Ġdel ight
Ġsupport s
Ġclot hes
g ent
Ġtal ent
U N
ĠApp lic
ĠM A
ost er
Ġvirt ual
Ġtre nd
c an
re te
ĠL ittle
force ment
ĠS af
ra ce
Ġlay er
Ġde als
ĠE qu
Ġdelic ious
Ġreg ional
ĠPl ace
Ġinj uries
ĠA D
Ġat mosp
Ġconf ig
ĠMich igan
Ġreal ized
ok ing
Ġbow l
ĠC ir
ĠK en
T A
ĠM at
ĠB al
Ġincre ases
3 1
Ġcare fully
Ġtax es
ĠAs ia
Ġpay ments
ĠDe f
Ġs in
Ġn urs
Ġmot ion
Ġident ity
Ġjust ice
com m
Ġwhe el
Ġwall s
Ġvill age
p es
Ġin put
Ġt asks
ĠL og
Ġconf irmed
ac hel
ĠG irl
Ġun able
ĠT our
ĠSen ate
Ġprem ium
w rit
Ġcra zy
ĠS P
ĠK n
ge nd
Ġbl ess
ab led
Ġj ack
Ġimp ossible
Ġdeb ate
ĠPar is
ĠL ib
os ite
Ġextend ed
in et
Ġd ump
Ġret ire
ĠIr an
Ġstand s
ĠDig ital
c ar
Ġc ake
ĠS earch
y ard
ab et
Ġk ne
ĠNe ver
Ġpub lish
Ġassess ment
Ġw id
Ġd im
ĠFranc isco
Ġsymb ol
u gh
ĠU t
4 7
li ance
Ġsus p
âĢĻ .
Ġsurround ing
ut ing
Ġsuggest ed
Ġill ustr
Ġfound ation
ĠMe an
Ġsurpr ised
Ġre form
Ġac id
Ġsol ar
ĠE p
Ġpolit ics
Ġflow ers
Ġch apter
Ġte eth
Ġfig ures
Ġsur f
Ġexpect ations
com es
ĠTr ust
Ġchalleng ing
Ġcandid ate
Ġser iously
Ġh ate
Ġn ative
Ġsa uce
Ġreason able
Ġp il
Ġcamp us
Ġtick et
Ġsam ple
Ġeng age
Ġent ered
ĠH aving
ord ers
Ġauthor ities
in ations
Ġadv is
Ġpull ed
w orth
ĠRepublic an
Ġon going
ĠQu est
Ġ4 8
ĠH ospital
Ġport ion
Ġlist ening
er ation
C l
Ġprof it
Ġimpress ive
ĠCol umb
crib e
Ġc ooper
Ġf uck
Ġexp osure
Ġown ed
v y
Ġ icon
Ġsy n
Ġ ille
Ġbirth day
Ġtw e
Ġdec ade
ad ow
ĠBu y
Ġinstru ctions
Ġserv es
Ġregul ations
Ġbon us
0 5
Ġ19 5
ĠCont rol
as tern
Ġre in
Ġgr ade
ĠV ideo
er ies
Ġad m
Ġyoung er
Ġsil ver
Ġlov es
Ġfun ny
atur ally
ac he
Ġw et
ri ble
Ġreturn s
Ġlik ed
st one
Ġres olution
Ġbelie ved
ed ing
Ġ7 5
ĠC B
Ġdiffe rences
P ro
semb ly
Ġmus cle
Ġprom pt
Ġf o
ĠPre m
ind er
Ġfact s
Ġpattern s
Ġexclus ive
ĠM ult
Ġsuccess fully
Ġb odies
ĠC opy
ĠL ow
Ġro ot
Ġappe al
ell y
Ġu pper
Ġv ul
ĠCur rent
Ġco ck
ĠT ry
Ġfair ly
al a
Ġt iny
Ġed ition
p erson
ĠF OR
Ġaff ili
Ġcommit tee
Ġpain ting
Ġdep th
Ġcar bon
Ġdro pped
0 1
O C
Ġcoun sel
Ġinde ed
ĠH ard
ĠHel p
Ġar ts
T C
ĠW H
el f
Ġlik es
Ġdiscuss ed
Ġfl ood
Ġsp oke
Ġri ver
4 6
ĠUn fortunately
Ġhealth care
Ġmount ain
Ġst im
ĠK im
Ġsch olars
Ġdest roy
Ġorigin ally
resp ond
l ights
ĠIt alian
Ġconsist ent
ĠVict or
Ġn om
Ġhe ight
Ġag es
Ġv ital
Ġpriv acy
Ġtom orrow
ĠB ible
Ġplan et
ĠCo ast
om an
el ine
Ġslow ly
Ġdist inct
Ġimprove ment
Ġstret ch
Ġinter ior
in em
ĠC ert
ĠR a
Ġmix ed
Ġhous es
Ġs ight
V D
r id
ĠH ope
d ate
Ġth orough
r as
A A
Ġbe ar
Ġinc ident
ĠMus lim
Ġd ownt
Ġinf o
ĠN ight
ag ues
Ġcon clus
ag on
AT ION
Ġy ellow
Ġexpress ion
Ġconf ident
ber ry
ĠM P
Ġrel ief
Ġre ward
Ġsk y
Ġp itch
Ġill ness
Ġposs ibility
Ġbelie ves
ĠC ross
Ġleg s
Ġph ase
I I
Ġhas n
Ġh its
aw ay
ĠK h
Ġadd s
Ġcon ver
ĠF arm
Ġlo ans
Ġregist ration
Ġinc l
c ue
v a
Ġsm ile
ĠC e
Ġsp in
d y
ĠIn f
Ġsl ot
l ong
t le
Ġstate ments
is k
Ġdef ined
ĠA R
Ġpro ve
Ġevery day
ot al
Ġb anks
ĠProfess or
Ġent reprene
Th at
ixt ure
S S
B ut
Ġp apers
ĠW rit
u ction
Ġh ang
ĠI re
Ġg ear
Ġtr ig
Ġsk ill
Ġdel ay
ĠS on
ĠS ky
Ġgrad uate
ĠC ode
ĠMe et
ĠSp anish
Ġneg oti
ut ional
Ġent hus
Ġpros pect
Ġb at
ĠL t
Ġinnov ation
ĠSp irit
Ġth in
Ġsub mit
ay er
ĠD ar
ast s
Ġinv ent
ĠF un
al se
ĠL in
Ġspirit ual
Ġb are
ic ial
Ġtal ks
ĠEx ecutive
ĠRy an
ow ing
Ġv ast
Ġcelebr ate
ĠP oint
Ġdi verse
Ġmach ines
Ġapart ment
ot y
Ġex ternal
Ġsu c
ĠStud ents
Ġlif estyle
et ime
Ġth read
Ġcap able
Ġl ad
ĠAss ist
Ġnorm ally
ĠC ra
b i
Ġg od
ind ing
Ġst reets
P R
le te
ul ing
Ġfeel ings
ens ity
Ġtalk ed
RE E
ĠV an
Ġp od
Ġtra ined
ĠE ll
Ġsh ift
Ġso il
Ġless ons
Ġtest ed
Ġclose ly
Ġpartners hip
ĠR oyal
ĠAnd rew
Ġfeat uring
Ġha bit
ur ning
Ġas ide
ĠS anta
Ġaut hors
Ġconven ient
Ġb es
n ic
pp ers
Ġsupp lies
Ġfl our
Ġsuggest s
ĠJew ish
ĠTh us
Ġnet works
Ġimmedi ate
ER S
ĠPer haps
sec ut
t r
Ġt all
Ġform ed
Ġbas ically
Ġweek ly
ĠC ast
ĠR am
or al
Ġult imately
Ġph arm
Ġd ates
D on
ĠS outhern
Ġtrans ition
Ġem pt
Ġnear by
E E
ing u
Ġdi am
olly wood
Ġcontem porary
Ġt ag
Ġbreat h
Ġhe ll
ĠS ite
ath y
Ġblo gg
et her
ĠB ush
Ġphot ograp
a wn
Ġshe et
ĠH un
ĠDiv ision
T ube
h ost
en ger
Ġrecogn ize
Ġlic ens
Ġgl ad
ĠEx pl
Ġhard ware
Ġsh ots
amp ion
b orn
Ġpass ing
ĠOr ig
ĠSt at
ĠColor ado
Ġd ining
Ġg ay
ĠN on
Ġm useum
Ġperson ally
co ver
ain ts
el come
Ġpre par
Ġgu itar
ĠB on
Ġex ecut
ĠD ie
int s
Ġg olf
ol ar
Ġple ased
Ġconflic t
Ġliqu id
Ġdes cription
we et
Ġphil osoph
st ers
iver se
m ar
Ġtr ick
Ġappoint ment
u ine
Ġimpro ving
ĠAr my
ĠT erm
Ġhum ans
res ents
Ġc able
Ġp hen
Ġatt rib
c ling
ou ch
ĠU lt
Ġmo ist
Ġve nd
ĠS her
ast ers
Ġte ch
Ġh all
ist ers
gr ad
ato es
ĠP ot
Ġ id
Ġpro of
Ġag ents
Ġair port
Ġhe av
Ġincreasing ly
Ġcollabor ation
Ġw arn
ĠG ames
ES T
ĠJust ice
Ġdis cipl
end ar
in os
ot ton
b les
Ġhop ing
Ġe ase
Ġt ut
Ġsuff ering
Ġre ar
ail able
ĠDis c
Ġobv iously
Ġlegisl ation
Ġ Ã
ĠS n
ĠH or
Ġ3 3
Ġcoun cil
Ġfil ed
ĠD C
Ġsp aces
Ġstrateg ic
Ġstrugg le
ĠP op
Ġoper ate
ĠR ights
Ġsome where
Ġs izes
ĠM ach
g reg
r ition
ĠCh air
Ġtechn ique
Ġaccess ible
gy pt
Ġobject s
Ġn arr
ĠCath olic
Ġt iss
Ġord ered
Ġcreat es
b a
Ġant icip
Ġm and
Ġbe er
Ġj un
Ġrec ording
Ġdescrib e
ĠGeorg ia
L Y
ĠM ov
ĠAs h
ian o
ĠT urn
ĠChar les
Ġguid ance
pro fit
Ġexpl ains
Ġwrit ers
b el
am ental
Ġmanag ing
st ream
Ġwat ched
el lect
ĠIt aly
Ġent r
Ġint ent
â Ħ
Ġch ose
m l
Ġaut hent
ĠP ut
Ġdeal ing
G E
Ġmin i
th at
Ġsign al
Ġaut o
ĠS up
Ġcru cial
ly n
Ġ3 8
w hel
ĠS H
Ġh at
Ġout standing
ograph ic
Ġsm ell
Ġmov es
Ġlink ed
Ġbed room
Ġp ounds
ĠT ay
ĠF ar
ĠCon f
0 7
E x
ĠRes p
Ġdom in
ĠC a
se ll
ĠF ed
ĠR ose
Ġsus pect
on ed
Ġconst ant
ĠO l
Ġ3 7
Ġegg s
Ġan cient
Ġge nder
Ġalle ged
ĠO il
Ġind ex
Ġrep resents
id ays
as hed
ĠDani el
Ġplatform s
6 5
Ġsurpr ising
Ġtre nds
or able
Ġpur su
ĠF riend
it age
Ġfac ilit
Ġ ?
Ġprom ise
Ġorgan ized
Ġresist ance
ĠE st
ĠU k
Ġany way
Ġinst ruct
iz z
az e
ut ch
Ġmain ly
Ġcollect ed
i h
ĠE s
ĠEn vironment
ĠDis ney
Ġbath room
Ġfavour ite
ĠGu ide
ĠLoc al
Ġmonit oring
ĠW r
ĠD aily
Ġinter face
Ġimplement ation
Ġestim ated
l aw
Ġbrows er
ic o
ĠH a
Ġad s
ð Ł
ĠD og
Ġmon itor
ĠBo x
Ġt ip
red it
ĠCon nect
Ġele v
0 8
ĠSh ould
Ġclot hing
ra ge
Ġhead s
ĠAcc ount
Ġcontrib ute
Ġvac ation
ann y
B e
ian a
ĠM s
Ġur ban
p at
Ġvul ner
A meric
Ġadv enture
Ġg ent
ĠH on
Ġappro val
fol io
ign ed
ĠBe ing
Ġguid elines
Ã ¡
on na
pe l
ĠJ enn
Ġ3 4
Ġachie ved
ĠF ord
Ġresult ing
il st
al og
Ġfore ver
Ġlet ters
Ġprec ise
V E
r ich
cl ass
Ġbott le
um es
ĠIre land
ob by
Ġ err
Ġt ank
Ġlandsc ape
âĦ ¢
Ġla pt
Ġf asc
Ġdo ctors
ĠYou Tube
Ġatmosp here
Ġanx iety
ĠPer form
ad ium
ra id
Ġtransport ation
Ġabs or
ld er
Ġkn ock
Ġreplace ment
Ġweap ons
Ġex ec
Ġcl ar
Ġsome what
Ġdrink ing
Ġev ol
ĠE gypt
enn is
Ġinform ed
AR D
* *
ce ler
m ade
Ġprot est
ren cy
Ġcons erv
Ġact s
Ġh ospit
ĠSp ace
ĠTy pe
al le
Ġbroad cast
Ġinsp iration
Ġpro ven
Ġinter pret
Ġnecess arily
Ġcapt ure
ĠR on
Ġsp okes
ĠSc ot
Ġintegr ated
ĠCO VID
Ġgr ass
ĠSm all
Ġsty les
Ġra il
Ġrent al
Ġread er
Â °
ul s
ann a
Ġsub sequ
Ġn arrow
Ġpleas ure
z ing
Ġattend ed
y ers
Ġext ract
Ġfit ness
ĠPost ed
Ġsa ved
ĠH arr
um ps
Ġfil ter
ony m
U L
Ġz one
ĠR ay
l v
Ġl ie
ĠV ill
Ġluck y
Ġnucle ar
S E
ĠInst agram
ĠTh ink
Ġb order
Ġd ust
ĠRem ember
Ġh ire
Ġperform ing
Ġag ric
Ġpropos al
Ġro se
F C
Ġeng agement
z il
c ons
ĠJer sey
ĠS U
ck ed
Ġno ise
Ġmag ic
Ġprim arily
Ġqual ified
v i
ĠB lo
ir ts
Ġvers ions
Ġdisc l
ĠA C
ĠP ract
Ġton ight
Ġrelig ion
ri p
Ġshe l
Ġdirect ed
Ġext ent
Ġwide ly
Ġp ra
Ġwith d
P M
Ġf ishing
Ġdest ination
Ġ era
Ġcor respond
Ġfac es
% .
gh an
Ġp it
s he
uck y
Ġfind s
f ront
Ġre action
ĠC ond
ĠJ ob
Ġsp ark
ĠFin ancial
Ġs oph
ĠF red
Ġargu ment
Ġsu ffe
art ers
Ġvis ited
c ase
ĠHe art
4 2
Ġo ven
ĠMarket ing
Ġpl ot
AT E
Ġam end
ra cy
ĠAs k
b ar
Ġexper iment
Ġatt ached
Ġcommun ications
A Y
Ġsustain able
Ġapparent ly
Ġb ab
Ġm ic
Ġintellig ence
ĠAri z
Ġfl ag
Ġbr ill
Ġwere n
Ġshould n
ĠPh ys
Ġrefer red
Ġc oc
Ġst uck
te en
Ġfac ulty
ĠM ill
Ġhistor ic
er ate
le ments
M L
Ġal ive
Ġca using
Ġhop es
Ð µ
Ġg ifts
0 9
ĠF re
ĠBe ll
Ġw est
Ġexpress ed
Ġsav ings
ot he
ĠOr der
ĠLe g
ĠTra vel
iam i
Ġp in
Ġch ances
Ġsu fficient
Ġgener ate
Ġst ood
ĠSecret ary
ne ys
Ġcons cious
Ġso ci
Ġpers ons
u ment
Ġtrans p
og en
ĠD un
Ġc os
Ġa wards
ad el
is ms
Ġd uty
ĠP en
olog ist
Ġlux ury
ĠD ub
Ġdraw ing
O ur
ĠAdminist ration
Ġp ace
Ġpercent age
it ution
Ġch oosing
Ġdom ain
Ġf irms
Ġrepl aced
ĠPri v
ĠPac ific
Ġgen uine
ĠNe ed
r m
ur a
Ġcut s
Ġ4 00
ĠP S
Ġmembers hip
Ġcompon ent
Ġreput ation
Ġbag s
ĠMr s
Ġover whel
Ġ199 9
Ġelig ible
Ġamount s
ĠP ak
Ġse asons
ie ce
Ġredu ction
Ġinstru ment
ik es
ĠCle an
Ġh ole
ĠS at
Ġag gress
ins on
Ġstr ange
ĠTra ining
B I
Ġpow der
Ġ199 0
qu ir
f oot
ip l
ĠB a
ple te
Ġpot entially
Ġro les
ou red
Ġinv ited
Ġt ab
Ġprinci ples
Ġsh arp
Ġact ing
ĠCl in
ivers ary
Ð ¾
Ġp ipe
Ġp ill
ig er
ĠL ind
Ġ20 22
Ġrepe ated
Ġaccompl ish
Ġis ol
âĢĻ ,
Ġdevelop ers
ĠC ab
ĠPol icy
Ġh idden
ĠK ar
ĠK enn
less ly
Ġunder st
le vel
Ġtrack s
ur ation
Ġsearch ing
Ġj e
Ġtrad ition
8 8
Ġme als
st ra
Ġne ither
Ġbro ke
ĠT ax
s ue
ac le
av a
Ġ5 5
Ġlight ing
Ġter rit
Ġincred ibly
ĠO S
Ġsend ing
ĠJose ph
ĠE nt
ĠF ield
Ġfind ings
Ġprofess or
ste in
Ġtem pl
at i
ion e
ĠAd am
Ġdef ault
ĠPr in
ou p
Ġsuc ceed
Ġredu cing
ĠPerson al
ĠJ ac
Ġlarge ly
Ġrecommend ations
Ġt one
Ġeng aged
es sel
Ġfor um
Ġf alse
ur b
ĠH im
Ġexp enses
Ġflex ible
abet es
hold ers
Ġprogram me
Ġobtain ed
ust er
Ġ15 0
ĠWor ks
Ġmur der
r an
ut er
Ġvictim s
ĠR un
Ġopp on
ĠMount ain
ĠAre a
Ġcateg ories
Ġflav or
Ġun us
Ġr ating
Ġdesign er
Ġman ual
Ġwhe never
A l
st ar
og ether
Ġliter ally
Ġben ch
ĠTay lor
in ent
ult s
ĠSum mer
ific ate
ĠCar l
Ġclaim ed
b re
ĠSe a
Ġspl it
ure au
Ġqu ote
cip al
Ġsa ving
ĠSt an
Ġoccur red
it is
am ber
Ġscient ists
ĠS uch
Ġmem ories
ĠF ox
ĠV ery
ĠF act
Ġenter prise
ĠT able
Ġsupp lement
Ġrequ ests
Ġres idential
Ġsens itive
Ġev il
Ġfall ing
Ġprior ity
Ġe ast
Ġoff ices
Ġf ing
ĠK ent
0 6
P C
ub s
Ġscen es
Ġl ies
Ġsol ve
Ġsh ower
ĠR od
ĠL abor
int on
ĠStud ies
Ġaf raid
Ġt ournament
al ty
ĠB rian
Ġph r
ĠJo in
Ġm ile
Ġmat ches
Ġwas h
V ER
Ġintrodu ction
ĠS us
Ġdeb ut
Ġcontinu ing
n am
ĠS av
ĠZ eal
Ġst unning
âĢ ĺ
ĠPro du
0 2
Ġattract ive
Ġform al
ear ing
ap ing
iz er
Ġexp ansion
Ġaward ed
Ġexcept ion
Ġw ra
ĠC ru
Ġr ig
Ġg iant
t hen
Ġprodu cing
ri ers
Ġent it
Ġhead ed
ann ed
z er
Ġb act
Ġhe aling
âĢ¦ .
Ġfound ed
Ġlaw yer
C on
if ies
ĠE ss
Ġdyn amic
ĠA p
ĠCopy right
pp y
Ġper mission
oun ter
H S
Ġle ather
Ġphot ography
Ġempt y
Ġt ired
se ason
ĠM iami
st ery
Ġbe ll
ĠN ick
Ġr ice
C D
Ġjo ining
Ġco ordin
p age
Ġalong side
Ġcarry ing
o es
ik i
Ġun w
Ġd ad
ll ed
Ġn aturally
Ġdise ases
l ers
Ġstrong er
ĠAriz ona
Ġm ob
Ġtw enty
ĠPhot o
ĠF ather
Ġre ject
Ġult imate
Ġmort gage
Ġun ion
Ġbl ind
Ġfin ance
an es
ĠT er
ĠM obile
ict ed
Ġopp osite
ĠL y
ĠSen ior
Ð °
ĠH ou
ĠRe qu
ĠZeal and
Ġ ;
Ġ ~
Ġ6 5
ĠHen ry
ĠR oll
Ġcomp liance
Ġposs ess
Ġdefin ition
Ġarri ve
Ġbr idge
b ury
Ġcap abilities
A ll
Ġbre aking
friend ly
ĠWe bs
r ated
Ġneigh b
7 7
ĠBuild ing
Ġevery body
Ġin ner
ĠSt ore
ĠAm ong
Ġille gal
ĠRe f
Ġbird s
0 3
4 1
Ġf estival
Ġinvol ving
ĠBr ad
Ġregard less
Ġdepos it
Ġperman ent
ĠLt d
Ġrem ained
D S
Ġst ake
Ġ( $
Ġrec over
Ġg aming
inc luding
Ġrecogn ition
ĠH oly
ĠSystem s
C om
P l
Ġcomp r
vent ional
ath an
ĠÂ »
Ġinvol ves
m aking
ph y
Ġsudden ly
Ġany more
Ġt um
Ġb ull
ĠSe ction
Ġdiv ision
4 3
A r
ac c
Ġp ink
Ġle ts
Ġrec y
Ġpublic ation
Ġdepend s
Ġend ing
Ġinter act
Ġm ood
y stem
Ġcare ful
Ġd ivid
ĠA wards
Ġcontrol s
Ġfif th
Ġt act
Ġse ed
Ġcol umn
Ġcompar ison
ĠE vent
Ġprint ed
Ġmer ch
c ific
ar on
Ġfl ash
et ary
Ġst ead
ĠAs ian
Ġmanag ers
Ġhost ing
ha ust
Ġvir us
Ġdri ven
ĠBra zil
T V
Ġm ixture
if orm
che ster
ĠWith out
Ġblo cks
let ter
Ġse ats
nd ers
ĠBrit ain
b oy
Ġthink s
Ġl au
ĠD VD
Ġperson ality
ĠMed icine
Ġra w
Ġevery where
ĠTe ch
Ġco al
Ġb unch
ĠPro per
ĠJ r
Ġcover ing
nd a
Ġen forcement
Ġdream s
qu ality
ĠEx am
ĠMean while
Ġpub l
] .
ĠN umber
and emic
a per
id ers
Ġint ellect
Ġsche me
b ell
Ġliter ature
ĠSaf ety
Ġm a
Ġ )
as ure
Ġbut t
Ġnew ly
ĠN ic
ĠRo om
Ġarchitect ure
ĠC N
Ġrev olution
ĠN orthern
ĠSe lect
o ch
Ġw ins
Ġse es
Ġint ense
amp s
Ġavail ability
Ġlim its
ont o
Ġforg ot
ĠP rom
Ġhard er
Ġconsider ation
it i
Ġy ield
Ġn ic
b its
u ous
ro gen
Ġexpl an
orge ous
ĠLook ing
Ġexp osed
Ġsh ops
Ġc ute
Ġch arm
im ize
Ġconc ert
R S
ĠAdd itionally
ĠH ollywood
iz za
Ġhand ling
Ġindust ries
Ġr ising
Ġtra ve
Ġstri ke
u ing
Ġbase ball
E A
Ġunder t
rem ony
ĠG M
Ġreg ions
ĠEvery one
Ġb att
Ġl oud
ĠB ru
ĠD am
ate ful
Ġcontro vers
amb ling
ro g
Ġwrit es
s we
ĠE ric
Ġshould er
Ġenjoy ing
Ġconc rete
in ity
ĠC ase
ĠK at
Ġb ars
Ġb orrow
ic ide
Ġv ice
Ġtreat ments
Ġw ave
ĠHar ry
p ack
ĠTe le
Ġph ones
Ġin fection
Ġsub mitted
Ġune x
Ġf lying
lo se
Ġ199 8
Ġres erved
o ices
ant ed
ress ed
Ġequ ival
Ġfund amental
Ġsubject s
3 00
d s
ĠF all
Ġput s
ĠDri ve
le ep
ĠJ osh
iss ions
Ġsuffe red
ro ke
Ġcomp are
u ct
Ġj ew
Ġg ard
Ġoff ensive
T o
p ir
ĠD ark
Ġcommun icate
Ġmanufacturer s
ĠTh ings
Ġvis ible
ĠDav is
Ġt ape
Ġcent ers
ĠSup reme
ĠB all
ĠV i
Ġconne ctions
Ġl ip
ĠD O
w art
t es
C O
Ġobs erved
st s
ne ll
ĠO K
Ġal t
ĠS S
b ration
in te
Ġins ight
Ġdes ired
Ġmark ed
t w
w ords
us al
Ġcert ified
er as
ĠF REE
Ġport folio
Ġexist ence
Ġiniti ative
ĠBro ad
Ġ âĢĻ
Ġcommon ly
Ġrec on
Ġconsequ ences
A B
Ġele g
Ġprogram ming
Ġfra ud
Ġgent le
ĠF oot
ph ones
ĠKing dom
Ġla id
oc racy
Ġarrest ed
ĠSil ver
0 4
Ġbl ank
ino is
ĠVis it
ick et
ĠIr ish
R I
ĠA venue
br idge
ES S
Ġgot ten
F i
Ġt ie
ĠT reat
ol it
Ġpe pper
Ġret urning
Ġcook ies
al ysis
st al
d a
Ġg ym
Ġpres ents
ĠKe vin
d es
Ġb aking
Ġre act
Ġh ung
ol is
Ġnews paper
Ġlog o
, '
ĠC P
Ġconsum ption
Ġdra wn
Ġdownt own
Ġst rict
ic ious
ĠP o
ĠG arden
ĠL ine
ĠU r
Ġrecip es
ĠFor ce
ĠR and
ĠPr ime
ĠSm art
ate ll
Ġout come
ann el
ĠC ON
Ġdem ands
ĠO ak
Ġup load
Ġun com
Ġlist s
Ġchann els
il a
ĠH as
Ġbasket ball
Ġfarm ers
Ġsac r
Ġgrant ed
Ġout comes
Ġcolle agues
Ġless on
Ġo l
li ament
Ġtit les
Ġle ct
Ġstruct ures
Ġframe work
ask a
um a
ark s
ĠSh are
Ġbeh alf
Ġencoura ged
Ġprepar ation
Ġy ard
Ġcompens ation
ĠM ir
U n
Ġt or
ul ating
Ġexper im
co in
ĠEn joy
Ġprefer red
ĠWil son
Ġcont rolled
Ġass ume
Ġfac ed
Ġretire ment
ĠL LC
Ġf inger
ru ption
ĠAg ency
ĠCount ry
ĠLear ning
ĠB ad
Ġtravel ing
ial s
Ġev olution
Ġmark s
Ġref und
ĠQue en
ĠM iller
cl aim
Ġcrit eria
ĠE mer
ck er
Ġdeep ly
Ġstay ing
ĠProfess ional
r un
Ġdec ent
j a
Ġk it
miss ions
p ed
Ġcopy right
ĠiP ad
Ġcon vin
Ġpurch asing
Ġf ru
Ġdep ression
Ġopin ions
ĠC ivil
ĠW ould
Ġcons ists
Ġdoll ar
Ġ ðŁ
Ġab and
Ġinj ured
c ular
Ġde eper
Ġob st
Ġveget ables
ra ction
Ġfore cast
ĠP ur
ĠHe ll
ik ing
ok en
Ġnight s
Ġvolunte ers
ot o
ĠN ame
Ġen ables
reg on
Ġv ent
ĠW i
Ġcont ained
ĠCl oud
Ġappro aches
Ġh am
Ġex ceed
Ġv essel
Ġcomp at
Ġvot ers
Ġin ch
Ġhe l
cc er
T ER
ers hip
Ġequ ally
Ġsc an
ĠBro ok
Ġbox es
ĠB aby
Ġac celer
Ġw arning
Ġimprove ments
Ġsuper ior
8 5
ut ies
ĠN O
ĠP A
ĠN orm
ph ia
ĠComm on
Ġr u
Ġr iding
Ġassist ant
Ġmere ly
f all
Ġ3 9
Ġconcer ning
Ġv ibr
Ġsp ots
ĠN atural
ĠM D
Ġcas ual
ĠF a
Ġme ets
ĠS ales
ĠSt ock
Ġhead ing
il er
Ġext ension
Ġstay ed
ĠSoft ware
ĠP DF
ĠN FL
F A
c m
w ear
Ġsuggest ions
Ġelect rical
x x
ĠHou ston
ĠMem bers
L S
Ġt ied
Ġdra g
O ne
Ġstrong ly
ĠF ig
Ġdis pos
int age
Ġclass room
Ġroad s
ĠD ave
âĢ ³
ĠM ade
ors es
Ġl atter
ĠSe attle
ĠBe aut
Ġequ ipped
ĠS ep
ac her
Ġeval uation
Ġcal endar
Ġfunction al
Ġdrink s
Ġmaintain ing
ad or
Ġl ady
ĠP u
Ġgreat ly
Ġesc ape
Ġw ake
ĠP sych
Ġinst ant
ĠEngine ering
Ġst ir
Ġdef ensive
ĠE astern
ĠJ ason
Ġpost ing
ĠGu ard
il ton
ĠB ull
Ġ4 9
Ġfall s
h ire
adel phia
ĠUS B
Ġt ub
ĠIll inois
Ġupgr ade
ĠSp ain
ĠFollow ing
ĠC ut
Ġplan e
ĠPr int
Ġcal m
6 6
i ot
at ers
ĠJ ord
Ġunc ertain
Ġclos ing
Ġcomplic ated
Ġl oose
w ar
Ġex haust
ĠStand ard
Ġadv ent
Ġg ained
us ive
Ġgener ated
et ry
Ġelect ed
Ġb ills
or ous
i ac
ĠC redit
Ġunderst ood
Ġsent ence
lud e
ul um
ĠStep hen
Ġp andemic
Ġm ac
Ġrequire ment
Ġprep aring
L e
ĠR os
ĠM other
ĠI ce
ru g
book s
v ard
Ġche st
Ġra ising
Ġb oss
ce ived
m ates
Ġ4 2
Ġpow ers
Ġtri ps
nes ota
P ress
ĠA ge
Ġrel ative
Ġperson nel
Ġapplic able
as hes
ĠL A
n ce
ig ation
Ġpar am
ĠDemocr atic
d ri
Ġst om
Ġatt itude
Ġperform ances
ĠCap ital
ĠB E
Ġar my
ap ore
Ġfr anch
ĠGold en
Ġre ly
il ty
Ġoff ense
G A
ĠB es
Ġpo cket
Ġz ero
d ays
is a
ing ton
ĠStud ent
Ġpro hib
ain e
un n
Ġfound er
ĠS ound
at in
Ġst able
ĠFil m
Ġunus ual
Ġr um
ast ing
ugh t
D e
ĠT ony
j o
ot ed
ps on
Ġpray er
Ġens uring
ĠIns urance
ĠS ize
Ġacc ord
Ġcomput ers
Ġg orgeous
Ġins pe
if ting
Ġpass word
ĠBar b
ĠInte rest
z ed
Ġspecial ist
ĠAf ghan
Ġmist ake
Ġble nd
f rom
Ġr ural
ĠRe cent
ĠSh ort
Ġmed ication
b ow
g or
ĠT enn
Ġair craft
Ġtrack ing
he im
Ġs ought
is dom
Ġdis pl
ens us
Ġphen omen
Ġres ort
Ġun known
Ġant ib
ound ed
19 9
ĠL iving
Ġhy per
Ġrepresent ed
Ġb omb
ra ine
Ġchild hood
Ġra cing
Ġop ens
Ġsuff er
Ġas ks
t ics
ĠCorpor ation
c ut
Ġcharacter istics
ĠB ased
el ing
ĠMod ern
ĠSe ason
Ġthous and
z es
Ġpoint ed
ĠLe w
Ġre aching
ĠS C
ret t
Ġlif etime
ist ed
Ġem ails
ĠAn th
Ġadop ted
Ġbuy ers
ĠC L
ĠD NA
ort ion
Ġsh irt
at ics
ĠQ uality
ile y
Ġpack ed
Ġapply ing
ĠO regon
Ġhost ed
Ġ198 0
Ġju ice
et ies
Ġparticip ation
ĠM ess
Ġfew er
Ġvolunte er
Ġrapid ly
s en
ab eth
Ġne ut
ĠI de
ut en
ĠV ice
Ġce remony
Ġsy nt
Ġsing les
ir us
ĠRad io
Ġp ig
le ctions
ER E
Ġlapt op
k o
ĠM os
Ġattempt s
Ġst ages
Ġwant ing
Ġflex ibility
ĠSar ah
Ġad equ
Ġ |
ĠR ub
ak a
ang ers
Ġspeak er
in ter
Ġhe aven
Ġbrill iant
ĠColumb ia
Ġus age
ĠSw ed
O O
Ġsc ores
Ġdang er
ĠT al
ĠMin nesota
Ġintegr ation
Ġleg it
Ġad mit
ili pp
ĠAut om
Ġinit ially
mon th
ĠD ream
ĠG ive
Ġle gend
Ġfocus ing
Ġremov al
Ġact or
Ġst ored
Ġse ctions
pend ing
ĠTor onto
Ġt ap
ĠPro cess
be red
Ġcheck ing
Ġobs erv
ĠPal est
Ġworksh op
H A
ĠS ource
ĠL as
gg ed
ĠP ow
ĠR og
m akers
Ġtrans action
Ġemot ions
Ġphilosoph y
ĠE asy
bur gh
Ġloss es
8 6
Ġd ental
Ġsome how
ĠDemocr ats
Ġcontract s
W ith
Ġcompet e
Ġl ens
ĠP RO
ĠE D
Ġsm oke
Ĥ ¬
Ġent ering
ĠArt icle
Ġch ronic
Ġwor ried
Ġsol o
Ġexhib ition
pr int
ĠWork ing
Ġl ift
ĠL ar
ĠPhil adelphia
Ġequival ent
ĠB at
Ġpl ain
li ers
ĠOffic er
B ook
ĠB ul
ia h
Ġs ke
ĠSt ory
Ġlangu ages
Ġind icate
be ing
up id
A t
ĠF ac
Ġde ck
Ġreve al
Ġal ter
Ġk m
ĠWebs ite
e pend
Ġl in
Ġbl ow
erm an
y es
Ġopp osition
ĠCustom er
Ġsc oring
Ġvis its
ĠC ome
ch ar
ĠRom an
ĠDie go
Ġt ill
Ġrec re
ĠS ure
ck ets
Ġassoci ation
Ġdiv or
ĠSh op
Ġhot els
> ,
all as
ĠK ansas
Ġpri ze
Ġstrugg ling
B l
Ġg ene
Ġass ault
Ġfr ustr
br id
al o
ĠA ction
sy lv
he ast
ĠA h
Ġmin imal
Ġwithd raw
Ġl iability
Ġg ate
if er
Ġpack aging
Ġo cean
ll er
ĠT alk
Ġaccess ories
ĠSte ven
Ġobject ive
ĠMet hod
ĠHist or
Ġg ap
ĠPh one
Ġm ild
ĠB udd
pp ort
ĠB ern
Ġass et
Ġdis miss
Ġwe ird
Ġor ange
Ġk illing
ĠCh ange
Ġcour ts
Ġgr ateful
b ro
ĠE X
Ġauthent ic
en ess
Ġconcept s
B y
ag ra
% ,
in tend
Ġhad n
s ite
ĠL ED
Ġmus cles
Ġcomb at
Ġsurv ive
Ġemploy er
Ġocc urs
in ating
ĠT en
Ġstru ck
Ġto ler
Ġsc ope
R L
ĠM ah
Ġdisplay ed
Ġno se
Ġwat ers
ĠS E
Ġlov ing
at hered
Ġwond ering
look ing
Ġmar gin
ĠEl iz
Ġacc used
Ġcomb ine
re ction
swe red
le e
ac on
m o
ool s
Ġaccur acy
Ġconclus ion
Ġerr ors
Ġinter active
Ġess entially
ams ung
Ġentit led
ĠM om
Ġad mitted
Ġpriv ile
Ġexcept ional
Ġpregn ant
ĠD oc
ĠJ ay
ĠAir port
Ġacqu is
ent h
ĠG reek
Ġcol on
Ġw ise
ĠB ang
ĠC apt
Ġsp a
ĠII I
Ġse eds
Ġcomp rom
Ġrepresent ative
f ers
ĠM u
Ġinvest ments
Ġle an
Ġim per
Ġatt ach
az a
ĠCas ino
d ated
un es
ĠB it
ok ed
mark et
Ġprint ing
Ġf illing
Ġwh ilst
Ġdec line
sylv ania
R C
Ġk iss
Ġtiss ue
ĠMot or
Ġsecond ary
Ġven ue
Ġm m
Ġint ention
Ġd iversity
Ġst ations
Ġdr ama
Ġgra ce
ĠKore a
Ġheav ily
as hing
Ġfl ower
Ġcup s
P h
ĠL ady
Ġar ray
Ġann iversary
ĠCh all
v as
ĠH old
Ġ199 7
ob e
Ġout s
m ble
Ġl y
Ġrestrict ions
w an
ĠH ay
ĠM ember
Ġy oga
ut ter
ĠE th
s is
st yle
Ġdo se
Ġrem em
d is
Ġs outhern
Ġp ushed
w ich
Ġcam eras
ĠRepublic ans
ĠFore st
ĠD om
Ġenthus i
Ġor ient
Ġok ay
ĠG reg
un icip
Ġar r
ĠAn g
ĠW ant
ĠO wn
Ã ³
Ġhol idays
ĠS EO
Ġsold iers
Ġsam ples
ĠV en
f a
Ġdis hes
Ġsl ots
Ġpric ing
ĠVe gas
Ġde ploy
Ġal arm
Ġimportant ly
i ary
Ġmin ister
Ġrespect ively
Ġj ur
Ġcont aining
Ġpr ime
Ġto oth
ĠMatt hew
m g
Ġb ands
ĠG ard
ĠDe ad
Ġlist ing
ĠSqu are
D o
aw a
Ġdeliver ing
ĠB ed
p ower
Ġs orry
ow a
Ġ4 6
Ġpr ide
Ġtem porary
ĠMem orial
i pt
Ġm ask
ol t
Ġsc reens
Ġdam aged
Ġspeak ers
Ġintrodu ce
Ġfocus es
Ġins ert
Ġarri val
uck s
Ġinterview s
Americ an
ĠEvery thing
Ġadvant ages
Ġp ul
ĠH appy
ĠO s
ĠV iet
Ġsp ray
Ġstr ing
re ts
Ġf its
ĠC ro
ĠS A
Ġper mit
Ġcr ash
Ġemot ion
ĠAv ailable
Ġ !
Ġthe rap
Ġc otton
R ead
Ġn ations
are t
Ġpack ages
ĠCh apter
Ġ199 6
ĠE ffect
Ġattend ing
ĠB M
AR T
ĠLim ited
ĠThe atre
ĠCons ult
Ġclub s
ĠS em
Ġstud ied
ĠSing apore
Ġoffic ially
Ġch ampion
Ġtr im
20 12
the less
un a
Ġsw ing
ĠAtl anta
Ġl oyal
ĠM oney
ĠJord an
ĠR ick
ĠLe vel
Ġgovern ments
Ġrequest ed
Ġelectric ity
Ġm g
ĠV ers
Ġsome body
ĠContin ue
o ir
on ic
Ġm ole
Ġan swered
ib l
Ġprodu cer
rie ved
Ġstudy ing
ĠPri or
Ġhigh lights
Ġsur ge
Ġlaw su
Ġbehav i
ĠIm pro
Ġphotograph s
Ġb one
Ġsur ve
Ġeng aging
ĠReg ist
ĠEm ail
oc key
ĠCl inton
Ġinstit ution
ĠT otal
ĠG i
Ġco at
ĠPat rick
Ġintellect ual
Ġunex pected
Ġres ident
Ġsing er
Ġaddress es
Ġenc ounter
ĠMore over
Ġparticip ating
Ġsubstant ial
Ġh anging
ĠLat in
Ġstat istics
Ġset up
Ġcontain er
Ġdemonstr ate
ĠProte ction
S he
ĠK elly
Ġjud gment
Ġannounce ment
ĠC S
ĠB and
Ġdri ves
Ġex ists
Ġdi abetes
Ġd ent
ĠC and
Ġcele bration
Ġmind s
ĠMag azine
ĠPak istan
Ġbr ush
Ġopp osed
ĠDon ald
Ġpromot ing
Ġsing ing
ĠPol it
ĠD ue
Ġinst ruction
5 9
ĠM ajor
ĠSt one
ink ing
Ġbreak s
Ġh ide
% )
Ġb ass
ĠDe b
Ġind icated
Ġgold en
Ġgraph ics
v iously
ick ing
Ġelect ron
Ġswim ming
Ġprov ed
H T
Ġcontrib utions
Ġtal ented
t ail
Ġb id
crib ed
ĠExper ience
ĠN AS
ĠCan cer
ĠPenn sylvania
ond er
Ġgall ery
g ame
Ġp orn
an th
Ġmaintain ed
P D
Ġclo ck
Ġbook ing
h our
Ġexpl oring
ĠTrans port
Ġacqu ired
Ġsatisf ied
if fe
Ġgu ilty
ĠAd vis
Ġf iction
Ġm old
ĠB ry
ĠAnn ual
Ġwire less
Ġpass es
g i
h igh
l ow
Ġt ort
Ġp p
ast ed
Ġcorrect ly
' .
p ay
ons in
Ġinter action
lim ited
Ġa er
ol n
ĠSt aff
Ġbo ards
ch ild
Ġcheck ed
Ġmor al
Ġcab in
Ġaim s
Ġh itting
Ġ197 0
7 6
isc onsin
um er
Ġjew el
ĠMar c
O h
ul pt
row se
Ġf est
ir a
Ġex port
se ct
j ection
ow ed
Ġtre m
isc al
Ġmist akes
Ð ¸
ĠB ase
ĠF A
n ie
Ġw estern
ĠG ro
Ġlay ers
I E
ĠCh oose
Ġcou p
ĠPart ners
Ġgar age
o en
Ġne uro
5 6
ĠH i
Ġmass age
7 8
ĠSte el
ĠIsl am
ĠF L
lud es
ĠSe x
Ġdesign ers
Ġfact ory
Ġorgan is
Ġrare ly
se x
j e
Ġdes per
Ġh ip
Ġsc rew
ĠFr ont
Ġc ul
st ract
ĠMod el
ĠG row
od ge
Ġemploy ers
Ġl ake
ast y
Ġheart s
Ġc m
ĠT R
ĠO x
Ġsubs id
pro of
Ġenem y
ĠS ir
ke l
ĠEx press
Ġdescrib es
ĠBook s
ĠCB D
h tt
Ġn erv
Ġhe s
Ġrespons es
Ġ2 50
ĠT ell
w r
al i
ric ulum
Ġwarrant y
A pp
ch arge
ĠSt ay
od ing
Ġdis aster
Ġemploy ed
st ep
ĠBr idge
Ġspe ll
Ġdiscuss ions
ĠFurther more
ree ment
Ġowners hip
ac ular
angu age
ĠJ am
Ġlet ting
Ġha z
Ġchar ity
Ġg ig
Ġhol es
ro it
Ġcomp lim
ĠCont ent
c hers
ĠB uff
Ġshe ll
Ġj ail
ep ing
Ġc ow
ge l
ĠAust in
ĠH IV
Ġbu ff
ific ial
Ġvers us
b reak
ĠM aterial
Ġover se
ert y
ĠEliz abeth
viron ments
A d
qu is
o om
Ġlow est
Ġgar lic
ĠStud y
Ġt err
Ġra c
Ġtemper atures
W S
es y
Ġins ights
ax y
Ġform ula
ag ers
U M
ĠS amsung
Ġ199 5
Ġhy p
Ġtele phone
ter y
Ġ1 20
roll er
Ã ¼
ĠC R
ĠK ids
Ġdef ine
AN D
Ġmount ains
ĠE N
iat ric
ĠP ict
ord inary
Ġguarant eed
Ġfing ers
ĠD allas
ĠE ver
m ate
Ġh iring
Ġdiagn osis
4 00
Ġto ile
Ġg am
Ġemer ging
ĠH ost
ag an
Ġtarget ed
ist ent
fl ow
ĠM uch
ver ty
Ġconsist ently
S e
Ġathlet es
et ts
ĠSt ation
Ġsleep ing
Ġimplement ed
air y
es see
Ġpregn ancy
ĠT am
Ġab ilities
Ġcra ck
Ġentr ance
Ġro ots
Ġconsult ation
ĠH R
Ġse vent
ur ities
Ġun iform
Ġaud i
Ġexpand ed
Ġequ ity
Ġview ing
Ġelse where
Ġp ushing
ur se
ĠP H
oo re
Ġpo verty
ĠPa per
Ġlad ies
Ġun em
Ġrec ruit
Ġco aching
Ġaccount ing
Ġstom ach
ĠPh ilipp
Ġcontrib ution
Ġsatisf action
Ġlicens ed
Ġrec ru
Ġperiod s
zz le
Ġsafe ly
Ġun iverse
ĠBro ther
ĠT oy
ra ctions
Ġse gment
Ġess ays
Ġbrother s
Ġper m
20 13
Ġcir cuit
Ġwin ners
ĠE T
ug s
Ġ0 8
Ġcry pt
Ġn orthern
Ġdevelop er
ĠEar ly
Ġf ib
un ate
Ġautom atic
Ġf ur
oun ce
ĠL ic
Ġpick ing
ĠB reak
Ġpromot ion
Ġres id
Ġhor iz
Ġdistrib uted
Ġter rible
cript ions
Ġl un
Ġresult ed
Ġsk i
Ġpen alty
Ġ9 5
ĠBl u
Ġrat io
ĠTr ade
Ġrespond ed
ĠW elcome
eng ers
Ġcir cle
Ġvirt ually
Ġcon vert
Ġed iting
Ġ> >
ĠW isconsin
ĠN ob
et ch
Ġcon ventional
Ġrepe at
d f
ig en
Ġres idence
wor ld
Ġrom antic
ĠS ix
Ġk il
Ġqu e
ol i
Ġt ube
Ġmy th
ĠAr m
ach us
Ġpil ot
th is
ĠK ong
Ġover come
Ġpassion ate
Ġdecre ase
ĠCle ar
Ġaccom pan
c ore
Ġt ons
Ġf ert
Ġin fect
Ġ: )
ĠD E
Ġsem i
ĠW W
ĠGall ery
ĠC ry
ĠâĢ Ŀ
Ġyour s
Ġgener ic
ĠAL L
Ġg onna
ud es
Ġ4 1
Ġbo ot
Ġstreng then
Ġappoint ed
Ġin du
Ġ6 4
Ġtrans actions
Ġad j
Ġbr anch
id en
ĠEd itor
ĠAut o
c or
ist a
Ġele ctions
Ġprov ision
ab il
Ġst ability
ĠAll en
Ġcreat ivity
Ġacknow led
D P
Ġh oney
ĠSe veral
Ġvot es
ĠP itt
ĠH ur
fe ctions
Ġsure ly
Ġimm une
Ġinc ent
Ġprin cipal
ter ior
ĠTh ird
ĠCre ate
ĠB log
Ġor al
Ġcom pe
Ġreg ulation
Ġhe ating
ra pe
ĠRes ources
Ġiniti atives
ĠQu ick
g ical
7 9
at ile
v als
th rough
off s
Ġrel ie
ĠCom b
Ġwood en
et ers
Ġexp lo
Ġdram atic
, âĢĻ
c est
g ener
Ġmove ments
onym ous
Ñ Ĥ
Ġto ys
Ġcons ent
cy cle
Ġpod cast
ĠB arn
Ġs ed
ĠD rag
Ġinvest ing
Ġfunction ality
ĠRet urn
Ġle mon
Ġcop ies
Ġorgan isation
Ġcou ples
ish op
ĠStud io
ĠBel ow
G O
ĠL i
ĠInd epend
ĠWord Press
Ġc ats
Ġal ign
Ġen vironments
Ġdifficult y
. ;
av or
ĠOver all
Ġh orses
ĠC ooper
el ve
l ined
inc oln
umin um
Ġch ips
ĠNot hing
Ġunlike ly
achus etts
olog ists
Ġ4 4
Ġrele ases
ĠIsrael i
es h
Ġen orm
Ġpur sue
ĠS ave
if ted
Ġf iber
Ġsign ing
ag en
nov ation
Ġnarr ative
ĠR ome
ĠMin istry
is d
Ġsp ir
Ġexerc ises
Ġbenef icial
Ġbur ning
Ġsurv ival
Ġ( âĢľ
Ġref uge
Ġelimin ate
u ating
ĠD ur
Ġfant asy
ĠP ast
ĠL yn
Ġexperi encing
ĠVill age
U D
im p
Ġcomple tion
Ġhope fully
Ġpro port
in th
ĠM oon
Ġwe igh
Ġman if
Ġro lling
ur ches
Ġexam ine
ĠM ust
ĠP ers
Ġconvers ations
Ġassign ed
sh ire
Ġtrad em
ĠPr ince
Ġfrequ ency
ĠF inal
Ġg athered
Ġcampaign s
Ġjun ior
Ġy e
ĠF ive
we ek
ĠAn aly
ĠCon c
Ġexplan ation
Ġdisc overy
Ġtrans mission
ĠMc G
ig ious
ĠJ ane
Ġwal ks
gor ith
re p
Ġw isdom
Ġd ough
g ments
Ġnetwork ing
pl ed
ĠF ast
Ð ½
Ġo ught
ĠS ant
Ġpo ker
a fter
Ġcan n
Ġwork er
so le
Ã ¶
Ġto xic
ĠAtt orney
Ġdivid ed
a id
Ġd il
Ġact ors
Ġposs ibilities
Ġord inary
u is
ĠB ud
rou s
Ġsubst ance
a ver
Ġ vert
el a
Ġ9 9
Ġd ual
Ġra ces
Ġdecl ared
Ġfranch ise
Ġamong st
Ġutil ize
ĠI owa
igh th
Ġfl aw
Ġregul atory
ain less
Ġr anging
ĠS O
ĠH T
Ġexpl os
Ġaim ed
Ġeval uate
ĠEconom ic
ce eds
our se
ĠProduct s
Ġb ub
ĠN ation
Ġpe ak
Ġhospit als
Ġm it
ĠI mm
ĠK ind
ĠCol lection
m od
Ġang ry
ĠH art
Ġstop s
Ġtarget s
ĠR oss
Ġwork out
Ġdeath s
Ġlaw yers
Ġdire ctions
ĠTenn essee
M M
v ation
Ġblo gs
ĠD I
ĠR us
on ut
op her
Ġrough ly
ĠEd ition
Ġabs ence
Ġgraph ic
ĠHaw ai
ĠM arsh
Ġhapp iness
cu se
ĠU nt
Ġsupp liers
IS T
Ġtri es
ĠS elf
Ġag ed
Ġexc ite
Ġestim ates
OR E
Ġvulner able
Ġbab ies
om ed
Ġst upid
Ġbare ly
r ary
Ġc her
ond s
Ġdra in
ĠJud ge
ĠM ind
Ġpurch ases
Ġhun ting
Ġnurs ing
g iving
Ġinv ite
ĠPr im
w all
Ġp ic
Ġsc ream
ĠUn ivers
Ġtest im
Ġse am
old s
Ġh orm
ĠC ore
od a
ĠLew is
ĠC F
Ġtrail er
ĠA B
op er
Ġb old
ĠR h
Ġnerv ous
ous es
ick ed
ĠS ab
ĠD J
ĠE ve
Ġnut ri
Ġte asp
Ġest imate
Ġm oon
Ġrec all
Ġsubs cription
Ġdis order
Ġcapt ured
Ġpublish ing
ĠBow l
em ed
ĠCl a
Ġprotect ing
Ġtrust ed
Ġwork place
Ġfl ights
ish ment
Ġmake up
Ġcontrib uted
8 9
ed ge
Ġarg ue
Ġs lic
ink s
Ġ4 3
Ġprinci ple
ĠM ap
ick ets
Ġsign ature
Ġfa ult
er k
Ġ0 1
hy th
Ġth ro
ĠWe ight
rodu ction
ud i
ĠAnd erson
Ġgener ations
Ġaddress ed
ĠIm age
ĠMass achusetts
ĠEx change
Ġtext ure
Ġobject ives
ĠS now
Ġcom edy
ĠA z
wh o
Ġc odes
Ġhard ly
ĠS aint
Ġrel ation
sc reen
Ġvot ing
av al
Ġglo be
Ġs atell
Ġth ri
ĠL ess
Ġm ad
ĠChrist ians
nd rome
ĠM E
Ġch a
Ġann oy
ĠSy m
Ġfrequ ent
os pel
ult ane
Ġdiv ide
Ġapp lies
Ġinst antly
Ġinstru ments
P P
o vers
Ġscen ario
Ġtrem end
ĠIndust ry
W ell
ust ration
Ġrepresent atives
T E
Ġp ets
ĠSc he
Ġimpress ion
Ġgro cer
Ġm ath
Ġcur rency
min ute
Ġcheck s
win ning
H z
ass ion
ĠBe h
Ġview ed
ro ph
Ġthem es
Ġ4 7
Ġche f
ĠEx cell
ĠMon th
Ġkne e
d ney
re ll
it ate
ĠL es
Ġle af
Ġdes erve
Ġcompl aint
Ġmin ing
Ġbel t
ap se
Ġcar pet
Ġinfl amm
Ġground s
ĠJew s
ĠN ut
r ine
ĠH ong
ĠUn like
Ġsett led
ĠH P
Ġde fect
ĠDet roit
Ġentreprene urs
Ġsc ar
Ġproduct ivity
Ġworksh ops
ĠC ell
Ġeng ines
Ġnut rition
Ġs orts
ĠRel ations
Ġs ne
Ġre ven
ĠA li
Ġage nda
Ġpresident ial
ĠEnvironment al
p any
s ized
u um
ĠE ag
ĠApp ro
ĠAdd itional
b led
c alled
IT Y
____ ____
ĠMic hel
ĠL incoln
um m
Ġwor ship
Ġi OS
est ed
ĠC ub
if ully
arent s
ro t
av ed
j i
Ġmeaning ful
Ġvacc ine
g ov
ĠL uc
ĠSol utions
d ep
ch o
Ġprof its
Ġfulf ill
ĠA lp
Ġcollect ive
ĠSim ilar
ĠBes ides
pt on
Ġmatt ress
ĠScot land
Ġreview ed
Ġclick ing
Ġst ack
ag a
ĠK ir
Ġsk illed
ĠWin ter
ĠC reek
Ġdis ability
Ġbet ting
Ġcol ours
Ġprom ised
Ġdist ingu
Ġintegr ity
grad uate
ĠI ron
aint iff
Ġdispl ays
d og
Ġre fe
Ġdocument ation
Ġprev ention
ĠSub s
Ġremark able
Ġconserv ative
r us
Ġaccord ance
Ġbehavi our
Ġearn ings
ĠCh ampionship
Ġha bits
Ġact ively
ĠS ony
orm al
Ġprodu cers
Ġrel ating
Ġtri als
Ġphys ically
Ġsmart phone
Ġden ied
or gan
Ġsubsequ ent
ĠDe an
Ġterrit ory
ot ive
p ire
Ġcred its
Ġimm igration
he rent
Ġw ider
it ative
Ġd uties
Ġg ambling
Ġpan els
ĠWrit ing
N ot
ĠAl ong
ĠMed ic
Ġsumm ary
m ic
ĠTr ad
ĠSim ply
Ġbact eria
C L
a un
Ġt ong
Ġl es
ĠH om
ors hip
Ġmin istry
ĠComp et
ĠReg ional
Ġadvert ise
Ġal ert
Ġab und
Ġexp ense
ay a
5 2
as ion
Ġt ours
ac les
Ġ199 4
ĠEm ploy
Ġacqu ire
Ġsequ ence
ĠApplic ation
l ah
Ġpain ted
f ire
Ġp izza
Ġd ipl
Ġfin ishing
ath on
B M
Ġw aves
Ġke ys
Ġfollow ers
ĠEx p
Ġprot ocol
Ġconven ience
Ġse ar
ĠG il
Ġref used
Ġoper ational
ĠRo ber
Ġdemonstr ated
? )
ĠFin ance
Ġrank ed
ol id
Ġno body
Ġtut orial
6 4
ĠB ody
ĠE state
Ġdeli vers
ĠRead ing
Ġtouch down
ĠJ ess
ĠN ature
ĠMach ine
Ġinn oc
T e
h op
w alk
Ġc inem
it ches
Ġbe ef
gg ing
Ġcooper ation
ric ted
Ġphys ician
Ġdesk top
ĠDe ath
Ġcert ificate
ĠCurrent ly
M E
M an
ĠD a
Ġfund ra
Ġimpress ed
Ġdump ster
ĠL aur
ĠN H
Ġfin ancing
io x
Ġhost s
e ffect
ĠM ix
ĠUs er
Ġut ility
Ġbeg un
ĠN BA
Ġwor n
Ġprodu ces
Ġret ired
ĠWith in
p ers
Ġf iscal
Ġdro ve
ĠRet rieved
ĠSci ences
ĠGovern or
Ġscr atch
5 8
ĠV in
Ġsal ary
Ġpres cription
Ġflu id
t ical
ĠR oy
Ġpre ced
ĠChe m
ĠUk raine
ĠPerform ance
Ġsupport ers
Ġsole ly
ĠAnth ony
Ġa ver
ĠA st
Ġmeas ured
or i
Ġre hab
ĠAn alysis
bu ild
ĠE V
Ġunivers ities
ĠPalest in
ĠB BC
is hers
Ġsett lement
ĠMary land
ĠPriv ate
S p
Ġthe rm
Ġcom ic
Ġsc ulpt
Ġbank ing
b age
Ġf ake
IL L
ang le
ĠAtl antic
ĠH ills
ĠClass ic
ow een
Ġtable t
Ġrespect ive
Ġdial ogue
achel or
Ġgather ing
Ġref err
ĠJac ob
Ġinter vention
Ġmatch ing
Ġremov ing
Ġweap on
Ġcontinu ous
6 7
Ġe lder
ĠMan chester
Ġextra ordinary
Ġvot ed
ical s
Ġco aches
ĠJe an
Ġthorough ly
Ġd ies
Ġl ips
qu arters
Ġv ine
Ġar bit
ĠTe xt
Ġexpand ing
Ġoverwhel ming
am ics
ĠLoc ation
Ġh ired
u ana
am i
ater n
Ġbal anced
Ġup set
ĠY eah
h o
Ġg ang
Ġv enture
ft en
ĠN ig
Ġcomple ment
Ġinvolve ment
arr ing
ĠTur key
Ġtro ops
ĠTit le
h ol
Ġcl ip
Ġdifferent ly
oo f
Ġal gorith
Ġencoura ging
ĠMor gan
o cc
Ġcomp os
ound ing
ĠAl bert
Ġvit amin
im a
Ġan ger
Ġab road
8 00
Ġf ired
ĠM aking
Ġser vers
ĠIndian a
Ġsm oking
co pe
ĠLin ux
ĠG olf
lo ved
ĠUt ah
ĠAl tern
Ġresol ve
Ġtack le
Ġinvent ory
ĠN ations
li x
ĠHow ard
Ġrep airs
Ġprom inent
p iece
on ing
Ġem issions
aw are
Ġdro ps
itz er
Ġveter an
E d
e b
Ġf ed
ĠB an
IC E
Ġbelief s
Ġp our
Ġrest ore
ĠOr ange
. -
ĠW ars
ĠL ater
Ġall oc
ĠSer ver
Ġsurround ed
Ġmir ror
Ġstock s
ĠAr k
ĠInd eed
ĠComp uter
Ġdefe at
Ġvend ors
Ġthreat s
Ġspect acular
Ġn ail
Ġacc um
ing ham
Ġlay out
ĠCons ider
Ġrid ic
ĠGr ant
' ,
ĠG re
Ġsign als
Ġcert ification
Ġl iver
gr ade
ĠIsl amic
Ġst em
Ġex ch
Ġa est
ĠSy dney
p ool
Ġd irt
se a
Ġ1 000
Ġres erve
Ġbl ame
Ġt ears
Ġthe ater
et he
ĠR en
Ġ5 2
p ing
Ġh o
ian ces
Ġcompet itors
u z
itar ian
f ish
t ains
Ġs our
ĠS ale
Ġpopular ity
Ġenh anced
ĠO cean
Ġm aps
Ġres cue
ĠTerm s
ĠAnt on
6 9
EC T
E very
c op
ĠP L
ĠN ear
Ġwhe els
Ġover night
Ġexam ination
rim ination
Ġadministr ative
Ġfru its
ĠAfghan istan
Ġemphas is
ĠOlymp ic
ĠT el
ĠS ide
S C
Ġl ibr
ĠMay or
Ġdam ages
Ġimpact s
f r
ĠT rib
ĠG iven
Ġoccasion ally
ĠC rit
se ction
Ġv intage
ĠPh ill
ĠO nt
ĠSim on
Ġun cle
ĠPl ant
ĠA I
Ġcan cell
Ġaggress ive
Ġman ip
bour ne
ĠVictor ia
hes is
v it
ĠP ed
Ġpass engers
Ġimm igr
Ġfasc inating
Ġexcite ment
Ġdo zen
Ġnews letter
Ġtem pt
ĠAssist ant
Ñ ģ
Ġdepart ments
o a
ĠN at
Ġcy ber
Ġa x
ĠL E
Ġsh apes
Ġch ampionship
Ġcont ents
Ġsle e
Ġdestroy ed
c ard
Ġth rown
Ġm igr
ĠInst all
Ġchemical s
6 00
l on
Ġinspe ction
Ġp iano
ĠB B
Ġsim ultane
ĠB alt
ĠRec ords
ĠExpl ore
ĠP ick
Ġrub ber
Ġed it
or neys
Ġp or
ĠF uture
Ġcon vey
ĠV eter
ĠPe ace
Ġwind s
Ġol ive
f ound
Ġan gle
g ie
u ates
Ġo z
Ġin quir
Ġtrans formation
Ġaccompl ished
e y
Ä ģ
Ġoper ated
ĠM ail
ĠInte gr
Ġeleg ant
Ġp add
Ġro y
Ġdevelop ments
ĠCl ark
Ġcon j
ab ama
ĠGr ad
Ġp atch
Ġg reet
ĠFor um
Ġrepresent ing
Ġc rown
id al
Ġscreen ing
Ġinvestig ate
erv ice
Ġloc ally
ĠAg reement
Ġconf ront
co very
i very
Ġre ception
ĠCo ach
Ġsix th
Ġsh ips
5 7
m at
itt y
Ġind oor
Ġform ation
ĠDo ctor
back s
Ġaccommod ation
v ity
Ġre verse
Ġvoc al
Ġ rib
ĠA k
Ġmet ers
rop ri
Ġsus pend
Ġepis odes
re r
ri x
ab ling
el le
Ġgen etic
US T
Ġin hib
ĠMan ufact
ĠD ra
Ġconvers ion
se mble
ĠB ureau
Ġgr at
ĠDou ble
Ġpre cious
own ers
F F
de f
oen ix
ce nd
Ġmy stery
Ġproduct ive
Ġmechan ism
Ġacquis ition
ot te
Ġspec ified
Ġengine ers
os it
Ġdis ag
man n
ĠI V
Ġte nder
ĠPh arm
Ġr uling
Ġcur riculum
Wh y
Ġin ex
Ġdur able
Ġconc luded
a o
Ġd ying
Ġalle g
ut ers
ot ion
ĠG ab
unicip al
o ons
Ġprov isions
Ġeffect iveness
ĠSci ent
Ġe ager
be an
ĠM it
ric ts
Ġenc ount
Ġs li
ĠG P
Ġmed ications
8 7
ĠA th
Ġenjoy able
os ystem
Ġâ Ĥ¬
Ġd ancing
Ġret ain
p y
ĠM oore
AL L
Ġhar vest
1 50
d on
Ġbreat hing
ĠF ab
Ġreg ime
istic ated
Ġenorm ous
i y
Ġjur isd
M C
ou ri
5 3
Ġall erg
vel and
els on
Ġrob ust
ĠS D
ĠW ales
ist ical
Ġso ccer
d ale
ĠR s
Ġmy ster
Ġunder lying
lah oma
Ġres ume
Ġ19 60
Ġcons ervation
pro f
ict ions
ĠLe on
c s
Ġre ferences
ĠM ove
if ier
Ġche aper
Ġindic ates
Ġconstruct ed
in st
Ġto ss
ĠS port
ĠCh annel
c al
Ġcar ries
Ġtempl ate
Ġl aser
ĠCour se
ĠDef ense
P E
ĠW ik
ap olis
Ġcr imes
ĠCreat ive
it o
Ġleg acy
Ġtown s
Ġbuy er
Ġdead line
Ġgener ous
Ġcook ed
Ġacknow ledge
ĠG ree
Ġste re
w a
Ġshort ly
ij uana
Ġbul k
it ivity
ĠCh ampions
Ġfin est
ĠGet ting
Ġarrange ments
h ome
m ind
ĠT ro
ĠK itchen
Ġcelebr ated
Ġoccas ions
h an
ĠC ash
ĠHarr is
Ġcal ories
Ġphr ase
z ens
il ation
ĠYou th
Ġsal ad
Ġsex y
ĠIm p
ĠInc re
Ġfab ulous
ĠAdv anced
Ġorganis ations
ĠC T
Ġse al
Ġass ists
Ġqual ify
Ġdisappoint ed
e z
in ally
Ġgr ants
Ġneighb ors
or ious
5 4
ĠAl ways
Ġ0 9
ĠPlan ning
Ġdur ation
Ġjewel ry
ĠG ary
in ar
Ġad mission
oun ge
ĠPort land
ĠC li
ĠE mm
Ġrespons ibilities
ĠEnter tain
C ont
itt ers
Ġgu ides
Ġmusic ians
Ġst amp
ĠP ain
Ġ6 00
Ġens ures
pl ing
Ġsub tle
Ġsqu ad
Ġbe ans
p en
ĠR ather
Ġsh it
Ġcur ious
Ġconnect ing
ĠReview s
v ol
ĠP oly
ĠH u
arr ass
ĠHall oween
Ġstream ing
ĠE mb
Ġmet ab
the re
AN T
ĠAuthor ity
Ġreve als
Ġpublic ly
Ġcap ability
Ġdr um
Ġwild life
ol en
Ġany body
Ġar med
Ġcompl aints
ĠT an
ĠBl ood
em an
Ġcor on
ĠSpe ed
om ic
Ġwhere as
ru p
ĠAl abama
Ġbo ots
ĠLa ure
v o
IV E
Ġw rest
Ġher itage
ĠRep resent
ĠGirl s
c r
Ġassoci ate
Ġinsp ire
Ġcru ise
Ġpleas ant
f unction
g ree
ĠO cc
Ġpar alle
ĠMc K
Ġpark s
Ġin ev
ĠD or
Ġquant ity
Ġcompat ible
Ġcomp osition
ĠCor p
ĠB ird
Ġr ush
and al
Ġback up
Ġ5 6
Ġ199 3
Ġn od
Ġpass age
Ġchair man
Ġquot es
Ġdivor ce
u ros
Ñ Ģ
ĠF at
ĠO w
ru b
Ġaffect s
ĠAnd re
ĠN avy
Ġent ries
Ġmoist ure
ĠA ve
Ġas sembly
Ġmod ified
Ġconf used
Ġdem ocracy
Ġemp ower
Ġo h
ĠH ad
est y
ĠFriend s
i ate
Ġm ature
ĠW E
ac ent
h um
ĠN C
Ġde ar
act er
att an
ĠEd ward
ĠYear s
ĠS ad
ĠC ould
ag raph
Ġposs ession
Ġf ool
P T
i ar
5 1
Q L
Ġsp oken
Ġsl ide
Ġgirl friend
sc ale
ĠBer lin
Ġbutt ons
b ound
d ed
Ġc ust
Ġt ent
Ġc ogn
Ġd ess
ĠC ow
Ġear s
Ġtoile t
Ġref ers
Ġviol ent
a a
oun ced
ĠB urn
ĠD iam
P e
Ġed ges
Ġprocess ed
Ġpain ful
Ġdig est
Ġwh is
Ġcomp act
Ġac res
ĠArch itect
Ġr ated
Ġphotograp her
N e
Q u
ĠD ick
Ġpract ition
Ġball s
Ġweak ness
Ġcritic ism
ĠTra il
Ġadop tion
worth y
ĠQuest ions
d ing
Ġch ip
Ġco ord
Ġadequ ate
Ġpl acing
Ġport ra
2 50
iffe rent
d r
nd ry
Ġse ctors
Ġrep ly
p apers
st op
ĠPer fect
ĠT ree
os a
Ġart istic
Ġce iling
b ie
ĠB enef
Ġpro pe
Ġold est
Ġfall en
Ġdepend ent
ĠAny way
ĠCharl ie
ĠJon athan
ĠM ort
ĠP ric
Ġex it
Ġcou rage
ci ence
ĠE le
ĠAs sembly
Ġreb u
b es
Ġs its
Ġw rap
ĠD ays
ĠAnd y
Ġaccommod ate
ĠS ong
get s
Ġeth nic
Ġg ut
Ġhand y
Ġspect rum
Ġodd s
ĠCra ig
m outh
ut or
do ors
Ġass ured
Ġmed ic
ĠCe le
c ure
Ġ Î
20 11
for ward
b us
ĠP y
ord on
ĠCo le
Ġfem in
Ġretail ers
Ġprom ises
Ġgen re
or se
Ġcon ce
pl ant
Ġback ed
ĠReg ard
ĠBet ter
Ġspons ored
Ġt ies
Ġin k
Ġtw ist
ah a
Ġrepresent ation
Ġconvin ced
ĠB rew
lo pe
Ġadv ised
ĠR ain
Ġpsych ological
d am
Ġd irty
Ġcon secut
ĠInd ex
Ġlast ing
Ġthrow ing
ĠProper ty
ĠS ac
Ġla wn
Ġtrig ger
b est
Ġh ub
Ġtwe et
F T
ĠT oo
ĠId ent
h ar
es is
Ġl ying
Ġpr on
ĠCom plete
20 10
Ġgovern or
Ġdest ruction
ĠUnt il
ol s
erv ing
fort able
rape ut
Ġh al
le ans
ĠB attle
Ġchar ging
Ġfund ed
Ġflo ors
Ġgrad uated
ĠElect ric
ad ows
pl us
Ġadd iction
ĠAff airs
he art
av irus
Ġload ed
ĠMexic an
ace ut
Ġspeak s
Ġir rit
U p
ig ence
Ġhand ful
Ġbre w
Ġal ike
Ġview ers
Ġt ension
Ġse min
Ġexpect ing
Ġfig ured
Ġg ross
ĠHe at
let te
Ġneut ral
Ġth rew
Ġ3 60
uss ion
Ġconsider able
Ġbed s
ĠBrook lyn
6 8
b et
Ã ¤
ĠH al
Ġappreci ated
ĠKent ucky
ĠD im
Ġdis orders
rop ical
k ind
ĠLe gal
ĠInd ones
Ġbott les
reed om
Ġlimit ations
Ġb icy
ot es
iv a
ĠMar ine
ĠB C
ĠF resh
Ġsu ite
Ġch urches
Ġnew est
Ġri val
K E
Ġg ains
Ġsp are
ĠComp an
Ġsett le
ĠCommun ications
Ġapp et
in als
Ġin fections
ĠFe atures
Ġ199 2
au x
Ġvi agra
on ly
ĠJust in
Ġcomplim ent
Ġt u
i ro
ĠC ool
ĠU C
Ġconsult ing
ĠSpr ings
ĠHam ilton
Ġa uction
Ġdis rupt
Ġexclus ively
M ay
Ġh ill
ĠD iet
Ġapp le
Ġestablish ment
ĠAd vent
Ġbur den
ĠPub lished
M e
Ġth y
ĠG ene
ous ing
ocr atic
Ġcho pped
Ġfo am
ing e
Ġshe ets
Ġt une
im ore
Ġch airs
Ġroll ed
ĠKore an
h r
Ġend less
ĠL ock
Ġref rig
ĠPh oenix
Ġadop t
Ġf ought
Ġ7 2
Ġbeaut ifully
Ġsn ap
ĠL O
Ġdirect ors
Ġdev ast
ĠRes erve
ĠSchool s
Ġemb race
ĠAny one
Ġlawsu it
if ice
Ġv ib
be at
ĠOk lahoma
l aim
Ġst er
ĠR ap
Ġv oices
the y
Ġsoph isticated
ĠS ay
s a
se lling
ĠH ig
ĠSing le
ĠV irt
Ġdiscuss ing
Ġt ale
op t
ĠIn n
Ġsupp lier
v an
Ġt ire
Ġbu g
Ġ8 5
htt p
w as
Ġb ene
Ġl oop
ĠR ound
cept ions
Ġaccept able
Ġattempt ed
Ġg ently
ĠN ik
Ġ0 4
add y
Ġper mitted
Ġw ing
Ġsu icide
Ġentertain ing
g ly
as m
Ġsh ipped
Ġint rig
Ġ5 1
Ġ0 5
Ġinterpret ation
ĠS weet
edd ed
Ġemb arrass
ĠD ise
Ġart ificial
ĠPort ug
Ġconfig uration
ĠA part
ĠV ar
Ġhand ed
Ġke en
ĠGal axy
t own
Ġb io
Ġdon ations
IT H
Ġpull ing
Ġoper ators
vent ions
ht ml
Ġforgot ten
ne cess
ĠÂ §
vis or
Ġimag ination
Ġto y
ĠG as
Ġcompet ing
Ġdifficult ies
Ġdocument ary
Ġfro zen
Ġstead y
Ġb ust
part y
Ġdiagn osed
Ġact ress
Ġsupp lements
ĠPre p
asc ular
w he
Ġl obby
Ġstra w
Ġconcent ration
g ins
ĠC orn
ĠL ane
ĠOr leans
Ġattempt ing
Ġexhib it
âĢĿ )
I B
U C
ĠL arge
Ġcomple ting
ĠC her
ch ing
ED IT
Ġclim b
ĠC art
im mer
Ġaccompan ied
ĠP ear
Ġ8 00
Ġdri ed
S u
m other
o z
er ior
Ġr ou
ĠWh atever
Ġmod ule
ĠB ron
Ġdesign ing
M ed
b urn
ĠU RL
Ġult ra
l an
xy gen
Ġfacilit ate
ber ries
Ġ0 7
ĠTru e
h ist
Ġbro ker
Ġtable ts
Ġcolle ctions
ĠOnt ario
g on
Ġkey board
Ġspokes man
ĠFoot ball
ent er
st ic
Ġtr ash
Ġdes ert
az ed
ĠVal ent
Ġmechan ical
ĠConst itution
Ġlib eral
ĠE S
Ġtime ly
ple x
n i
Ġann ually
Ġredu ces
Ġlock ed
L D
ĠWh it
Ġr hyth
ĠG ulf
9 8
Ġreflect s
Ġign ore
Ġc ure
Ġb other
ĠM oh
ĠO sc
ĠSy ria
ĠCle veland
Ġc ig
Ġpolit icians
ĠV P
ĠAll iance
ĠEntertain ment
Ġs oup
us hes
ĠPart icip
l ace
Ġst ays
ĠF le
Ġj ury
Ġdesign ated
Ġ0 6
Ġstri king
Ġmat hem
ĠH ERE
oc a
ĠSh ipping
Ġ0 3
V A
m art
Ġb ite
ĠT ips
ĠPract ice
Ġtremend ous
S c
Ġsh ame
ĠCom pl
Ġpet ition
ĠChair man
Ġn urse
ir ates
im s
ĠB irth
ĠR O
op en
Ġ5 4
Ġpat ent
Ġ' '
ok er
ĠHar vard
Ġpow ered
ĠOrgan ization
Ġw are
Ġp up
Ġagric ultural
W or
he alth
st ore
ation ally
ĠM ission
Ġass ert
Ġunem ployment
Ġconsecut ive
Ġw ard
Ġrequ iring
Ġ0 2
Ġfle et
] ,
b ul
Ġprof iles
Ġreal istic
bo ards
Ġrom ance
ĠY an
Ġref res
ĠTH IS
Ġkn ife
ĠViet nam
Ġc ous
ĠL anguage
inte rest
Ġc ater
Ġg re
Ġj azz
ol ph
Ġal uminum
20 17
Ġspecial ists
Ġport ray
Ġoverse as
Ġsu its
Ġsh out
ĠSt adium
ra cle
Ġ5 8
Ġcar ing
Ġadv ise
Ġauthor ized
Ġtim ing
Ġw ishes
per form
Ġbr an
Ġglass es
Ġenem ies
Ġthe sis
ĠE sc
Ġaff airs
Ġst roke
ĠG h
ah oo
Ġnavig ate
it ched
Ġd ys
are st
Ġoper ates
ĠUp date
Ġbank rupt
Ġexec ution
ĠMedic are
ĠBr ing
ou ver
ĠAg ric
Ġharm ful
ĠDen ver
ĠA F
ĠSt ra
Ġarg ued
Ġaudi ences
ĠRober ts
i ology
à ¸
Ġo x
ĠS end
id ity
omm y
Ġland ing
ĠPitt s
r idge
Ġint im
ugg ed
Ġsurf aces
um my
Ġseem ingly
Ġsatell ite
is an
te ch
Ġmod erate
Ġinn ings
ĠH ind
Ġhuman ity
ĠB Y
er on
Ġbe loved
ĠSu ccess
ĠC ov
Ġtreat ing
Ġicon ic
Ġste am
Ġbar rel
Ġachie ving
Ġfast est
Ġsh adow
Ġcomp assion
Ġclin ic
ĠMiss iss
ĠRest aur
f ather
Ġg rain
Ġinter actions
ĠMag ic
Ġam en
Ġtru cks
Ġrat ings
N ow
ĠE aster
ier ce
Ġvac uum
h ot
Ġcorpor ations
Ġremind ed
Ġdef ic
Ġdecl ined
Ġveter ans
Ġc ited
Ġm ouse
ĠPrem ier
M I
Ġf t
ĠD omin
ab out
ĠE C
Ġhor ror
Ġgun s
ĠLu ke
Ġdiscipl ine
ĠRe lease
ĠChall enge
ow ers
Ġmag ical
aren cy
ĠRec ord
usal em
G et
Ġf ancy
ĠDe ep
Ġfeed ing
Ġefficient ly
Y es
g ood
l ay
ĠL am
Ġout fit
Ġdress ed
Ġsto pping
K S
ph an
Ġdon ation
Ġprospect s
D R
Ġd ict
ĠUn it
Ġstri p
Ġfold er
ĠCom ment
Ġed ited
ĠPh D
ĠUS D
Ġflav ors
ĠWalk er
Ġt ear
ĠT ai
Ġg al
Ġspecial ized
V iew
it ations
ĠBe at
aut hor
Ġdel iber
Ġcollect ing
Ġinc om
Ġprocess or
Ġtit led
ĠMiss ouri
Ġb ones
ur ious
ĠTur k
Ġapp l
Ġcult ures
re nd
au g
Ġpres erve
Ġachieve ment
d ie
ar ia
Ġport able
ow ered
Ġreject ed
C an
Ġsh ade
ĠV it
Ġ5 7
re c
Ġth irty
ĠR ail
end ed
Ġqual ities
ĠEnter prise
Ġprecise ly
ĠBru ce
Ġb ot
Ġco pper
Ġsec ured
pr ises
Ġec osystem
ĠE P
Ġdo zens
Ġart work
ĠN S
ret ion
Ġs ons
ĠA BC
im m
Ġsil ence
Ġlab els
Ġtong ue
Ġbe ings
un s
Ġsee ks
Ġcontact s
Ġpar ad
Ġhonest ly
Ġcomp ly
Ġ199 1
Ġoil s
ĠM and
anc ouver
ipp i
Ġhe al
ry ing
ĠK ate
ĠFl ash
ĠIm ag
OU N
Ġpo ison
Ġcent uries
Ġsustain ability
r at
ĠB lock
ak i
Ġaccept ance
Ġagree ments
s uch
Ġp ills
Ġcult iv
k ers
le nd
il itation
ĠM agn
us her
ust ain
Ġcount s
Ġpublic ations
ĠFore ign
ĠC C
ĠF ro
ater al
Ġmain stream
ĠR ace
Ġover view
Ġtransl ation
ĠD utch
Ġloc ate
Ġaltern atives
Ġgard ens
ethe less
V P
Ġ 00
al g
Ġend e
Ġincorpor ate
ĠW y
ĠH ub
Ġsupp lied
Ġwhere ver
Ġmotiv ation
ĠR ab
ĠN ap
Ġexpl oration
ĠCar ter
ĠSa fe
ĠAlex ander
othe rapy
9 6
ĠE R
Ġscholars hip
b ra
Ġprov ince
Ġrelax ed
The se
Ġengine er
Ġcelebr ating
Ġunivers al
Ġshel ter
Ġcool ing
Ġlabor atory
writ ing
Ġvibr ant
ĠRus sell
Ġthe atre
Ġr ings
Ġev ident
Ġhy brid
Ġpo etry
Ġwarn ed
is ers
ic ity
ĠC hen
Ġan cest
augh ters
Ġas semb
Ġce re
Ġteasp oon
i el
m ont
v ia
CA A
Ġaffili ate
Ġp unch
now ned
ĠC ape
Ġout er
Ġdelight ed
9 7
Ġwas hing
ip es
Ġrece ipt
Ġhum or
Ã ¨
ab is
Ġfear s
g ra
Ġsh orter
Ġsty lish
Ġt ennis
ab s
Ġwork force
Ġpre st
ĠMal ays
Ġp ione
Ġte ens
ful ness
ĠMar ia
AS T
Ġtour ism
Ġjud ges
b ally
Ġgr an
ĠMin i
g ence
ĠG ordon
p ost
ĠS alt
h ard
ur d
ur rent
Ġpaint ings
ess ed
ĠAl an
IN E
Ġreported ly
N E
Ġs ink
ĠF ish
Ġun necess
Ġround s
Ġpro pri
art s
Ġenjoy s
ĠYOU R
b rew
Ġc ord
ĠF lo
ass es
Ġcompe lling
or ic
ĠM L
ĠD rug
ond a
f und
l u
ĠN ash
ĠK rist
Ġpot atoes
ĠJer usalem
f ly
Ġhe m
Ġan ch
ĠOther s
ĠH em
Ġv ig
Ġint u
Ġoblig ation
ĠKenn edy
ĠSus an
w ind
Ġm akers
ĠL uck
og y
Ġaband oned
J ust
ĠI C
enn y
ĠCont ract
Ġdefend ant
ĠN ich
iz ations
ĠSt op
Ġdet ection
ĠH oll
per t
ĠTe a
Ġexcess ive
own ed
Ġsimultane ously
Ġw ides
ĠR out
ĠCo ver
ĠIm port
ĠHigh way
Ġindepend ence
Ġsusp ension
ĠBalt imore
T P
Ġdev oted
ĠUp on
ĠB L
ĠL iver
ĠAn ne
ĠRom ney
Ġgl ory
ĠA G
ĠA qu
ke e
Ġsell er
Ġpropos als
Ġh unt
ĠT ogether
ĠC ulture
ĠR A
ĠRes ults
Ġt ang
Ġd ash
Ġins pect
ĠBet ween
ĠJenn ifer
in ction
Ġw ines
Ġin sect
Ġre wards
ĠF DA
est one
ĠL iter
ĠK ings
Ġsp an
Ġear ning
Ġassign ment
Ġl ately
ĠSt yle
Ġatt orneys
Ġintellig ent
Ġbound aries
ut her
ĠD S
ĠAl aska
Ġrel ate
Ġoper ator
Ġr anks
ĠK a
Ġrecommend ation
ĠUr ban
T r
Ġf ont
ĠW ine
ĠD ad
Ġpre view
Ġmem orable
cl osure
d em
Ġp ants
Ġ19 50
Ġsl ip
ik a
Ġsignific ance
ĠMel bourne
ĠH air
Ġ( "
ĠAss ess
ĠDel ivery
Ġremem bered
p read
ig e
Ġpass enger
ĠSte wart
ĠNE W
Ġoppon ent
w er
ã ĥ
oc al
Ġcount less
Ġrelax ing
om atic
Ġl ap
Ġpop ulations
Ġpersonal ized
Ġident ification
Ġsuper b
Ġcolle ges
Ġcoc onut
ĠW at
Ġover s
n ut
ĠW ire
ĠL ot
Ġrece ives
ĠI M
Ġdisc rimination
ĠF ant
Ġshould ers
Ġoffer ings
ĠFranc is
Ġc ub
ir able
ĠP resent
ĠF ile
ĠCom mercial
az ines
Ġpeace ful
he ld
Ġc rop
al m
Ġst rain
Ġimpl ications
ie re
Ġinfl ation
Ġentreprene ur
Ġde leg
P G
V C
Ġw age
Ġst olen
20 14
Ġfoot age
Ġnation wide
Ġload s
d ers
it udes
Ġle ase
Ġfavor ites
Ġworth y
I O
h ill
ĠD yn
Ġun lock
Ġgrow s
Ġemer ged
Ġreg ards
St ar
ĠAn imal
Ġpar agraph
ĠR u
Ġen roll
ID S
Ġexcell ence
" )
or ia
ĠS W
um ble
Ġimplement ing
Ġjack et
D C
ell ing
Ġsp o
Ġsens or
writ er
I nd
ost ic
Ġconfirm ation
en z
Ġcl oth
ĠSim ple
Ġbi ological
alt ies
Ġd airy
ĠT on
Ġ5 3
ĠInt ell
ĠRob inson
Ġwra pped
ĠBit coin
ĠOx ford
6 2
Ġn it
lect ed
Ġcustom ized
Ġparticip ated
ĠSpe aking
ĠConst ruction
ĠS ov
Ġsh aped
Ġinsp iring
Ġlegit imate
Ġb its
Ġr ally
ĠAn sw
bs p
Ġread s
Ġtour ist
Ġpers u
Ġexecut ives
6 1
ĠP ant
ĠF ocus
Ġso ap
Ġany time
Ġpe er
Ġtra ils
ĠSh o
Ġste ep
ĠB ab
Ġbene ath
R es
ĠW olf
Ġun fortunately
Ġgr id
Ġsqu ee
Ġent ity
ĠPar liament
Ġconsult ant
ĠEv ents
ĠThom pson
Ġre n
Ġvar ied
Ġstruct ural
ĠR ot
Ġ( @
Ġen abling
ĠH op
Ġen abled
Ġper pet
Ġattend ance
Ġrad ical
Ġemb ra
Ġsepar ated
Ġprogress ive
ĠS EC
ĠN ative
Ġcook ie
ĠDu ke
ĠP urch
ov a
ĠRes ort
Ġsil ent
Ġinflu enced
Ġhop ed
Ġshe d
ĠBarb ara
Ġch ampions
amp a
Ġret reat
Ġprom ising
Ġfriends hip
Ġgrocer y
ĠNig eria
P L
c ount
ĠC ream
Ġres erv
Ġhand led
Ġrece iver
ĠTechn ical
m ary
ĠG a
Ġre actions
ĠA aron
Ġcar b
Ġlight weight
Ġcontract or
ic an
ĠM O
ol k
ĠH o
re ach
ĠT ickets
ĠMeet ing
Ġbe ating
Ġsupp ose
ĠAn na
ĠPlay er
N S
Ġre nder
Ġmar ijuana
umb ing
oo ps
rit is
ather ine
Ġpick s
Ġcapt ain
ĠCapt ain
M B
is ure
Ġopt imal
Ġconf idential
ĠN a
ac co
uss y
spe cific
Ġarrange ment
Ġy eah
Ġquarter back
ĠB ath
ĠD ance
apt ers
Ġautom ated
Ġd rew
Ġline up
ĠSa udi
F rom
Ġsy ndrome
ĠGra ce
Ġbless ed
ĠCh amber
Ġcreat ures
Ġviol ation
Ġnut s
Ġqu it
ĠUs ers
Ġgrad ually
Ġr ust
Ġche er
Ġfil ing
Ġinvest ed
Ġste pped
ĠFig ure
unn els
Ġre vers
Ġab stract
Ġsc ared
Ġrest ricted
Ġcas inos
Ġagric ulture
ink le
ĠCar ib
Ġdisp ute
ĠP ath
Ġsurv iv
Ġir re
ĠDet ails
ĠJim my
Ã ±
Ġp ays
ĠAd ams
ĠC os
Ġne at
Ġdis abled
Ġbu nd
Ġcontact ed
Ġaccom pany
ĠTre as
ĠMississ ippi
Ġa qu
Ġbe aches
ric ane
Ġdist ricts
ĠZ e
Ġb oring
ert ation
Ġaddition ally
Ġcontract ors
Ġprevent ing
Ġtransfer red
ĠB ag
Ġcomp osed
6 3
ĠH A
ĠH an
ĠR at
Ġident ifying
Ġver ify
ic ut
ci ples
ĠL isa
Ġcar rier
ĠCharl otte
âĢ¦ ]
Ġnice ly
Ġparam eters
Ġmanif est
B N
Ġf les
am on
ĠR ow
ar o
ĠB ol
Ġc um
ĠV ancouver
ange l
Ġtreat s
child ren
Ġs ake
ĠM ars
ĠD er
th ur
Ġrepl ied
ĠAdd ress
Ġsurv ived
Ġab ortion
ĠPro t
ĠWay ne
l ink
Ġwe lf
ĠChrist opher
ĠDes cription
rapeut ic
r ison
Ġselect ing
CR EDIT
b d
iv ities
Ġmeasure ment
Ġoppon ents
Ġwelf are
Ġh arsh
ut ors
spe ed
C ARD
ĠG ib
Ġ3 50
Ġhar ass
Ġpro sec
Ġint imate
che stra
Ġanticip ated
ĠLar ry
u an
ĠG B
Ġcommun ic
ĠRev olution
Ġoblig ations
t age
Ġw ore
Ġf ails
Ġf itting
Ġsh r
Ġout doors
Ġconf usion
ĠInt el
Ġt a
un ct
com ed
A fter
ou b
ĠN i
ĠC raft
ĠE ye
Ġro cks
AC K
ĠSomet hing
st ock
ĠC ou
ĠP il
em ade
Ġint ensity
Ġplace ment
ĠAm y
IG HT
ĠC ann
Ġprof ound
Ġtom atoes
F r
d ro
Ġprior ities
ĠCons erv
ĠAnge l
ĠCast le
Ġf ence
Ġobs erve
Ġp ant
ĠW right
ĠF reedom
Ġdemand ing
Ġ %
ĠF em
ĠG ov
el and
e ven
are r
ĠMar g
ĠAm b
Ġfol k
Ġrepeated ly
Ġs isters
Ġb in
ĠG PS
oth y
ĠMan h
Ġfail ing
Ġargu ments
ĠA bs
ĠB ear
ĠB uck
Ġinvest or
ane ous
Ġcourt esy
Ġhyd ro
f ight
Ġl bs
ĠG ift
Ġsp ouse
Ġtour ists
er als
ne ath
Ġaddress ing
Ġteac hes
Ġvan illa
w oman
Ġt ires
ĠT aking
ĠO ften
ĠY ellow
Ġ5 9
Ġcare ers
ĠGl ass
ĠHun ter
ĠPro s
on ia
Ġinst ances
Ġexpl icit
ĠMet ro
Ġarr anged
ĠP as
Ġex terior
em et
Ġparalle l
Ġacc idents
Ġrep orter
Ġbur ied
Ġcitiz en
S U
ar ation
ĠReg ister
ĠEm pire
Ġb ay
ant e
Ġinv ention
20 15
Ġbar g
Ġrank ing
olit an
Ġg host
Ġcontrovers ial
Ġo xygen
Ġmarket place
ĠFr an
AS E
CREDIT CARD
ĠG O
Ġbu zz
ĠSen ator
Ġm aker
ĠF ix
con f
Ġmotiv ated
ĠS om
Ġtw elve
land o
Ġap olog
oty pe
7 2
Ġg rey
sh ine
Ġvari able
Ġhighlight ed
ĠIn side
Ġpur ple
Ġelect ro
OR T
ĠPer ry
AC T
Ġbatter ies
ate ur
ĠK y
li est
Ġclos est
n ormal
Ġh ills
Ġclaim ing
Ġcand y
Ġcab inet
Ġd ivers
Ġre ct
Ġopt ional
ĠReg ion
Ġsecret ary
Ġreferr ing
ĠW a
ĠJ oy
iss a
Ġwa ist
Ġtrou bles
Ġwides pread
Ġh orn
ĠV A
Ġag ing
Ġeas tern
ĠInd ividual
Ġdeterm ination
ĠRem ove
li hood
Ġbran ches
ĠSe an
Ġprotect ive
ĠTem ple
Ġhung ry
r in
ĠB ott
od ed
ĠK it
Ġres erves
omet er
ĠBe ck
sh ot
Ġtrad itions
Ġrad iation
ĠSur vey
ĠAud io
! ).
ĠM C
Ġpre ferences
Ġmin im
Ġrout es
Ġjump ed
Ġdiscount s
sh ore
ĠAm end
ĠS au
ĠC old
ul in
Ġsa ves
Ġchart s
Ġphys icians
ĠJun ior
Ġelder ly
ĠHe y
ro duct
Ġbo oth
Ġi T
Ġregard ed
on z
ĠL ad
Ġnot ion
Ġdec iding
Ġbre ed
Ġstim ul
Ġconver ted
G o
im ens
qu er
Ġess ence
ĠR oc
iz able
Ġhon ored
Ġalbum s
ĠCompan ies
Ġg est
ĠCl ar
ĠDis cover
S ee
ĠN az
Ġad verse
Ġjo ke
Ġ198 9
Ġvert ical
w ick
ct ic
ĠR aj
Ġtem ple
Ġh ood
Ġpl aintiff
ĠPro p
ĠSp ot
Ġident ical
Ġsho e
Ð¾ Ð
ad vant
Ġread ily
Ġbr ut
Ġreport ers
Ġut ter
Ġthreat ened
p ur
s l
Ġsc rap
lish ing
Ġtem por
Ġtransp arent
ĠVers ion
Ġc ree
ar th
am ine
Ġfre el
u ations
t able
in f
OU R
Ġanaly tics
Ġuncom fortable
N Y
tr ans
Don ald
Ġpra ise
Ġre vel
Ġha ck
Ġhy pot
gu ard
7 4
st ick
ĠM as
ĠQue ens
Ġadvoc ate
I ES
j ud
n atural
ad er
ob b
ĠCom ments
ĠCam bridge
Ġbond s
Ġnutri ents
c ow
Ġun p
ren a
ask et
Ġcat alog
Ġanaly ze
Ġle ak
Ġsub mission
Ġmerch and
Ġvers atile
Ġlog in
Ġmut ual
L et
Ġl iber
ug ar
200 9
ĠSol ar
ã ģ
Ġt ar
Ġa rom
an ing
Ġown s
Ġgr ay
Ġclim bing
Ġder ived
heim er
ĠLaur a
in ery
Ġin hab
Ġliter ary
ĠCarib bean
ĠI L
am med
Ġhe nce
Ġcon sole
Ġover look
Ġshow case
Ġfr ames
Ġclass ical
Ġrob ot
ĠPitts burgh
Ġde emed
Ġgu ided
ĠGra ham
at ar
Ġst ainless
ĠN BC
ĠN elson
Ġenc ry
bre aking
d i
ĠK al
Ġpre tend
ĠPat ri
Ġhom eless
ĠM B
pt ic
ĠLe ft
at tered
Ġb inding
Ġcor ruption
Ġutil izing
Ġminor ity
w ed
ol as
Ġte nds
Ġpo ckets
ĠCent ury
Ġaccept ing
ĠNever theless
ĠK ay
Ġover t
Ġtra ged
Ġvol unt
Ġsacr ifice
Ġep ic
ĠC M
am el
ĠH E
hold er
ĠNY C
Ġcos m
or ient
ĠN ort
Ġtechn ological
Ġlo vers
Ġanal ys
emet ery
ic ular
ĠW ITH
ĠF alls
ap h
Ġam id
Ġdist ract
Ġstri ve
Ġappe aling
ĠDrag on
er ator
iz ard
ĠWar ren
Ġboy friend
is ons
Ġp ound
ĠB oo
Ġr uled
Ġdisc retion
Ġpresent ations
8 4
Ġf ut
ĠT a
Ġsh ine
Ġav o
ĠSu ite
Ġcomput ing
ĠBel g
Ġsevent h
7 1
b ian
Ġb out
ĠG ate
Ġpl ates
ĠLaw rence
ĠB apt
ĠR ent
Ġr ational
em ption
um ing
ĠSc reen
Ġbar riers
Ġnavig ation
Ġthere by
Ġam pl
Ġlog ic
Ġattract ed
O r
k g
Ġn est
ĠB ond
cc a
ĠJer ry
ĠPro b
Ġexpl aining
Ġathlet ic
Ġpubl isher
Ġg aining
Ġdef icit
Ġpoll ution
Ġtransp arency
le ading
Ġint ake
Ġ6 6
Ġhead quarters
Ġdr unk
Ġswe at
Ġint r
Ġwid th
Ġly rics
ol ves
Ġsh ield
Ġsupport ive
ĠThanks giving
Ġperm its
b ird
Ġt sp
ot ing
os ph
ĠRe ally
Ġdif f
Ġdirect ory
ĠIndust rial
8 2
m ad
ĠG er
ip edia
ivid ually
s chool
Ġre cept
th od
Ġsur gical
Ġdim ensions
ĠMarsh all
ĠManh attan
B O
am ins
ak h
Ġprote ins
ĠNet her
Ġvend or
Ġl ighter
ĠB R
Ġstake holders
o ven
Ġb er
ans hip
Ġsepar ately
Ġbroad er
Ġpros pective
Ġsuspend ed
f am
ĠF isher
Ġsatisf y
Ġproport ion
id th
Ġstrugg led
Ġassum ed
Ġra cial
Ġsitu ated
Ġdram atically
ll y
Ġre nowned
ĠH it
Ġcon gress
Ġel ite
Ġtestim ony
ĠGree ce
Ġsc ary
Ġtext s
Ġprint s
w ill
Ġb ikes
ĠT arget
Ġst adium
ĠBe gin
ape l
ĠX box
ĠIm ages
Ġcolor ful
> )
Ġshow c
Ġdro pping
Ġremind er
T R
Ġn aked
Ġcontain ers
ĠSc ript
l ad
Ġl one
Ġworld s
Ġmag azines
Ġdepart ure
ĠMor ris
Ġwel comed
Ġjournal ists
ĠAP I
ĠConnect icut
Ġisol ated
ic ts
ĠCol lect
for ced
ĠHer itage
Ġsu ited
ac o
atch ing
Ġmeasure ments
M ar
Ġst reak
ĠF ine
ĠN A
Ġ[ âĢ¦]
Ġcontrib uting
ĠOrig inal
Ġinflamm ation
Ġreven ues
st orm
Ġag greg
Ġmoment um
Ġdelic ate
ĠB h
Ġcross ed
Ġprin ter
P s
al ia
ĠH alf
20 16
Ġsen iors
ĠClick F
Ġexperim ents
Ġh ike
Ġcle ver
Ġintegr ate
Ġcomplex ity
Ġlibr aries
Ġs ized
un ge
Ġcons olid
urer s
Ġdress ing
ci um
Ġlau ndry
ĠTreat ment
Ġp ine
Ġin her
Ġun ve
br is
ĠFe el
Ġpric ed
EL L
e ks
ĠV oice
Ġdif fer
work ing
Ġair line
Ġd aughters
Ġh iking
ĠMain e
ĠHol iday
ĠRecent ly
ĠDI Y
k m
it ual
ĠI an
ĠC ateg
ĠR achel
Ġat e
U s
p in
Ġ1 10
Ġex cuse
Ġad min
Ġnon profit
Ġaffect ing
Ġautom ation
Ġdraw s
ĠSk in
Ġquot ed
ĠWr ite
igen ous
Ġunnecess ary
ig ue
Ġun limited
ĠNe v
ĠBe yond
che ll
Ġon ion
Ġref lection
Ġbuild s
elt a
Ġpen et
p res
ĠN CAA
ĠJ en
Ġtou ched
Ġconscious ness
f are
m itting
ĠD ating
qu est
Ġar ise
Ġaud it
Ġthro at
8 3
Ġh oly
Ġclass ified
ĠChe l
Ġcrit ics
200 8
ĠClickF unnels
Ġre nd
Ġn a
Ġrep rodu
Ġfuck ing
c led
g ate
in ate
as ant
ve t
ĠD ry
ĠN one
Ġro d
Ġpri zes
Ġmix ing
Ġcalcul ated
Ġadvent ures
ĠPhilipp ines
Ġinnoc ent
Ġb ail
Ġlike wise
Ġspe eds
Ġblock ed
Ġoccas ional
Ġelectron ics
Ġc ents
ĠA w
be y
app ropri
ill ance
Ġpe ers
l ar
Ġh int
Ġre aches
ĠB art
Ġsa il
Ġdis abilities
ix el
ĠLouis iana
A b
ĠM un
ĠM ine
Ġmay or
Ġdeal t
Ġdomin ant
c os
Ġamen ities
Ġp y
Ġj er
Ġtr icks
Ġsc al
Ġven ues
Ġalleged ly
Ġtrave lling
w estern
ĠP in
ist ing
ert o
Ġmanufact ured
ĠMuslim s
ĠB eth
Ġr ic
ap or
ail and
Ġjournal ist
m atic
ol o
ĠG round
Ġacc red
Ġunder neath
com merce
ĠClin ical
8 1
on ge
Ġn erve
Ġrest oration
Ġlegisl ative
ĠS lo
ch ain
ass ador
ling ton
ĠOr lando
Ġattack ed
Ġcollabor ative
F S
G R
Ġin ject
Ġth umb
Ġdon ated
Ġform ats
Ġdress es
ĠCert ified
Ġclar ity
Ġvessel s
ĠG ot
Ġ10 1
Ġre ass
Ġvari eties
Ġsem ester
Ġg rip
ĠD ak
Ġr ug
ĠO bs
Ġroll s
ĠS leep
Ġintern ationally
Ġutil ized
Ġr amp
re my
Ġc ush
ĠS ens
ĠE lement
Ġsh ore
Ġsust ained
Y our
l ie
ar at
id el
ĠE SP
el ed
od ay
ac hers
ĠEmer gency
ĠSov iet
Ġch ol
out heast
Ġspecial ty
ĠLead ership
bel ie
Ġb rowse
ĠH ans
Ġstrugg les
Ġexperim ental
Ġland ed
u ke
ĠB or
ĠLe ave
Ġconst ra
Ġvisit or
eral d
Ġpros per
Ġdiscl osure
ĠS L
ĠW A
Ġinv al
ĠCon vention
Ġmechan isms
I AL
ĠT rain
Ġsubs cribe
Ġsurprising ly
ĠT ig
am ents
Ġpri est
Ġinstall ing
Ġemb edded
Ġreflect ed
Ġar c
Ġent ities
Ġbo ats
Ġpath s
Ġeth ical
Ġlegend ary
m ay
ĠD A
ĠF al
Ġdes ires
ĠIs a
Ġval ued
Ġprev al
Ġpast a
Ġmeas uring
OS T
Ġdark ness
ĠIndepend ent
D es
Ġal ien
ann ah
c am
qu et
Ġper ception
Ġtri ple
ĠAnton io
Ġp ork
Ġhigh way
Ġgovern ance
ĠOsc ar
ĠL anc
ĠShe l
Ġorder ing
Ġ18 0
Ġencoura ges
ĠAnt i
ĠStr ateg
Ġtransform ed
s k
ĠH ug
ĠVal ue
Ġsn ack
Ø §
Ġf oster
et ooth
Ġco inc
Ġve gan
ĠCo ffee
Ġbad ly
ĠAN Y
Ġnegoti ations
ĠL em
Ġ6 2
Ġhealth ier
ĠPri ze
ĠStart ing
e le
ĠB aker
Ġshe lf
Ġvari ables
ĠS orry
dep th
Ġw ings
Ġo un
ĠB io
Ġde lete
Ġunt o
ĠOlymp ics
ĠAl most
pos ition
Ġmob ility
Ġf itted
Ġm ales
ĠS ER
ĠA le
rib ution
Ġtravel ed
Ġdeterm ining
Ġcy cling
ĠAssoci ate
Ġcle ared
enn a
Ġrepl acing
ĠBar ack
Ġsepar ation
itzer land
Ġcon tend
ĠPal m
ĠAth let
s ome
v able
Ġl ined
Ġwa ited
lim inary
ĠTod d
ĠTy p
Ġsec rets
Ġvari ations
Ġcry stal
ĠVirt ual
m n
t ic
Ã ¢
ty pe
Ġdownload ed
ĠHawai i
ĠUnivers al
n ame
Ġg el
ĠSt orm
ĠAr gent
Ġpost er
Ġfil mm
ĠCan on
Ġcondition ing
Ġestablish ing
Ġtast es
ĠJob s
E n
ĠN urs
Ġnot able
Ġsuggest ing
Ġbul let
ĠPrem ium
ĠSwed en
effect ive
ĠiT unes
b lo
Ġp itc
Ġch amber
ĠFrank lin
ĠCN N
7 3
Ġd ont
Ġst iff
ĠSt ri
Ġdis k
Ġspecific ations
P ub
U E
Ġfor ums
Ġst ones
ne red
Ġleg ally
ĠDel hi
ĠMult ip
ĠResp ons
A re
Ġt ags
Ġatt ractions
Ġexam ined
Ġcost ly
Ġappreci ation
Ġcogn itive
Ġmil it
ĠTransport ation
ĠT ar
Ġas h
au c
Ġdeal er
Ġt orn
Ġin ning
ĠA y
ĠO ri
ail ing
Ġform ing
Ġpoint ing
Ġfree ly
Ġwond ered
Ġresist ant
Ġjurisd iction
ĠR idge
iv als
pect ives
Ġactiv ists
ag g
ĠCom merce
Ġcount ies
Ġpartners hips
Ġconcent r
ĠFa ith
ch a
ort ed
Ġtra uma
IC K
Ġwarm ing
Ġnovel s
ĠOk ay
Ġincorpor ated
Ġblogg ing
C o
st ruct
Ġcon vention
Ġsh ake
Ġdo ct
Ġwhe at
Ġappro ached
ĠNether lands
I nt
ĠP ent
Ġj et
pt ions
Ġstress ed
Ġindepend ently
Ġfat al
G S
ĠT X
ĠV erm
Ġmar ine
ows hip
Ġep id
comm un
M ark
Ġin herent
ĠG un
Ġapplic ants
Ġstri kes
Ġcon ferences
Ġfl ip
v ious
Ġm unicipal
Ġsa fer
Ġthr illed
ĠDub ai
ĠF if
Ġun re
Ġcorn ers
ĠBeaut iful
Ġb ol
Ġp ile
ĠT ed
ĠT ouch
ĠL ay
ĠG T
Ġimm un
Ġhousehold s
h u
Ġbe aring
ĠC ertain
ĠB ah
ĠP ra
ĠOb viously
ĠColl ins
ĠQuest ion
Ġst arter
Ġcelebr ity
Ġhaz ard
S ome
Ġ6 3
Ġvis ibility
Ġfil ters
Ġpat ience
Ġterror ist
er gy
ĠG R
ĠE c
arent ly
Ġprop ag
Ġincl usion
ur u
ig s
iz on
g hed
Ġp ad
Ġch ains
Ġorgan ize
Ġseason al
oura ge
Ġrespect ed
Ġsubst itute
ce ive
Ġsh irts
um ph
Ġinstit utional
umn i
Ġpredict ed
b at
Ġdes erves
Ġbr ick
medi ate
Ġign ored
Ġtail ored
ĠDiam ond
mark s
Ġdisapp ear
ĠInvest ment
ĠCir cuit
M ore
U B
Ġdam n
ĠRel ated
Ġconv ince
Ġcontro lling
Ġbes ides
Ġm ice
Ġd ive
Ġhand les
Ġpresent ing
f lix
n ote
ur red
Ġeconom ics
Ġdefe ated
Ġâ Ĩ
ĠForm er
ĠDou gl
Ġcorrespond ing
Ġaw a
Ġridic ulous
g reen
Ġwell ness
Ġref use
Ġanaly sts
ĠIndones ia
m ers
Ġre loc
Ġgen es
Ġanaly st
ch air
ĠAv oid
Ġind ividually
Ġrem ed
Ġmin imize
b ling
ĠG OP
Ġper ceived
Ġcontinu ously
ĠRog er
ĠMichel le
ĠL ux
em a
Ġk iller
az y
sh irt
Ġpsych ology
ĠCommission er
Ġphenomen on
Ġfles h
Ġp ension
Ġflo ating
Ġ198 8
Ġmother s
Ġinstruct or
Ġkil omet
ĠArk ansas
an ut
ĠF u
th a
ĠSt ars
Ġrel iability
Ġcomb ines
ky o
Ġprec ision
Ġveget able
ĠF ashion
Ġbet a
Ġunder ground
ari os
Ġappl iances
Ġ `
ĠH ung
Ġappear ances
Ġdest inations
Ġavoid ing
ĠDise ase
b n
st age
Ġcan cel
Ġra b
Ġcamp ing
OR D
ĠLead er
ĠBM W
S te
ĠM ason
Ġshe ep
Ġsy mp
ĠPol and
Ġremind s
Ġp aste
ur g
Ġbu gs
Ġcol ored
ĠSch olars
ĠMur ray
ĠLeg isl
c at
Ġo d
Ġre un
ĠP ink
Ġout lets
ĠK aren
Ġinter pre
Ġbook ed
Ġcap s
ĠÂ ½
Ġflo oring
ĠSch olar
Ġm art
ĠTh ailand
ĠY oga
Ġstart up
Ġlaunch ing
OM E
Ġorient ation
ĠRestaur ant
Ġlong est
arm a
ĠGu y
Ġaccur ately
Ġres on
Ġra ck
Ġfa cial
ĠMor ning
ĠStr ong
ĠMad ison
Ġuncertain ty
r ons
Ġgr asp
ĠMov ie
ĠC itiz
ag ger
Ġsub t
ĠAd obe
ĠQ ual
idd ing
Ġincor rect
ĠCorpor ate
Ġdiam ond
Ġdiam eter
Ġalleg ations
7 00
ĠG rey
Ġun pre
ĠEconom ics
tra ck
Ġthe ft
ĠM all
Ġex pend
ĠScott ish
Ġrecip ient
ard o
ĠPro ble
ĠSo on
Ġprof itable
pro du
Ġfunction ing
Ġconduct ing
Ġdistinct ive
ibl ical
Ġf et
ĠAl f
Ġmed itation
Ġchem istry
) (
ograph ical
ĠKe ith
Ġbar rier
Ġmount ed
Ġcorpor ation
Ġproceed ings
ĠImag ine
I m
a ired
p her
ĠB orn
Ġnow here
ĠUs ually
Ġstraight forward
ĠBlo om
ĠA round
Ġpro x
ĠY ahoo
Ġro ster
Ġconsum e
Ġded ication
ch i
Ġcle ans
u y
er ver
ĠS in
ĠS oph
ĠW onder
ĠG A
Ġterm inal
Ġnews papers
ĠAct ually
ĠVis ual
ĠIsland s
ĠLic ense
ĠS M
ĠF el
20 18
Ġinvestig ating
Ġcounter part
Ġtast y
. :
U I
us er
Ġafter wards
ont al
Ġfl ows
Ġunderstand s
H D
et ics
ĠG ill
od ium
Ġdon ate
Ġpres um
Ġ* *
Ġmyster ious
Ġm aj
ar ound
ĠF er
Ġ198 6
Ġjump ing
Ġdiss ertation
ĠPalestin ian
Ġd imin
Ġse ating
ag u
ress ing
Ġcl ips
Ġrel atives
ĠE li
Ġcomm od
Ġinter rupt
Ġdist ur
Ġgl uten
Ġeduc ate
Ġbur st
ĠUp dated
Ġsubs crib
ĠFort unately
Ġbes ide
Ġsh y
Ġsoon er
F ree
Ġ ..
ĠC ass
ĠD R
ĠL if
Ġman ages
Ġinte nd
Ġcompan ion
ĠOffic ial
Ġto ll
qu es
Ġroll er
Ġprivile ge
ro be
Ġbr on
Ġexp ed
Ġdem o
Ġlo ver
Ġ198 4
ĠSw itzerland
k ward
Ġd a
ĠT ool
Ġfun eral
Ġbankrupt cy
Ġdis advant
Ġend orse
Ġca ution
Ġtradem ark
m aster
Ġj aw
Ġval ley
Ġlight ly
iff s
Ġautom otive
ĠC ars
ist ically
Ġr anges
Ġtw in
ps y
Ġchalleng ed
p ace
Ġd ensity
Ġh iding
ll ers
clus ive
Ġfirm ly
Ġdecre ased
Ġattrib utes
9 1
D E
h ou
Ġb orders
Ġmus h
Ġdiv ine
Ġrenew able
dri ven
ĠF an
Ġde bris
ĠL ower
Ġcont rary
Ġeas iest
Ġcra w
Ġgar bage
Ġtact ics
ĠNAS A
G oogle
u v
u it
Ġst abil
Ġsport ing
ĠEs pecially
Ġd ub
ĠD anny
Ġr itual
ĠDe al
Ġnot ification
Ġvari ation
Ġtravel s
v ised
Ġt ropical
Ġthe ore
Ġf er
Ġb ases
Ġcontin ually
umb led
ĠLab our
y our
Ġp ose
Ġdef ence
ĠSum mit
is ode
Ġf are
Ġm arch
Ġre de
ĠAd ult
Ġcond em
9 3
e ous
st ration
ĠIn sp
Ġrec overed
ĠCons umer
Ġsus pected
Ġcomment ary
Ġevol ved
ĠBroad way
uff y
Ġtarget ing
Ġcross ing
Ġconsist ency
. ]
Ġw ound
en cer
ĠS F
ĠD raw
ĠR acing
Ġdes p
Ġoccup ied
Ġtow er
Ġprope cia
Ġb ump
ed u
Ġunder graduate
Ġdem ocratic
ĠAdminist r
ĠJess ica
k ed
ĠI R
ĠH amp
ĠD elta
Ġtun ed
d ig
Ġg au
ĠP ic
loy d
Ġweekend s
ĠBill y
Ġsymbol s
ã Ģ
Ġfarm s
Ġbehav iors
uis ine
P al
ĠH ud
ĠD ifferent
Ġstat istical
Ġsens itivity
Ġj ar
Ġneigh bour
ĠF ight
ĠWe ather
ific ates
Ġinflu ences
ĠCam eron
ĠCommun ication
ĠIn novation
ond e
Ġglo bally
ĠiP od
Ġpray ers
ĠWal ter
it ol
ĠF ra
Ġv in
Ġkick ed
st airs
Ġis lands
ĠP ap
Ġpro secut
ĠUn less
Ġreason ably
ĠBar ry
Ġcoll apse
Ġstrength s
ĠBas ic
A m
Ġinc idents
Ġreg ret
Ġ6 8
po ons
Ġeditor ial
ĠCond itions
ĠRegist ration
ĠLiver pool
9 4
op les
ĠO racle
Ġneed ing
Ġfresh man
Ġaw ful
Ġconv icted
om ore
ĠC BS
ĠFr ame
ĠJe remy
m aker
ĠS N
ĠP oll
ĠO tt
ell a
Ġgr ades
Ġpress ing
Ġadjust ed
C ol
Ġre nov
ul ator
He re
ĠBud get
aceut ical
s ize
Ġle verage
Ġpartic les
ential s
ĠEar lier
Ġfra gr
Ġburn ed
ias m
i per
r int
Ġs illy
Ġingred ient
Ġcust ody
Ġsend s
ades h
Ġmerchand ise
P oint
Ġher bs
Ġcur ve
ĠFe at
ĠNot es
ĠHope fully
Ġcharm ing
Ġrebu ild
st it
ĠC oc
Ġmod ules
Ġlist ings
ĠJohn ny
Ġaff air
ĠMet al
ĠCamp aign
e ared
ĠR io
ĠPro gress
Ġtrans it
T w
j ack
Ġwood s
Ġdelay ed
Ġh ockey
ĠIn iti
Ġpharm ac
Ġconj unction
ĠCele br
ĠW oman
du e
Ġback ing
Ġac ute
Ġvis a
Ġdeal ers
Ġg em
pe red
Ġr ides
Ġch apters
Ġprov in
Ġrun ner
RO M
Ġb ree
Ġb ored
ĠB A
Ġ9 8
Ġlist ened
cent ury
new s
Ġf ate
an ne
ol ine
ĠD at
ĠN ice
res ist
Ġj am
ĠSt orage
Ġmod es
Ġprogram mes
Ġexpect s
Ġphys ics
Ġsubsequ ently
ar ity
ĠM asters
Ġcount ing
ĠDo or
Ġ198 7
Ġcirc les
Ġfarm ing
Ġspons or
Ġan th
Ġno on
Ġtra ce
Ġback s
ĠCl ay
Ġel abor
Ġhor rible
Ġmagn ific
Ġpursu ing
N et
ad ays
Ġimpro ves
Ġbra ve
Ġhom emade
ĠS ustain
ĠW ash
Ġk its
Ġup s
Ġhome work
Ġtal ents
ĠIS O
ĠThrough out
ĠProte ct
ĠR T
pos ed
Ġapart ments
ĠRich ards
Ġtrib ute
j u
ĠB os
Ġra ises
Ġpract icing
Ġur ge
Ġcann abis
Ġb aked
ĠB oot
ĠP ad
ĠK u
Ġsp ine
ane an
Ġport al
ĠPhot os
Ġmod est
ĠBr ight
ĠTy ler
Ġden y
r ors
Ġpre ference
Ġimm ense
Ġacknowled ged
g un
ĠS el
Ġsl a
Ġspread ing
Ġadapt ed
ĠRegard less
ment ed
ĠSt age
Ġpart ially
DA Y
Ġaest hetic
Ġt att
Ġw ars
ĠR ule
oc ur
com pass
ĠCo ordin
Ġgrab bed
ĠHT ML
mind ed
C ar
ĠD oll
ĠRe comm
Ġsuggest ion
Ġmax imize
ĠDoc ument
ic he
ĠR isk
Ġde le
Ġeduc ated
Ġtre as
ij ing
Ġspons ors
Ġdess ert
Ġw ages
at on
Ġle ver
te lling
ĠK ath
ĠAl z
ĠLet ter
ĠPlay ers
Ġbrief ly
b in
Ġm ock
oc y
Ġmod ify
let t
Ġste al
Ġbed rooms
ĠWood s
a ire
o ft
ve ment
ĠH S
Ġmon etary
Ġloc als
Ġfound ing
ĠMos cow
Ġtraged y
ing le
Ġan k
Ġnot ing
iv an
Ġfe ver
ĠBut ter
Ġmon ster
ĠGr iff
Ġcy cl
Ġcomprom ise
ĠBenef its
Ġw ax
as ive
Ġinv itation
âĢ¦ âĢĿ
anc ers
Ġearth qu
ĠProdu ction
Ġmetab ol
d ered
g ic
ĠS ri
Ġpart ly
Ġpart ial
pro duct
ĠFed eration
ĠT erry
Ġch ick
ern and
Ġbi as
Ġdead ly
ĠTechn ologies
Ġsurve ys
ĠDougl as
Ġm igration
ĠH ousing
Ġhome owners
Ġ7 00
Ġpromot ed
Ġlit igation
ĠMalays ia
ĠLoc ated
Ġeth ics
Ġdesper ate
/ .
Ġs ore
Ġappear ing
AS S
Ġbase ment
Ġrid ers
Ġspa cious
ĠR AM
ĠJ ava
Ġres ur
Ġint ensive
ĠCo al
che ck
Ġimm ers
ĠTri p
Ġast ron
ĠLind a
g roup
ment al
ĠTr uth
ĠMit chell
Ġca f
ĠAct ive
intend o
Ġprest igious
ĠV ision
Ġf ires
ĠT ower
Ġhe ated
Ġch ill
iz ers
ĠLe x
ĠMult i
Ġmand atory
Ġun h
ĠTo kyo
ĠGu id
Ġgrand mother
wr itten
ĠR ing
ĠEd ge
Ġinj ection
Ġobs ervation
Ġshock ed
d rop
Ġin equ
ĠD M
ĠG raph
ĠS oul
ĠF urn
Ġpl a
ĠHe brew
Ġfin an
Ġsol ving
Ġpat io
Ġsn acks
sec urity
ĠCamp bell
Ġinfect ed
ĠP ope
us cript
Ġout let
Ġspe cially
ĠAl t
Ġvol umes
Ġkne es
Ġtempl ates
ĠHe nd
Ġrecruit ment
ĠValent ine
c ap
ĠM Y
ĠP od
ĠL ov
pl ate
own er
Ġanim ation
ĠC it
ĠNe g
cy cl
ĠEv ans
Ġcris p
Ġrecy cling
Ġadj acent
L P
j an
Ġe ighth
ĠAr thur
Ġrest ored
ĠInd ians
Ġcost ume
ĠInter view
Ġresol ved
ĠOpt ions
Ġcoron avirus
h h
Ġb om
Ġg room
Ġu gly
Ġequ ality
Ġvol tage
ĠT ools
ĠY e
Ġbl ade
Ġaut on
Ġdraw ings
o ks
v ance
ed ed
ĠD est
Ġ6 7
Ġlog ical
ĠEm ily
ĠDirect ors
ĠNet flix
Ġund e
ĠBrother s
is p
Ġm erc
ĠC AN
Ġaw kward
ã Ĥ
Ġ verse
Ġgener ating
Ġcompl ain
ĠApplic ations
P ost
Ġpro l
ĠH us
th ird
Ġcor rel
Ġviol ations
Ġdispos al
om er
Ġed itors
Ġbre ach
New s
Ġking dom
ĠT ampa
ĠR S
ĠR V
Ġro ok
Ġclean ed
ĠUs ed
Ġsell s
str ong
Ġje ans
P lease
ĠW ard
row ing
AR E
Ġpun ishment
Ġcro ps
um atic
ail ed
ĠChe f
IT E
Ġbi ology
Ġdyn amics
P I
a ci
r itional
Ġcont roller
Ġbl ast
Ġsens ors
ĠH ence
ge red
ĠK el
Ġobtain ing
Ġplug in
sen al
ĠTurk ish
G u
ĠN AT
ĠSe ven
Ġtop s
Ġscen arios
ĠExt ra
Ġcontrovers y
h ole
Ġre im
ĠA CC
ĠG ay
all ing
ph ony
ĠDe pending
ĠSpe cific
Ġbatt les
Ġprohib ited
Ġbe ars
Ġcraft s
oles ale
Ġobserv ations
f i
is y
Ġp ond
Ġl iable
ĠH orn
Ġatt raction
Ġsch olar
Ġw and
Ġg ri
ĠR ules
ĠCh ocolate
ĠMar ie
ĠMan aging
Ġeval uated
Ġnic he
ĠI BM
Ġy arn
Ġout break
ang o
Ġsk ip
Ġexecut ed
Ġfundra ising
R ep
g ans
ĠB ishop
Ġbr ide
Ġpract ically
Ġtre asure
Ġfem ales
ĠVol ume
Ġe uro
Ġrad i
Ġclos et
Ġwel coming
Ġadvoc acy
ĠAmend ment
Ġf ond
ĠS i
ĠThe ater
Ġle isure
ĠRe ed
Ġdist ant
Ġmail ing
Ġdim ension
Ġthe ories
ĠT u
Ġrese mb
Ġcou ch
ĠTra ck
ĠP T
ĠW edding
ĠF o
Ġhas s
ĠBe ijing
Ġappro aching
Ġknowledge able
ĠSw iss
Ġstream s
Ġthe rapeutic
Ġp ist
ĠBr un
Ġfort unate
ĠBapt ist
9 2
ĠS ud
ĠS ett
ĠR ange
ĠSt ories
ĠAn im
ott age
Ġlab our
ĠE ither
ĠCl imate
irm ingham
Ġadvis or
Ġfert il
Ġd ia
ĠR ank
Ġj unk
Ġout look
ĠK night
ose x
Ġpres cribed
ĠChristian ity
ĠAlz heimer
at ility
Ġp airs
ĠMil itary
Ġconstit utional
ĠLink s
ĠP ret
Ġ7 6
Ġattend ees
ĠR ice
ĠK id
Ġ6 1
ester ol
Ġthreat ening
Ġimmigr ants
r imin
Ġmin eral
Ġrespons ive
ĠRob in
L ast
u ced
Ġd ated
ro e
Ġcamp s
rop olitan
200 7
Ġgrad uation
ĠOper ations
Ġcounsel ing
build ing
2 000
f irst
Ġm asc
im ents
Ġdo i
Ġco ins
ĠDou g
ĠKnow ledge
O s
in ance
Ġam p
Ġind ication
ĠMar io
EN D
Ġdescrib ing
ĠLink ed
ĠBoy s
Ġenthus iasm
op ath
ĠK yle
ĠV ac
Ġmed i
Ġachieve ments
s omet
ro ck
ur ring
Ġhe d
em ail
Ġcont rad
Ġco in
Ġbas ics
Ġpar liament
Ġstrict ly
Ġdisag ree
Ġp ics
Ġmusic ian
Ġglo ves
Ġlaugh ing
Ġpipe line
st an
Ġbr id
Ġret ro
Ġarri ves
ĠAssoci ated
ĠHistor ical
at ical
Ġcon greg
Ġde ployment
Ġshe er
ĠPark er
cel ona
Ġrefres hing
ĠESP N
f old
p ensive
or us
ĠJ oh
Ġ7 7
Ġclos ure
Ġaltern ate
. ),
ĠA irl
ĠF O
ĠApp ly
Ġsci ences
Ġinterview ed
Ġadvoc ates
. ).
Ġc er
Ġf u
Ġp orts
ĠP E
ĠAd vert
Ġvill ages
Ġtrain er
ĠR ES
Ġac ids
ĠSy n
Ġabs ent
Ġabsor b
Ġrecru iting
z o
ĠCh i
Ġbeat en
ĠUlt ra
Ġhospit ality
ĠTai wan
s ur
ĠA er
ĠAl b
Ġmem orial
Ġadv ances
Ġt ens
Ġb anned
ĠCh rome
Ġrun ners
Ġannoy ing
Ġinquir y
an cer
ist le
iction ary
Ġdu o
ĠBeaut y
ion ed
Ġst ating
Ġadjust ments
Ġmagn etic
ĠPub l
Ġlux urious
Ġmedic ines
ĠNev ada
Ġvin yl
Ġl enses
ĠRes ource
Ġconcent rate
Ġloyal ty
Ġd ot
ĠR aven
Ġso y
ener y
Ġappoint ments
s ervice
Ġt anks
app ro
Ġprem ier
Ġcraft ed
à ¥
cer pt
ĠRep orts
ĠAdd ed
Ġcy l
orient ed
Ġsh ifts
Ġim aging
Ġdec ides
ĠApp arently
Ġconsider ably
Ġspot ted
h as
Ġt el
Ġt iles
Ġc ant
Ġb atch
ĠB ou
Ġal ph
Ġbo asts
Ġaccording ly
ĠOak land
T ra
Ġfin ishes
Ġcomplic ations
Ġconstit u
Ġto b
ĠI F
ĠA V
Ġch rom
Ġ9 6
Ġtom ato
Ġsurve illance
Ġb inary
ĠT ob
Ġpan ic
ĠPhil ip
Ġl ung
ĠF lex
ĠF BI
Ġnew er
olog ically
Ġ7 8
Ġbit ter
Ġble eding
ĠPan el
ĠSher iff
Ġlin ear
ĠBuff alo
e u
ĠC V
ĠM ath
ĠB achelor
ĠF ly
os ures
ĠComm and
Ġpen alties
he lp
ĠRe le
uck er
Ġdig it
Ġintrodu cing
Ġfaith ful
Ġbicy cle
ĠP red
Ġpro ceeds
Ġam bit
Ġback yard
Ġsl ides
Ġbreat he
Ġthank ful
S pe
T oday
Ġg aps
act s
Ġreb ounds
Ġcloud s
Ġtables poons
Ġped est
ĠEag les
' '
ĠP ier
Ġsw ord
Ġexec ute
ĠMaterial s
Ġc ave
Ġm ud
ĠR angers
gg y
ĠArt ist
Ġcatch ing
oub ted
ĠW orth
form ed
Ġun ions
... "
ĠEn s
Ġpack ing
ĠHealth care
ro lling
ĠM AR
Ġsh ades
ĠSt ream
oh y
Ġconnect ivity
GB T
Ġappet ite
Ġl ane
ĠC rown
ĠThe rapy
ĠR ivers
iv ic
ĠSo x
ĠInst it
ĠPhot ography
Ġhero es
ĠMur phy
Pe ople
Ġth resh
Ġg ad
Ġaccess ed
Ġinflu ential
ios ity
sm ith
Ġf ract
ĠM erc
ra ham
ri or
Ġout line
Ġ6 9
arm s
Ġsl ice
Ġopt ical
Ġremark s
Ġavo ided
G ood
ar se
ra h
Ġcont am
ĠDep uty
ĠRead y
Ġwarm th
Ġign or
Ġas leep
ke es
Ġz ip
Ġdefe nding
Ġtend ency
ĠHell o
f ive
Ġs q
ol ved
Ġle ar
Ġpe nding
Ġpo le
li ver
Ġatt ain
Ġgrad uates
Ch rist
Ġadjust ment
ĠLib erty
ĠDub lin
ĠTig ers
b one
m al
Ġd ign
ĠN intendo
Ġfr idge
Ġscient ist
ĠPay ment
Ã §
ĠP ul
Ġmeant ime
je ctions
Ġintu itive
L O
Ġp est
Ġl id
ĠH at
th on
ĠL ang
arch y
Ġanim ated
Ġ ic
re ated
ĠCon ne
Ġdocument ed
Ġmat ched
ĠCr ime
Ġcompar able
tw o
Ġspir its
Ġn urt
ĠS it
ĠN ancy
Ġr if
lo gy
Ġconf using
Ġpromot ional
Ġjournal ism
Ġvir al
y an
or ie
ĠHe aven
Ġinf ant
ĠFe ed
Ġtravel ers
Ġcard i
ĠTrans fer
ut o
ĠTh ai
Ġrele asing
Ġclean er
ĠF ried
ĠGo ing
Ġcomment ed
Ġpubl ishers
ĠAssess ment
ĠMar vel
Ġplant ed
Ġund ers
ym ph
a fe
ĠM ale
Ġcl ay
Ġcomb ining
Ġsun ny
ĠStr ategy
ĠWeek ly
C P
w hen
ĠS we
ig o
Ġcomp ound
ced ented
m ir
ĠF ell
Ġse gments
Ġne arest
Ġtra ins
Ġimp osed
ĠDe fe
Ġcr ust
Ġquiet ly
it err
Ġre vis
ĠA RE
Ġqu ery
Ġgood ness
ell o
ĠZ one
Ġfat igue
Ġwitness ed
e ing
Ġf oss
ro se
Ġon ions
Ġst airs
Ġchar ter
con nect
Ġve t
Ġparticip ant
Wh o
ĠGreat er
Ġsubst ances
Ġment ally
ĠAdvis ory
J ohn
Ġde ce
end ing
Ġcry ing
iox id
h al
Ġh ind
ĠT iger
ĠF R
ĠPart ner
fl u
a ft
Ġd ip
ĠB irmingham
ag ne
ĠCh oice
Ġhold ers
Ġmid night
Ġhes itate
C he
Ġse aled
Ġsw all
ĠEn c
Ġhon ors
ĠCare er
Ġe co
ĠA id
ĠM atch
ĠJ ar
Ġmed al
wh ite
ĠMon te
Ġlif ting
ĠCoun sel
ĠDemocr at
ĠIn it
Ġplay offs
Ġcar riers
Ġ8 8
Ġbo il
Ġdel ays
ze ch
ĠVe h
i ens
r ant
Ġt ile
Ġl ounge
Ġst itch
ĠE PA
ard ed
Ġsp am
Ġkey words
ourn als
Ġ198 5
Ġarchitect ural
Ġvary ing
Ã Ĺ
ob s
Ġintegr al
Ġsatisf ying
ĠElect ronic
Ġneighborhood s
pay ers
Ġd os
ĠS pect
um bers
Ġfr ustration
Ġmain tains
Ġz ones
Ġri vers
inc inn
Ġcru el
ĠRet ail
Ġlect ure
in is
re f
re lla
ĠC arm
ĠP D
Ġorganiz ational
u ments
Ġp el
ĠSh an
Ġfr ight
Ġexist ed
Ġinvestig ations
Ġcirc ulation
Ġanx ious
ĠOrig inally
Ġpractition ers
ep s
ĠCh icken
omet ric
20 19
Ġformer ly
ĠGl en
ĠExper t
oubted ly
ot hing
ĠJ oint
Ġtrans fers
ĠProgram s
ĠChel sea
or ph
Ġb ureau
Ġm es
ĠD od
Ġext rem
Ġassist ed
Ġrev ised
Ġstick s
Ġlau ghed
ĠCry stal
ĠPrim ary
appropri ate
ĠHamp shire
Ġst ap
Ġsl im
ĠGr ay
Ġneg lig
Ġware house
ĠM I
ĠO d
ĠO t
hes ive
Ġfund ament
ĠBar celona
Ġfabric s
Ġvit amins
Ġnurs es
ĠToy ota
Ġintim id
L ear
m us
u ity
Ġm os
ĠC E
ĠPl atform
Ġdom inated
ĠStan ley
l arge
Ġbu ck
Ġorgan izing
anc ies
Ġprot ests
Ġcompliment ary
ĠIntell igence
ĠP ages
com fort
ĠTe acher
Ġtou g
Ġa ug
ĠL ots
Ġacc ent
Ġprem ises
Ġpoll s
ĠSubs cribe
he ro
Ġn an
ie ve
ah o
Ġsacr ific
Ġwithdraw al
w atch
at ched
ĠO z
Ġcomp aring
Ġour s
Ġsub ur
ĠGr an
inn amon
Ġconv iction
Ġblank et
incinn ati
B ER
b ase
Ġb ully
Ġ1 30
ĠDes k
Ġsac red
W A
Ġ ×
Ġp anc
ĠA A
Ġfor cing
ach t
Ġreview ing
Ġlack ing
ION S
Ġelement ary
ĠExcell ent
c ode
Ġind irect
Ġlif ted
Ġath lete
ĠGard ens
iterr anean
id o
ir s
ĠGener ally
Ġsched ules
ĠStand ards
ĠList en
Ġm amm
ĠS ugar
Ġu pt
ĠCol on
ats on
ĠInst ru
Wh ile
Ġmotor cycle
cipl inary
Ġencount ered
ĠT E
ĠU P
add le
Ġpoor ly
ĠPu erto
iot ics
ĠF M
ĠEd wards
Ġarri ving
Ġkid ney
Ġcoordin ator
Ġsear ches
im edia
Ġun ited
Ġdevelop s
Ġbreak down
ĠPre vention
Ġconsist ing
he at
ĠT N
ĠW R
ĠH omes
ĠD ress
op ard
Ġso fa
Ġdr ill
ĠFl ore
Ġoccur ring
ĠSub ject
Ġreward ing
ĠAirl ines
Ġh ilar
ĠMc Donald
ĠCor ps
Ġtransl ated
Ã³ n
ĠNH L
ĠP arents
Ġfr ank
Ġca res
ron es
Ġpick up
af ood
ĠGr ade
ĠOb ject
Ġadjust able
ĠVol unte
u i
Ġare na
Ġeduc ators
Ġcoast al
atin um
r ise
Ġ ]
ĠR ating
ens ed
ĠCamp us
ĠOrgan ic
Ġconflic ts
Ġcock tail
Ġincent ives
Ġpo em
ĠAl ice
ĠOper a
Ġterror ism
Ġportra it
h alf
Ġc akes
ar re
ĠP os
ĠO pport
akes pe
Ġpress ed
Ġrecommend s
Ġvi able
Ġnation ally
Ġrespond ing
Ġbon uses
Ġbrows ing
ĠNor way
Ġunf air
ĠHarr ison
ĠPhys ical
ĠGi ants
ĠBlu etooth
Ġg ospel
th ritis
ĠJ azz
the ning
Ġtax i
ĠEqu ipment
Ġcoord ination
H R
Ġto dd
ĠB enn
ĠE M
ĠRep air
Ġfif ty
Ġcinem a
r ust
Ġcan vas
Ġrem edy
Ġstruct ured
ograp her
ĠAcadem ic
Ġtun nel
w s
ĠT D
ĠC lose
ĠTh or
ĠCustom ers
ĠAgain st
Ġambit ious
Ġp ale
Ġin aug
ll i
am as
ri ors
Ġconsum ing
Ġur ged
Ġload ing
Ġincl usive
ĠPrin cess
ĠGrow th
ĠSimilar ly
Ġre ign
ĠL akes
Ġpu zzle
ĠWik ipedia
ĠDak ota
ill o
ĠL ie
ĠU A
oc ation
ĠOther wise
ĠWhe el
laim ed
h ma
Ġc it
ĠG host
Ġr h
Ġgu ilt
Ġrep ay
Ġhum ble
ĠJu an
ĠSur v
ĠRich mond
Ġhabit at
w y
Ġover time
Ġpre liminary
ĠComm ons
Ġarg ues
boy s
Ġfrustr ating
Ġcha os
Ġg rief
ĠP le
ĠF ame
Ġener g
Ġmid st
ĠInvest ig
Ġwealth y
Ġdys function
ing o
Ġout lined
ass y
Ġste ering
ĠCru z
j amin
Ġen zy
ĠV M
ĠDe fin
Ġgl oss
Ġball ot
Ġtouch ing
Ġindic ator
ĠSn ap
ĠEvent ually
Ġfrustr ated
Ġe rect
Ġex otic
ĠTrans l
Ġnom inated
Ġbell y
pir acy
Ġrhyth m
re k
ed e
qu al
Ġcomm ands
Ġcor rupt
Ġbackground s
ĠKen ya
Ġobst acles
ĠFac ulty
ĠPric es
w al
ĠN ep
Ġcrowd s
D ay
ĠM es
Ġsk etch
ĠSome one
Ġprior it
ĠWar ner
ĠPot ter
st art
Ġpromot es
Ġjoint s
Ġtob acco
Ġm asks
ĠW OR
th ink
Ġgr ill
Ġdist inction
ĠTH AT
umb ai
Ġmanufact ure
Ġsmooth ly
ĠBrand on
Ġsurge on
Ġunpre cedented
o ard
s or
ĠL en
Ġenter prises
Ġdecor ated
Ġbelong s
Ġemotion ally
ĠJam ie
G H
ĠM ob
Ġhe lic
ĠE gg
Ġdon ors
AS H
Ġdeploy ed
ĠP el
iv est
Ġinst inct
Ġcreat or
rim p
s ub
Ġc attle
ĠH oney
ĠD al
ĠN J
Ġco pe
qu ire
ru e
ĠV ista
Ġrec ession
Ġcou pled
ĠFind ing
Ġforest s
Ġcrypt ocur
d irect
an as
ĠK le
aw s
Ġpot ato
ĠHel en
Ġment or
P ER
Ġe cho
ch ron
ĠM ental
Ġcom ics
est on
ĠL ands
Ġint ra
pr ing
ĠPark s
Ġdemonstr ates
g irl
Ġhe els
ĠP O
un ks
ĠCom ing
oot ing
Ġtrad ed
ows ki
ĠPolit ical
ĠHud son
f il
im ity
ig ure
Ġ19 30
sel s
Ġdest ro
Ġmagnific ent
w au
ing ing
ĠNe il
Ġret ention
Ġmiss ions
Ġposition ed
oster one
Ġbless ing
ĠColumb us
Ġc uisine
Ġl ining
ĠCh ampion
Ġind ul
Ġmess aging
Ġdistrib ute
ĠMont ana
ĠHor se
ĠImp act
ĠMarg aret
B ay
m el
ĠT A
ĠL GBT
Ġsu p
oc hem
Ġoff set
Ġdes criptions
Ġlaw makers
Ġextend ing
ĠSwed ish
Ġproject ed
Ġsuper vision
Ġemer ge
Ġassess ed
Ġwat ches
ĠStat istics
Ġroy al
c ost
e em
Ġf isher
Ġm elt
ll o
Ġres ign
bor ough
ĠMont real
Ġrot ation
p op
al so
ĠM ORE
ber y
ĠTre k
m ill
Ġan onymous
ĠR F
Ġ- >
ust ers
ie val
Ġqu ad
Ġ7 4
ĠAr c
cl ick
akespe are
ĠH arm
ĠF C
Ġwas hed
te es
row ave
ont in
Ġmar ry
200 6
bor ne
Ġdetect ed
Ġalt ogether
ĠGab ri
Ġf el
le ton
ĠI RS
ĠS ent
Ġnot ify
Ġ198 3
Ġpers pectives
Ġimag ined
Ġdiet ary
Ġelev ated
ĠStan ford
ĠGuard ian
f its
h ave
Ġcom ed
um mer
ĠU V
Ġreal m
edd ings
Ġeat en
ĠJul ie
Ġtherap ist
ĠCompet ition
ĠGrad uate
p oon
id y
ad i
Ġst ats
ĠM R
Ġde er
Ġrel uct
Ġprotect s
Ġconnect s
W elcome
Ġg ast
ĠH onda
ĠD rop
Ġtrick y
ĠClin ic
ur dy
ĠG onz
ĠV o
Ġcoal ition
Ġinev itable
ĠH ours
Ġsp at
Ġbus es
ĠBl ake
Ġindic ating
Ġwitness es
ĠBat man
b ank
Ġse ver
ĠCh and
Ġcons ensus
Ġcap ac
cu its
Ġconsum ed
Ġsurround ings
Ġsumm it
ĠSand y
Ġphr ases
ĠS ter
ur able
ĠR ene
ĠL ions
are l
ĠK o
Ġact ed
Ġmet h
Ġaccount ability
ĠQu arter
AC E
Ã© s
Ġflow ing
pa id
ĠVit amin
ĠS pl
ĠA verage
Ġst rand
ĠD ear
ĠU pper
Ġneed le
Ġ7 1
Ġrep et
Ġtow el
ĠOpt im
Ġsubstant ially
Ġknock ed
Ġmic ros
Ġ à¤
ar ium
Ġk ills
Ġprev ents
Ġdiscuss es
Ġsent ences
Ġpen is
IM E
Ġsynt hetic
S m
ĠS QL
Ġper fection
tain ing
Ġshel ves
Ġinex pensive
T O
p owered
ĠC incinnati
ĠM is
ĠTe aching
ĠEx hib
Ġhard est
ĠInter ior
Ġdismiss ed
i pper
ĠC ant
Ġwor ries
ĠKh an
ĠLuck ily
Ġmem or
ĠNot ice
Ġpursu it
Ġtempor arily
Ġinhab it
Ġhelic op
Ġto pped
ĠC ards
Ġra pe
ili ation
? âĢĻ
in ers
ic ting
id ency
ĠR anch
Ġser ial
ĠSur gery
ĠSupp ly
ĠLat est
Ġswitch ing
Ġfle w
ĠArab ia
ĠEp isode
ĠInf o
Ġmole cular
Ġb acon
Ġd oses
ĠT es
Ġu k
omet ry
Ġshort s
Ġnecess ity
Ġdur ability
ĠCost a
b lock
f our
Ġth rows
ĠR ate
ĠV ent
Ġplay off
ced es
Ġperform s
ruct ive
9 00
ĠD ow
Ġv o
ank a
Ġtri umph
Ġmort ality
g om
m ount
ï ¼
Ġd read
Ġg ly
ĠB ass
ĠAr n
Ġexam s
Ġ14 0
Ġsmart phones
Ġbub ble
Ġpropri etary
es pecially
Ġinf ring
Ġaccount able
by e
ĠAb raham
Ġtou ches
Ġpen cil
Ġrefuge es
Ġthri ve
in come
et on
Ġrem od
pro te
amm ar
Ġblogg er
quis ite
Ġrehab ilitation
G M
ĠD ental
Ġcon form
Ġen act
ip her
Ġdisc lose
Ġbo om
Ġhapp ily
Ġvar ies
Ġaff irm
Ġcool er
Ġassign ments
Ġdu pl
ĠWr itten
Ġabund ance
ĠAgric ulture
e fficient
om i
ĠBon us
thod ox
Ġf ights
ĠS old
ab ul
Ġen rolled
ĠK ick
ĠStud ios
Ġretail er
Ġsec urities
cl osed
atter y
ĠðŁ Ļ
Wor ld
Ġs oda
Ġst yl
Ġag rees
Ġsc andal
Ġinv iting
Ġhun ger
ĠPict ures
Ġhorm one
U RE
m i
Ġre ck
Ġins ulin
Ġpack s
Ġcy cles
Ġtast ing
ov ascular
Ġart ic
ĠNorth west
ĠPal ace
Ġsand wich
Ġwal let
A dd
Ġp ussy
Ġg inger
ĠL ag
ac re
Ġbl ues
Ġperform ers
ĠBl ues
ĠMed iterranean
Ġsold ier
Ġter rain
B R
Ġy og
ins p
Ġinter ventions
Ġsk irt
Ġgr ams
Ġref resh
ĠSp a
ĠIS BN
Ġpu pp
ĠA rena
ie ces
Ġen compass
Ġinc ons
vers ion
Ġass ure
Ġhold er
OU T
Ġisol ation
Ġrac ism
ĠBreak fast
Ġf ame
um ns
Ġgenuine ly
ĠEmm a
ĠS R
ĠO liver
Ġj okes
Ġman uscript
Ġtechn icians
sh aped
Ġdep uty
Ġlicens ing
ĠUk rain
ed a
ĠF ill
eng u
Ġterr ific
l am
Ġp ads
Ġto e
ĠT ol
ĠB iden
Ġres ervation
ĠCon n
ĠReg ular
Ġpat ri
Ġur gent
ĠPet ers
ou stic
be c
Ġactiv ist
Ġname ly
Ġpal m
= "
c ulation
h aw
ch ant
ĠH unt
Ġso cks
Ġcomp ounds
Ġ19 20
Ġatt itudes
Ġgra ve
ĠPat ients
Ġrespond ents
Ġdevast ating
Ġfinan cially
wau kee
g ary
ĠR unning
Ġne ur
Ġear liest
Ġgame play
Ġsche mes
am an
ĠP ure
Ġex empt
em pl
Ġsh ifting
ĠNe ither
ĠWell s
Ġblock ing
Ġd ense
Ġsp ite
Ġpol ar
Ġ9 00
Ġlay ing
ĠUlt imate
Ġtherm al
ĠC ad
Ġsu cc
Ġ9 7
Ġextend s
b rand
c opy
ĠW ol
op es
Ġle nders
ĠSw itch
T ON
Ġf ried
Ġb ake
Ġmin erals
Ġpa ired
ster dam
He y
Ġadministr ator
claim ed
Ġalgorith m
Ġsubscrib ers
m are
Ġl amp
ĠW es
ĠF it
Ġmem br
US A
Ġassess ments
Ġsoph omore
Q U
ĠM ack
ri k
th an
Ġen force
ĠAb b
Ġ198 1
Ġnut ritional
Ġfif teen
ĠPict ure
ĠHig her
on i
Ġd umb
ĠC zech
ĠM t
ĠL ion
Ġtra p
ĠAd just
Ġinvestig ated
Ġchol esterol
Ġl os
ĠH ack
ĠL uther
Ġch lor
Ġdis comfort
Ġsl ower
fort unate
cons cious
Ġuncle ar
ĠMultip le
Ġp ap
ĠM i
ĠR ou
ĠR ic
Ġle nder
Ġexpl ores
ĠCam era
Ġcous in
ĠWire less
Ġnot ified
Ġgu ards
ĠON E
ĠCov id
Ġover head
Ġgl ue
ĠBen jamin
Ġadapt ation
Ġupgr ades
ĠEst ab
Ġtu ition
Ġs ung
Ġw ool
ĠN OW
ĠJ ake
ĠCh ase
Ġfin ances
me ga
Ġrecord ings
Ġquestion ed
Ġas pir
ĠL ate
Ġpe oples
Ġassoci ations
Ġcert ificates
E ng
L ook
p al
Ġd amp
ĠP ine
av i
Ġam ateur
umb ling
Ġexch anges
found er
Ġhass le
Ġdis charge
Ġjust ify
Ġro pe
Ġunw anted
ĠKir k
Ġch ase
Ġk g
Ġtra its
Ġwond ers
Ġarch ive
Ġdemon stration
Ġpure ly
Ġadministr ators
ĠRog ers
at al
ke eper
ul ent
Ġpharm acy
Ġs ins
Ġmet rics
Ġbrand ing
Ġ198 2
Ġquant ities
ĠVi ol
Ġd iving
ĠE t
em en
Ġsl ave
Ġve gg
Ġ16 0
sec ond
Ġguarant ees
i otic
âĢ ²
Ġant ioxid
Ġjo ins
Ġelimin ated
Ġye ast
e lect
Ġfor ty
ist ence
Ġad orable
ĠVeter ans
Ġe ternal
st ruction
oo oo
Ġdisc on
Ġsell ers
ĠMov ing
ĠResp onse
Ġattach ment
le en
ĠS MS
ĠA ld
ke ys
ĠRe id
ĠLe ban
Ġcell ular
ĠAg ent
ugg ing
re z
ĠA W
Ġan ten
ul ative
ĠCl aim
Ġcustom ize
Ġhead lines
ĠDis play
ĠBu ilt
ĠDesign ed
Ġcast le
T ime
ĠT ournament
ig hed
ig ma
Ġqu een
we g
Ġmet er
Ġsumm ar
ĠPub lishing
ĠPoint s
ĠOcc up
p ub
Ġp df
Ġn ails
ab ad
bor o
Ġpredict ions
ĠAsh ley
c ott
ĠT ab
st ory
Ġbe ats
Ġpl umbing
Ġreal ise
Ġprofession ally
Ġamend ment
Ġvine gar
Ġp ear
Ġn u
Ġg erm
ĠE ST
ast ics
ry lic
ĠAll ow
ĠW atson
ĠE val
Ġsm iled
Ġless er
Ġexpl ored
ĠGu est
Ġsent iment
Ġgrand children
ĠClean ing
ĠBase ball
ĠT ip
ge nds
ĠF itness
Ġse wing
Ġqu arters
ĠNe uro
uck ed
ĠRE AL
1 20
F OR
es ity
Ġfe as
ĠCh ad
Ġtrans cript
k ia
r ide
ĠD ame
Ġle nding
Ġall ies
ĠK am
Ġun su
Ġins ane
Ġhapp ier
Ġtechn ically
ĠCent ers
Ġbra ce
Ġcast ing
ĠJeff erson
Ġassum ptions
ĠS K
Ġex ports
ĠN ar
ren n
ĠRe covery
hed ral
Ġsomet ime
Ġport ions
Ġrad ar
Ġreve aling
hum an
et o
um per
Ġsp ice
Ġinv asion
Ġcoll aps
Ġmoist ur
Ġw oke
ĠN iger
ak y
ĠCh ap
Ġ9 2
ĠHealth y
ĠB le
ks hire
Ġinter f
ĠSche dule
Ġfor k
get ic
Ġmed ian
Ġcharacter ized
Ġscr ut
Ġfro st
ĠIniti ative
ĠW ow
Ġent ers
Ġav iation
Ġansw ering
Ġlog istics
Ġsun light
AM E
ĠDri ver
Ġo re
Ġn omin
Ġg rie
ĠP s
our cing
Ġres et
ell ed
Ġinvestig ators
Ġinnov ations
Ġrank ings
Ġgod s
Ġa ffe
Ġb arn
an ium
Ġfor b
ĠB rain
Ġr ushed
ĠAb u
Ġdownload s
Ġmax im
I X
L L
ut ory
Ġst un
ĠH ab
Ġgl ance
Ġquick er
Ġgen ius
Ġteen agers
ur ate
we alth
Ġsince re
Ġconst itute
ĠQu ant
M on
ĠT s
Ġoff line
Ġtra gic
ĠNash ville
l it
l en
ine e
Ġstrong est
Ġmodel ing
Ġintent ions
nd ant
Ġb od
ĠS aints
ge ls
ul ously
Ġ8 2
Ġtrad itionally
Ġstri ps
ĠCons ervation
ĠMad rid
Ġfort une
Ġreform s
Ġg um
ĠH og
ĠJ a
ock et
Ġcustom s
ĠSp ons
Ġcirc ular
Ġpu zz
Ġtiss ues
N C
m ile
ir atory
ĠW AR
ĠJ ama
Ġsc ent
AN S
Ġcal cium
Ġfail ures
Ġbal con
ixt ures
ĠArch ives
ĠYan kees
ĠW ords
Ġcomp iled
ue z
ĠDe ll
Ġfree ze
Ġspecial izes
Ġhar ness
Ġperman ently
ibl ings
C al
is le
ĠC able
ke eping
ĠL ost
Ġman ually
ĠIt em
Ġpromot ions
ĠS r
et a
ĠM umbai
ĠTh under
Ġprogress ion
Ġfra ction
ĠC ris
op a
ide os
Ġappro ve
Ġrest ra
Ġcr imin
ĠInc ludes
Ġindic ators
Ġcart oon
Ġoccup ation
ĠCy ber
Ġsan ctions
Ġrecre ational
T ech
ut t
ĠD ian
ĠD ennis
ier ra
ron ics
ĠAm azing
ĠX P
Ġver ified
ĠPop ular
ĠGro ve
Ġgrat itude
Ġwrest ling
Ġrook ie
Ġbe am
if iable
el ong
Ġinform ative
ĠCert ificate
ĠVerm ont
r ams
ĠC atherine
Ġstress ful
ĠFred er
f ix
ur i
ĠH az
Ġunder go
Ġfar mer
Ġprob ability
ĠInt roduction
ĠHar bor
Ġdatab ases
Ġcalcul ate
F R
w ic
ĠE b
ĠSt u
Ġpar ade
Ġsimilar ly
Ġvir uses
D I
ial is
Ġ8 4
Ġret rie
F irst
Ġcon gr
Ġr ushing
em porary
Ġk icks
ĠV IP
Ġher b
Ġimport ed
ĠPer iod
Ġcharacter istic
Ġconc lude
Ġelimin ating
Ġprompt ed
ĠFun eral
ĠCond ition
Ġha un
ĠF IG
Ġconclus ions
ĠExplore r
c amp
t ails
ĠE ight
enn ial
Ġlim iting
am er
ĠB O
Ġpro long
ins ula
Ġund oubtedly
Ġassum ing
gom ery
c in
Ġb ind
Ġhe y
ĠL an
ĠSc ar
ĠSy rian
ĠEgypt ian
Ġfest ivals
Ġcher ry
ĠCub a
Ñ ĥ
ĠM M
Ġview er
Ġkind a
br aska
Ġplant ing
Ġcompr ised
Ġslic ed
re rs
Ġh obby
Ġdis g
Ġmind set
Ġanal og
ĠState ment
Ġconc erts
Ġenh ancing
oty pes
ĠIde as
Ġcoup on
i op
is ible
Ġh ats
Ġbu cket
Ġcar go
Ġep it
ero ids
Ġsoul s
Ġdepos its
Ġpu ppy
ĠCreat ing
e xt
or p
Ġm ph
Ġd ull
ĠB asket
ĠR d
pt ed
Ġun fortunate
iss ance
Ġcent res
Ġbudget s
Ġmount ing
Ġdisapp eared
Ġtransl ate
Ġconsequ ence
ĠFre qu
,' '
ĠB ike
ĠF avor
ĠAm anda
Ġsw ift
Ġcomb inations
Ġdiscipl ines
Ġrevolution ary
atern ity
Ġslee ve
ĠG ospel
Ġout reach
Ġca ut
atter ing
conom ic
Ġcheck out
Ġcommit ments
Ġresearc her
ĠFour th
pat ient
ĠSac r
ĠProb ably
ĠElement ary
h ouses
Â ´
an im
Ġn ap
Ġcr ushed
Ġimpact ed
Ġ197 9
Ġsimpl er
Ġsurviv ors
ĠTreas ury
Ġw ounded
ĠT ag
Ġal erts
Ġco ating
ock s
ĠOff er
ĠPet e
ĠAlex and
Ġpump kin
Ġoverwhel med
ĠLabor atory
ĠT un
os ity
Ġlog ged
Ġteen age
Ġconstit ution
Ġrenew ed
Ġphotograp hers
Ġevol ving
Ġtum or
Ġtoler ance
ĠðŁĻ Ĥ
ed ar
Ġso vere
ene z
ah u
Ġaut umn
ann on
ĠOut door
ĠWork ers
Ġoptim ization
Ġthick ness
Ġo ak
ĠT ap
ĠM az
ĠB S
ĠV ari
Ġsub mitting
Ġface book
ĠSing h
er ness
pr ising
Ġqual ifying
Ġdu ct
ĠBry an
Ġharass ment
Ġank le
- <
v d
st ud
Ġn ost
ĠB eng
ud a
Ġcare g
reg ular
Ġworry ing
Ġblogg ers
Ġin box
ĠH app
ĠL oss
Ġcl uster
Ġadvis ory
ĠPortug al
S ec
n ings
u h
v ine
Ġs atur
Ġwr ist
Ġcompet itions
Ġprem iere
ĠMem ory
ĠBas ically
Ġdent ist
Ġb iz
Ġn ude
Ġad oles
Ġhand made
Ġcor rection
Ġvolunt ary
Ġh ott
Ġu mb
ĠM aj
ĠR uth
Ġv ag
Ġdes irable
Ġstr anger
ĠEn h
AN CE
ĠSam uel
ĠTurn er
m ons
if i
ĠCh ile
ĠRe uters
Ġright eous
Ġsound ed
ett es
Ġgreen house
Ġl ou
ĠCh at
Ġsc roll
Ġspec ify
Ġsched uling
Ġprompt ly
W here
ĠA CT
ĠC urt
ix on
ĠPh ase
ĠCol omb
ĠAm sterdam
Ġbenef ic
ĠTri ple
Ġmand ate
Ar t
Ġalign ment
Ġ Ø
ĠS hip
Ġapp les
ade qu
Ġbl own
ank ed
ĠIs s
Ġsal mon
ĠGu arant
ĠEm ployment
Ġimpl ant
Ġrecy cled
Ù İ
ĠF ri
Ġch ron
Ġtra pped
ĠCap itol
Ġupgr aded
Ġincent ive
G od
re he
Ġp ipes
il ateral
ĠR B
Ġlike lihood
ĠCh ance
Ġcar p
Ġtax payers
Ġconsid ers
ĠId aho
Ġvoc als
Ġattrib uted
Ġrecre ation
art en
ĠK ell
Ġunder m
Ġcompet ent
Ġrepl ica
Ġcoll ar
Ġcream y
Ġsan ct
Ġrow s
Ġanalys es
Ġmet res
ĠEx pect
Ġqual ifications
ĠLinked In
E P
al ph
Ġl azy
ĠC ultural
ke ep
Ġapp ra
Ġorgan ised
Ġshare holders
Ġexcept ions
ica id
Ġcolle ague
Ġesc al
ĠBob by
Ġsoci eties
ĠC u
art ered
iv ia
av ior
Ġconsult ants
Ð »
Ġr het
Ġnever theless
Ġdr illing
ĠSu z
ĠSk ills
Ġmit ig
at ories
Ġl od
ol ving
ir k
Ġr ul
av an
Ġpast or
Ġsent enced
ĠMon ster
ĠPost s
fl amm
Ġded uct
Ġregul ated
hand ed
re qu
re ne
ĠD ale
ĠK ra
ĠMil waukee
c hen
Ġm um
ĠK l
Ġev angel
Ġ7 3
chn ology
Ġmod ifications
Ġ8 3
ĠLe o
Ġapplic ant
ĠFl at
ĠSpe aker
Ġillustr ated
Ġgam ers
fr ame
Ġthresh old
c lock
o i
ĠT ow
ĠTe achers
Ġval ve
Ġhor r
Ġharm on
Ġlength y
ĠWild life
Ġmuseum s
ĠLO VE
) ?
F O
Ġs ou
Ġsh red
Ġal tered
are tt
Ġanaly zed
Ġpool s
Ġdiagn ostic
ĠVin cent
osit ory
Ġhilar ious
J an
l asting
s ky
Ġl akes
Ġpro st
ul ates
ob ic
Ġpr one
Ġmar athon
Ġattack ing
Ġstick ing
ĠRout e
M D
Ġc el
Ġn inth
Ġrel ates
any on
ĠBut ler
Ġgl uc
ĠBr anch
200 5
Ġteen ager
Ġprison ers
ĠWi Fi
y r
ĠW ide
pl an
Ġtr illion
Ġsw itched
ĠAnsw er
Ġc oding
be cause
Ġgl am
Ġresearch ing
Ġmethod ology
ĠðŁ ĺ
ĠCateg ory
n on
Ġf iring
ĠM end
Ġsu ck
Ġinc on
ull ivan
Ġph osph
ĠEx erc
Ġclear ance
Ġrelax ation
ĠMount ains
Cl ick
ĠMove ment
Ġw re
Ġb ang
om ous
Ġcan ce
ĠK il
ah l
Ġmet als
ĠPol ish
Ġtour ing
Ġsil k
gi ene
ĠKind le
er b
as a
fe ld
Ġqu eries
Ġsp ins
Ġsy rup
alth ough
omet own
Ġfound ations
Ġaut ism
Ġende av
re ation
Ġo ste
Ġn ons
ain ted
ĠCh ron
Ġimp air
Ġ9 4
ĠEx cept
Ġmis con
bur se
Ġre he
ro ts
Ġar ising
Ġ19 40
be it
Ġpass ive
AR S
Ġappe als
ĠMo z
D ER
d ess
er ie
im en
Ġst atic
Ġor gans
Ġj ournals
Ġout rage
ĠK r
Ġass ass
Ġupd ating
ĠStat us
Ġslic es
Ġbrut al
Ġs ights
Ġb ark
av ailable
ĠIntern al
Ġtur key
Ġnom ination
ul u
Ġv ague
ĠO P
Ġpo et
Ġfl oral
IS S
AC H
ĠJ O
Ġcont ra
Ġins isted
Ġlast ed
Ġ8 6
Ġcr icket
Ġcr usher
Ġtrad es
Ġneg lect
Ġfair y
Ġdoub led
Ġsam pling
ĠSol id
ĠFood s
ĠCP U
Ġreserv ations
ro le
Ġr ider
ĠO m
20 20
na pped
Ġdep ri
Ġgrand father
D r
o T
ol ve
Ġch ore
ĠIn v
Ġdis par
Ġam ple
ah n
Ġmet ap
ploy ed
Ġcr unch
Ġdi ver
ĠMont gomery
Ġaffili ated
L R
p df
or ig
Ġf ierce
Ġl b
ĠD ownt
ment ioned
ĠL CD
ud ge
so ever
ĠWe e
Ġun ity
Ġdefect s
Ġcosm etic
Ġwe ights
Ġbelie ving
che t
Ġfire place
Ġver ification
ĠUnder standing
Ġmechan ics
ĠBrazil ian
char ged
Ġc rap
ĠSh ar
Ġcreat ure
Ġtrad ers
Ġpred omin
Ġward robe
ĠHoll and
b ad
Ġn asty
ĠG ent
ren cies
Ġteam mates
Ġlive ly
Ġfoss il
c ra
Ġf oul
ĠHe ights
ov ing
Ġsevere ly
Ġs iblings
et al
ke ley
ast ically
ĠNe braska
ĠRes erved
go vern
Ġcabin ets
Ġrac ist
ĠFant asy
l ining
out ing
ĠAs ide
ph ant
Ġins ulation
Ġexpect ation
Ġjud icial
Ġenthusi asts
c ourse
Ġp iv
st all
Ġg reens
ĠB ake
Ġ9 3
Ġ12 5
Ġgl ow
Ġgl orious
ĠHol mes
ĠJul ia
ĠPriv acy
H P
un ny
Ġz oom
Ġblood y
Ġcelebr ities
Ġlic enses
Ġcateg or
point s
ĠIraq i
ÃŃ s
ogen ic
ĠPhill ips
ĠFurn iture
A pr
P er
Ù Ħ
Ġm ant
ĠC amb
Ġv ivid
ĠU g
Ġfl ed
Ġinter fe
ĠIs sue
Ġclass ification
Ġgl imp
Ġdam aging
Ġtal es
Ġcivil ian
Ġdiscover ing
Ġgard ening
Ġhel met
B ack
Ġc ort
Ġun con
less ness
Ġlim itation
Ġsun set
Ġglimp se
B est
Ġm esh
ĠP un
ĠW ILL
ĠL ength
Ġal mond
Ġen rich
ĠV el
Ġco zy
Ġaccess ing
Ġenhance ment
or b
ĠB ald
Ġover ly
ĠOr chestra
Ġfix ing
Ġenthusi astic
ĠArgent ina
as ma
Ġas p
ard i
ĠIn g
ĠK ap
Ġcol umns
Ġconsider ations
Ġinstall ations
Ġinsp ir
ĠCO MP
list ed
P art
a ud
Ġo v
Ġm ate
Ġm all
ĠV R
ĠCh uck
ĠMot ors
ĠProv ide
Ġmel ted
Ġdisappoint ing
d el
ĠP ump
ĠIn j
ID E
Ġadminist ered
Ġ197 8
Ġdemand ed
Ġ196 8
Ġrib bon
im b
ĠF E
Ġfe ather
ĠPl aza
Ġinf in
Ġnon etheless
ĠFl ight
Ġsex ually
Ġfat ty
Ġenroll ment
d iv
at able
Ġst ro
Ġ7 9
Ġmach inery
ĠPlan et
Ġbact er
Ġrelie ve
k h
l ayer
Ġt ones
it us
se en
ĠD raft
ip ing
ĠSt ir
Ġpe anut
ĠIm per
ĠBarn es
E G
he y
ĠS ame
ĠB rent
ĠD ire
Ġle ap
ĠSh akespeare
gg er
Ġcle aring
Ġkind ness
ĠCON T
Ġexplos ion
ĠTrad itional
on al
Ġl ime
ĠT ask
Ġst ove
Ġst urdy
ĠM AT
ĠE VER
all ic
Ġmod er
Ġflood ing
ĠEag le
ĠMed icaid
Ġeconom ies
Ġz omb
ĠRead er
Ġrob ots
Ġunf old
Ġcancell ed
Ġprox imity
ĠS id
Ġnot ably
Ġcent ered
Ġcr ude
ĠHis pan
ĠBelg ium
ac ies
Ġreal ised
ett a
ĠHill ary
Ġcontem pl
ĠDun can
ĠAnaly tics
M ENT
l ord
as ers
ĠT W
se min
ĠH erm
Ġint ric
Ġoff shore
Ġdef ining
ĠChe ap
Ġ* **
Ġbill ions
Ġcrowd ed
Ġlun gs
O K
O ct
Ġc ough
am ous
Ġcount ed
ann ers
ĠBr ig
ĠProf ile
ĠSho pping
Ġdele ted
ĠL iber
Ġab normal
Ġbr ass
Ġplan es
Ġlink ing
Ġliter acy
ĠCand id
Ġhoriz ontal
ĠScient ific
w idth
al one
ĠNew ton
Ġorig ins
ĠFin n
Ġpositive ly
Ġiniti ated
Ġprop he
Ġgau ge
Ġearthqu ake
ĠA ub
ĠN ord
Ġpl ag
Ġthought ful
Ġener getic
Ġemb od
Ġprevent ed
.' '
Ġdoct rine
Ġc ables
as is
ĠA x
em or
ust ed
Ġ8 7
Ġbuild er
ĠZ en
ĠAssoci ates
ĠOut side
Ġassemb led
P res
f ocus
i aries
Ġt an
ĠT ot
Ġg oogle
ri en
Ġcomp ression
Ġar thritis
Ġpill ow
ĠKat ie
Ġtradem arks
Ġwe ed
ĠR eds
ab a
Ġuse less
Ġcur iosity
Ġactiv ation
ĠKeep ing
health y
m id
p rom
an or
ad der
ĠThe ory
ĠH ait
and y
ib les
Ġqu ilt
ĠSh ore
Ġref ined
Ġel astic
Ġactiv ate
Ġsens es
Ġ197 2
Ġinform al
Ġremain der
I Z
U K
ĠF ROM
Ġcons piracy
ĠAn a
Ġpay roll
ĠMan ual
ĠCo x
Ġparent ing
Ġtables poon
Ġscholars hips
ĠExcell ence
ĠBB Q
Ġpup ils
! ),
ve lope
ĠC elt
ĠC anyon
Ġfore x
Ġ197 6
Ġspot light
Ġseam less
ivest ock
- )
m ia
Ġthe at
ĠS outheast
ĠM ull
Ġwe ld
ĠR aw
out ube
ĠIn come
Ġam azed
ee k
de gree
ĠWW E
Ġwe aken
ĠY esterday
ĠCh an
ĠSh aw
ĠPl ans
Ġhead line
Ġthread s
Ġpharm aceutical
anth rop
ĠMarc us
ĠAdvent ure
Ġb ent
ĠP arent
Ġcomp ress
Ġev ac
Ġassist ing
Ġimag ery
ĠPack age
Ġp umps
ĠG DP
Ġso cially
Ġfight ers
Ġemb ark
Ġfra g
ĠSum mary
ĠTest ing
ĠFact ory
Ġs her
Ġs lo
ĠF err
Ġint est
Ġeven ly
ĠDe gree
Ġmarket ers
Ġlearn ers
ĠMed ium
ĠAb ove
Ġbehavior al
Ġelig ibility
Ġhoriz on
Ġpitc her
ĠC inem
ĠM T
ĠWe re
Ġext ensions
Ġappropri ately
ugg age
Ġadm ire
Ġelabor ate
ĠCoordin ator
1 000
n ia
it ime
am bers
Ġv ou
Ġun belie
ĠRe be
Ġpost ers
Ġyoung est
Ġdang ers
ĠWH O
rep resent
V AC
s ay
Ġp H
ĠA IDS
ĠU I
ĠU b
Ġrec alled
ĠÂ ±
ĠTw in
ĠBro oks
ĠAc cept
yl on
ĠMer cedes
Ġtight ly
ĠP att
ĠF oster
op ed
ĠNo kia
ffic iency
ĠRes ear
Ġenjoy ment
Ġpolit ically
Ġrecogn ised
ĠPar ad
ĠLu cy
Ġdelight ful
Ġcongr at
l ings
ict ional
Ġlast s
Ġpol ished
ĠAt tend
200 4
Ġemb ro
Ġmid field
ĠCr iminal
Ġsequ el
Ġpun ct
Ġgall eries
ĠWalk ing
Ġpitch ing
T Y
Ġc av
ĠM AN
ip ed
Ġper f
Ġthere of
ĠWh ole
hes s
ĠLe af
Ġdef ines
ĠQ U
Ġsens ation
olute ly
Ġtim eline
ĠLuc as
A ug
f s
ĠV ik
Ġsp icy
Ġtra ff
Ġequ ation
St ation
Ġcat ast
Ġlock s
p ath
Ġn ick
im eter
ch anging
Ġst arring
ĠO H
gh ai
Ġcost umes
Ġbre eding
ĠNOT E
ĠArab ic
Ġsusp icious
Ġintrig uing
ĠTyp ically
Ġic ons
l ast
Ġm int
Ġl itter
Ġgo ver
Ġtr ay
Ġpo ems
Ġaccess ibility
de velop
ĠOp ening
Ġtheore tical
Ġaffe ction
Ġb illing
Ġd uck
ĠT ib
ĠR ud
ne e
Ġwhat soever
Ġinter section
Ġce ase
Ġpred e
Ġoptim istic
Ġalgorith ms
cure ment
bo at
ĠRod rig
Ġaband on
Ġtouchdown s
ĠUkrain ian
ĠP am
ĠN av
Ġunder way
Ġwater proof
ĠSouth west
Ġdry ing
Ġproud ly
hy d
Ġscream ing
ĠPurch ase
Ġf og
ĠM oses
ĠW ait
ĠH ook
ant i
Ġsm iling
ĠEd die
Ġdownload ing
Ġpers istent
Ġcat aly
sequ ently
ĠWhe never
Ġimpl ies
Ġdisp utes
ĠCarl os
ĠNut rition
N ET
f illed
ĠI l
Ġre novation
ch at
ĠD ent
Ġsh ar
Ġsc enery
ush i
ĠHug hes
Ġc ried
ĠB ot
ĠB rowse
th ood
it ated
Ġd rought
ĠM ut
ĠB anks
ĠH aven
ĠE at
ĠEduc ational
ĠRequ ire
OO K
ĠSad ly
H C
it ably
ĠP i
Ġch ic
act ic
Ġqu art
ĠNe igh
Ġcred entials
ĠPre vious
Ġbra ins
Ġdecl are
Ġt in
Ġc innamon
ar ians
Ġl oses
st ation
ĠD inner
ment ation
Ġun st
port ed
Ġplay ground
Ġimp rison
ik h
Ġstreng thening
Ġnegoti ate
Ġinsect s
ĠNAT O
he a
Ġto es
Ġin ability
Ġh ier
Ġ8 1
ĠMe chan
ĠMe asure
Ġred es
ĠSU V
Ġcompr ises
Y S
Ġl ace
ist ance
ĠK end
Ġshort age
Ġillustr ations
ĠHur ricane
Ġdign ity
f alls
m illion
ĠT B
our t
Ġsp oon
Ġshall ow
Ġbreast s
ĠEss ay
g ot
ĠC otton
Ġst air
ĠK ill
Ġautom obile
eal ous
ĠTown ship
Ġinstrument al
Ġlect ures
ĠPsych ology
D B
se arch
ĠD ol
ĠG y
Ġch rist
ĠSh ah
Ġoptim ize
A ny
Ġth igh
ĠR ush
Ġfilm ing
ĠJosh ua
ĠLyn n
ĠBirth day
z i
ĠT ommy
im ated
ĠP oor
Ġsol ved
Ġbit coin
ĠTra ffic
Ġdistingu ished
Ġdies el
b ane
o is
z one
ĠD IS
Ġsl iding
Ġsus cept
ĠLo an
Ġtort ure
f ox
l ap
Ġp ause
Ġst ub
Ġst rap
ĠH ood
ab e
ĠHe avy
Ġfl ies
Ġret ained
Ġopen ly
ĠZ ero
Ġhope ful
L ife
ĠW ag
Ġover see
Ġinv isible
Ġsal vation
Th ank
ĠHer o
ĠDel aware
Ġmetabol ism
ĠPret ty
c ond
k n
Ġf ighter
ĠS erve
Ġst eroids
ĠW ake
Ġcollabor ate
Ġdisappoint ment
Ġspin ning
Ġham mer
ĠAlbert a
f at
v ir
Ġin acc
Ġall iance
Ġprof ic
ĠTe en
ĠPl astic
ER Y
Ġste pping
ĠSec urities
ament o
Ġesc ort
Ġped iatric
ĠBrad ley
ĠCli ent
Ġrefrig erator
if iers
ĠD if
Ġse afood
ĠL ip
ĠL iz
Ġdisc rimin
Ġgr inding
Ġ9 11
Ġgener ator
Ġhon our
ĠFin land
Ġexpress ing
Ġfresh ly
Ġ197 3
Ġflu ct
umm ies
Ġvib e
O ver
z el
Ġa u
Ġsmall est
Ġdecor ative
Ġconcent rated
ĠIran ian
Ġsear ched
Ġaccred ited
Ġs ang
en h
Ġsh iny
um bs
Ġro de
Ġopp osing
Ġround ed
Ġreflect ing
ĠBer keley
Ġtub es
ĠAlp ha
Ġsla very
Ġair pl
ĠSte am
ĠMin or
Ġsho ppers
Ġharm ony
Ġwilling ness
Ġbelong ing
ĠDog s
ĠHistor ic
Ġaer ial
count ry
e enth
m ap
Ġin adequ
Ġl aughter
ĠM iles
ĠL G
ĠK an
Ġdefin itions
Ġbath rooms
Ġhook ed
Ġevol ve
ĠRoc he
fam ily
n is
Ġf ax
Ġan gel
Ġdet erior
Ġdr ums
Ġswe ep
Ġpull s
Ġer u
ĠTest ament
ĠCir cle
f an
ĠS or
ĠF erg
ĠN as
Ġkey word
Ġstuff ed
ĠFlo or
b ig
Ġw eddings
Ġf art
Ġin appropriate
Ġbe es
Ġpro pose
ul k
ag ging
pl ess
Ġinv ites
Ġacqu iring
Ġ196 7
col or
Ġsimpl icity
ĠHon or
F l
c ules
is ive
ĠB P
pe ople
ĠN HS
Ġup side
ĠUn iverse
Ġpal ette
Ġrend ered
f y
Ġse w
ould er
iv ated
ĠRe venue
cast le
Ġtwe ets
Ġfo il
Ġbench mark
Ġconvin cing
Ġhott est
J u
ĠM ode
ĠW alt
ĠL ed
ĠL odge
ĠK i
Ġtrans plant
ĠZ ach
Ġenvironment ally
Ġrock et
Ġrail way
ĠSud an
y on
Ġs id
ĠT all
te nder
Ġlong time
200 3
Ġri vals
O ut
Ġb apt
ĠW arrant
Ġv amp
amp agne
ĠChe ese
ĠMc L
Ġpaper work
Ġeval uating
Ġlib erty
whe el
st ru
Ġwe ars
ĠR C
ph is
Ġpract iced
uk i
ĠAsk ed
B u
p arents
id ering
ĠM illion
ĠB ears
ĠG RE
Ġsh adows
ĠRequ est
Ġbron ze
Ġbree ze
ĠFlore nce
G ener
ver ages
ĠN T
Ġass urance
Ġart if
Ġcreat ors
Ġgra vity
Ġder iv
ĠM akes
ĠP interest
load ed
Ġtre k
Ġanch or
Ġcommunic ating
Ġconstra ints
S D
ay ing
ĠC ort
se ud
ol er
ick er
aw ays
Ġ8 9
ash a
Ġstat ute
Ġast hma
imens ional
Ġunve iled
b oth
Ġo w
st own
Ġg own
Ġcl ue
Ġmon itors
ĠSp encer
ĠOper ating
ĠTele vision
Ġallerg ies
d et
Ġd are
om o
Ġbe an
ĠP ool
ĠG ear
we b
Ġprov es
Ġrel ies
ash i
Ġexc luded
Ġsequ ences
ĠExam ple
ĠArchitect ure
weg ian
Ġt read
ĠS ed
ĠD ust
Ġwork outs
ĠPear l
C omm
p g
t or
ry s
Ġactiv ated
bu ilt
ĠAdv oc
Ġrum ors
Ġles bian
ĠCitiz ens
d oc
d ict
Ġbe e
Ġdark er
Ġsusp ic
ĠRand y
Ġc age
le m
om on
ot ional
Ġsp ices
Ġ9 1
els h
Ġstory telling
Ġquestion ing
ĠPart s
ĠSpe c
ĠCa fe
Bl ack
Ġd awn
Ġth ou
ĠY or
Ġind o
Ġmark ers
Ġpat ches
Ġmic rowave
Ġp ier
ĠB rist
ĠP erm
ĠW arm
Ġvis ually
Ġinter ference
Ġpos es
ĠSc ore
Ġhands ome
Ġacceler ate
Ġcul min
Ġm atur
Ġpres erved
... ]
Ġtrans mit
Ġcomfort ably
ĠArt icles
ĠSl ow
ĠWrit er
ĠNob ody
b ial
ĠT S
Ġsa iling
Ġsur pass
Ġposition ing
IG H
Ġflav our
ĠMot ion
Ġremote ly
Ġfulf illing
ĠChampions hips
l ift
Ġt v
ĠS ounds
ay ed
Ġstr ings
Ġste ak
Ġver bal
Ġprotocol s
Ġa pt
Ġb ounce
ĠS ierra
head s
Ã© e
Ġ197 7
ĠB T
ĠG em
ĠE L
Ġce ment
ili ence
ĠDen mark
Ġlabel ed
Ġdesper ately
Ġlone ly
ĠCoal ition
ĠM LS
ĠB less
ĠF ans
Ġsh ifted
Ġback pack
Ġchar itable
ĠAr senal
Ġdeterm ines
ĠAud i
Ġcoordin ate
Ġdistur bing
C OM
N ote
Ġw ounds
is al
Ġto x
ĠM ills
um an
Ġtrans mitted
Ġopt ed
ĠBr id
Ġfavor able
ĠGar cia
aret te
ĠPartners hip
Ġcompos er
ĠâĨ Ĵ
Ġprede cess
E l
f ull
Ġp ix
ĠR oot
ĠR ico
Ġstr angers
Ġair lines
X T
Ġd well
Ġnot ices
Ġbet ray
ect or
Ġcr ushing
ĠZ oo
ĠSte phan
ĠHar per
intend ent
ĠNich olas
Ġa meric
th al
ĠK os
ĠRe pe
Ġtra ct
Ġsec uring
Ġob esity
Ġabs urd
Ġur ine
Ġhistor ically
Ġrecip ients
ĠLaure n
Ġcardi ovascular
Ġd rown
ab ase
Ġsp ont
Ġbus h
Ġread ings
Ġfore most
Ġexhaust ed
Ġcarb ohy
n ames
ĠC arn
ĠB ent
um en
Ġpre jud
Ġbet s
Ġbl u
Ġexp ose
Ġoper a
Ġhuman itarian
ĠMc M
Ġwar mer
ĠJo el
Ġtun es
M ost
c ano
e ur
Ġb ru
et ric
im ming
ĠB attery
ĠN avig
op l
Ġpl ed
Ġfe eds
Ġpar ish
Ġcontrib utes
Ġsuspect s
Ġdistingu ish
M arch
Ġm i
Ġn our
Ġg y
ĠL P
res a
ĠK urt
ĠV ideos
ph p
Ġtri o
Ġcompet itor
Ġrecogn izes
Ġcapt uring
ĠFA Q
gener ation
ens on
Ġback drop
ĠMar x
Ġfoot print
Ġhom osex
Ġunc ons
Ġban ner
Ġvacc ines
Ġanticip ate
Ġmargin al
he astern
Ġm im
ĠS ister
ĠS ites
Ġst ance
ĠB ak
ĠU T
Ġun for
ĠSe ek
Ġac ne
Ġrecogn ise
Ġsurpr ises
Ġregul ate
Ġterror ists
Ġsucceed ed
ĠWorks hop
Ġcoup ons
ĠAltern atively
Ġp ir
Ġp inch
Ġm asters
ĠA U
ĠL ore
Ġwas ted
erm at
We b
Ġsle ek
Ġsand wic
Ġille g
ĠParticip ants
Ġhed ge
M art
ĠEx cel
Ġdem ographic
ĠSpr int
ĠIce land
ĠPolit ics
Ġbrid ges
Ġa ston
Ġl ymph
Ġim pe
Ġspend s
Ġintrodu ces
ĠGener ation
Ġcivil ians
Ġcommission ed
aun ting
a ul
p ayer
Ð º
on o
ĠC ock
ĠF unction
ac cept
Ġsc am
amp oo
Ġtest osterone
ĠDo ing
OR S
Ġcrit ically
Ġaccommod ations
on ents
il ant
ĠD rew
Ġbro kers
Ġmar vel
ĠChe v
Ġpred iction
ĠIndian apolis
ĠDisc ount
Ġv oid
Ġsh rimp
Ġal umni
Ġint act
Ġins u
ON G
Ġey el
Ġten ure
Ġshock ing
Ġbound ary
Ġsemin ar
ĠDownt own
ĠC row
Ġv ic
Ġres cu
Ġph ases
Ġdi agram
Ġmass es
Ġ197 5
Ġdecl aration
ĠSpecial ist
ĠTru ck
ĠAssist ance
ĠBa iley
ol ia
ĠN an
ven ile
Ġlif elong
ĠEffect s
heart ed
Ġl ol
Ġse lections
Ġfurn ish
ĠSat an
Ġsh aft
rib ly
Ġop ener
Ġdist urb
Ġdr one
ĠNot re
Ġdipl om
arett es
ĠD ru
ĠE arn
Ġsc ra
Ġris es
Ġstat utory
Ġ197 4
Ġencourage ment
ĠWall ace
Ġundert ake
Ġru in
dog s
ĠGh ana
a is
al an
Ġy a
ĠC el
ĠW ays
ĠH ob
lo e
ĠSh aron
Ġdisc ontin
app le
ourn aments
Ġforg ive
Ġupload ed
ĠBloom berg
Ġgover ning
X X
c ape
re ctions
ir i
Ġr am
Ġind igenous
Ġresp iratory
Ġpot ent
ĠTw enty
ĠBu yer
Ġtur b
loc ity
Ġtatt oo
Ġe Bay
ĠA ra
ĠP av
ĠV illa
ĠHe ather
ĠVP N
Ġmathem atics
role um
H ome
p ublic
Ġb achelor
Ġbe verage
Ġcl ause
Ġsc rub
Ġstart ups
ĠPro ced
Ġpriv ately
Ġarch ae
ĠGl enn
ĠProgram me
Ġspr ink
Ġe ld
lo ve
Ġsol ic
Ġrest ing
Ġmir acle
ĠOper ation
Ġabund ant
c ur
y les
Ġp ars
Ġwh olesale
ĠSt reng
Ġyear ly
Ġcar n
Ġhalf way
Ġforg iveness
Ġcancell ation
ĠML B
Ġutter ly
l iter
ic one
ĠA K
ad ata
ĠD awn
ul atory
Ġdis ciples
Ġwell being
Ġreason ing
Ġcand le
Ġaccident ally
Ġuns ure
ĠCla ire
Ġrou lette
M us
ĠP aint
ĠK az
Ġdon or
Ġmin s
sh irts
IG N
Ġaccompany ing
Ġmush rooms
en ch
Ġp ou
ĠS olution
Ġst aring
ĠF itz
Ġadd itions
ĠAll ah
âĢ¦ ..
ĠGr am
Ġexpress ions
Ġmer cy
Ġrenew al
Ġnit rogen
f ar
id i
ues e
yl an
ĠMain tenance
Ġmonit ored
Ġstim ulate
Ġillness es
F I
O ff
Ġl i
ot ics
ĠH our
Ġor n
Ġse as
Ġacc us
Ġdown s
Ġfree zing
Ġreal izing
Ġswe lling
ris k
Ġanaly zing
Ġargu ing
atern al
Ġcush ion
in se
al ine
ĠC I
ĠV lad
ĠSh ield
Ġpos ed
Ġpersonal ities
Ġsun shine
gl ass
Ġextensive ly
Ġundert aken
ĠBul gar
oca ust
ĠAlf red
f ood
Ġc ared
Ġf oll
ĠS AP
ĠC AR
ĠF IN
op edia
Ġsp y
Ġsp inal
Ġsystem atic
Ġcor rid
EN TS
Ġtransport ed
ĠNor wegian
Ġtack les
ĠEll en
cop ic
K e
Ġa fore
ĠB in
ne apolis
Ġper ipher
ount ain
Ġacc laimed
Ġhead er
ĠCont emporary
Ġdiscon nect
W ill
b ag
in burgh
Ġg rap
ĠP our
ĠF irm
ĠIn nov
Ġher bal
ĠRe yn
Ġprov ing
Ġcra cks
Ġimpl ied
ĠBi ology
Ġc ass
ĠC ob
us on
ĠBe er
Ġspec ulation
bl ack
ĠWH AT
ĠOw en
abul ary
F P
h ang
r h
Ġw iring
ĠC raw
Ġcontin ent
AT ED
rop ract
Ġcred ibility
ĠMc D
ux e
Ġcitizens hip
ĠKnow ing
Ġstretch ing
Ġencount ers
re nder
Ġu l
ĠD aw
ĠWe nd
ĠSh adow
ell ar
Ġbreak through
Ġsuper visor
s hips
Ġa ids
Ġc ottage
th s
ac cess
Ġeven ings
Ġsim ulation
Ġexam ining
Ġmil estone
ĠQu inn
Ġbud dy
Ġclin ics
Ġyog urt
F eb
Ġimp ose
Ġant ique
Ġfather s
p ark
ĠM ak
lo ys
Ġstart ers
Ġcred ited
Ġinflu en
ĠMem phis
Ġrefer ral
Ġ196 9
ĠGM T
ĠDim ensions
Ġfreel ance
ĠA chie
ĠC emetery
te am
Ġno ble
Ġmom s
amb oo
Ġstorm s
Ġconvenient ly
ĠUlt imately
ĠMembers hip
Ġarbit ration
ĠSER V
ĠShan ghai
Ġh ated
as i
io let
Ġdial og
ĠAppro x
Ġpor ch
ĠHind u
fight ers
3 50
f u
Ġre lying
ĠC IA
so cial
ign ment
Ġsc oop
Ġsec ular
Ġinter im
Ġhum idity
str ate
well ery
ĠVictor ian
ĠED T
Ġw ished
ĠL ights
Ġsc attered
ĠRe ference
ĠDis covery
ĠHun ting
Ġinequ ality
Ġh ometown
ĠR iley
ri ages
Ġworth while
ĠMil an
ĠWal mart
Ġsad ly
ĠCert ification
ras ound
Ġcater ing
ĠBenn ett
L ink
O f
ĠAust ria
Ġhighlight ing
Ġcrew s
Ġslee ves
ĠRepresent ative
Ġbiz arre
Ġmar ble
ĠAny thing
Ġaim ing
Ġdoub les
ĠRon ald
Ġw ishing
im ination
ĠL iqu
urn ed
Ġut ilities
ĠVis itors
log ical
ĠCommon wealth
m ain
p ad
s ki
ĠC op
ĠR EL
ĠE RA
ĠU l
Ġcomm ander
Ġdist ress
Ġrele vance
ĠHar vey
ĠJes se
ĠDesign er
Ġexhib its
Ġlad der
Ġdiscl osed
ĠNic ole
ĠNorm an
bus iness
Ġancest ors
h is
at hetic
Ġn ort
ch y
ĠO pp
ĠRe form
Ġind ie
Ġfin als
Ġpur s
Ġhead phones
Ġmar gins
Ġill ustration
pre m
ĠOut look
Ġmist aken
Ġmerch ant
Ġpul se
ĠVar ious
C are
W H
ĠM ist
ĠN am
Ġnot ifications
ĠTh an
Ġdom ains
Ġma pping
Ġstir ring
roduct ive
Ġoun ces
Ġbe nd
am ation
ĠF old
us ions
ĠG S
ine es
Ġro asted
olog ic
OS S
Ġexception ally
Ġprosper ity
W est
h l
Ġd iox
ĠZ ion
ĠApp s
EN S
ĠOF F
Ġoverlook ed
A G
or o
Ġb ou
Ġl uc
ĠG E
ord able
Ġmon ument
Ġcapt ures
Ġten ants
Ġesc orts
Ġtim ber
Ġadvertise ments
ĠIss ues
O G
Ġ q
Ġm uff
Ġd orm
âĢ ¢
ĠL it
ack ed
Ġcont ing
Ġdes cend
Ġac oustic
ĠFound ed
Ġillustr ate
Ġdiam onds
ĠExam ples
Ġremed ies
c ertain
Ġl anes
ge nder
op athy
Ġen light
Ġsupp ress
Ġdeb ates
ĠBeh ind
Ġcounterpart s
Ġbalcon y
1 10
Ġst ems
ĠH OW
Ġbl owing
ĠFor ces
Ġend ors
Ġmed ieval
Ġca ffe
Ġdev il
Ġgra ins
ĠMon itor
board ing
Ġnotice able
Ġmer it
Re g
ĠFem ale
Ġ Ù
ĠS aw
ĠW ear
Ġwh ites
th ree
Ġen vision
ĠK on
og ram
Ġsp ill
ank ing
ĠDec or
Ġshut tle
Ġimper ative
Ġpic nic
Ġinhabit ants
Ġl ing
ro ads
her ic
Ġsal aries
Ġcontact ing
AR Y
ĠPut in
Ġspokes person
ĠKar l
Ġyield s
Ġantib iotics
Ġsquee ze
A ut
C ent
L a
i ological
ĠT icket
Ġab oard
Ġfin ale
Ġmark ing
ĠLe gend
Ġfree zer
Ġdem ol
ĠCo hen
ĠCar bon
Ġaccept s
Ġprotest ers
Ġdrag on
m ath
v oc
is se
pl aces
Ġtw itter
Ġadd ict
Ġnow adays
ĠSte in
Ġquarter ly
ĠPay Pal
Ġcul inary
Ġl uggage
ĠB U
ĠH VAC
um ar
ĠV enez
ĠCh apel
St ate
Ġoptim ized
ĠTour ism
Ġtrig gered
Ġwarn ings
Ġallerg ic
g ow
Ġse iz
ĠO UT
Ġhard wood
ĠInt o
Ġ36 5
Ġvacc ination
Ġamend ed
Ġrecover ing
B ig
N G
ĠC ord
ub a
Ġ4 50
Ġsens ible
Ġsecure ly
Ġassum ption
ĠMat hem
Ġpit ched
A ct
f lo
it ives
le an
Ġcom merce
ish a
Ġrequest ing
Ġmis under
Ġkn it
Ġclim bed
Ġscan ning
ĠBern ard
ad ers
ad os
ĠB our
ood les
Ġpress ures
ĠMin neapolis
ĠProject s
Ġsupposed ly
Ġtherap ies
perform ance
Ġcere mon
c ity
g rand
Ġf res
ind a
ood le
Ġtr an
ĠTr inity
Ġsal on
Ġsafe guard
ĠBel le
asp berry
ĠNear ly
i encies
m em
Ġc od
Ġform ally
Ġdig ging
c ro
Ġh ints
ĠAd rian
AT A
e very
s im
ĠP izza
Ġsh ook
Ġinc oming
Ġco ated
Ġsm iles
Ġins ured
ĠBr ady
Ġmess y
Ġgen res
person al
Ġinquir ies
rat ulations
Ġex empl
ĠY am
Ġobs essed
Ġprot agon
Ġmagn et
ĠMort gage
ĠNurs ing
m anship
Ġn erves
am o
ĠN ine
reat h
ĠSo ci
Ġmark er
ĠCont est
Ġspin ach
ĠMess age
ĠPatri ots
insp ired
ĠStu art
ĠS ullivan
ĠC ubs
ĠW ang
Ġcomp ost
Ġinv ented
Ġbra ke
Ġrent ing
ĠAnge la
v or
Ġc ens
Ġbe verages
Ġk ay
Ġfin es
Ġmon sters
Ġmen us
Ġri p
ĠGlo be
erg arten
Ġvulner ability
ĠOwn er
ĠGil bert
ĠVeh icle
Î ±
Ġb is
ĠG ross
âĢĿ ).
ĠCh anges
Ġdes ce
ĠSp ark
Ġpar as
ĠDay ton
ĠMor occ
udd en
Ġkick ing
Ġincorpor ating
Ġmole cules
ĠBrist ol
r ays
s ource
Ġh ips
Ġcomp osite
ĠTr ading
Ġdiv isions
Ġsubsid iary
ĠSym phony
Ġsever ity
d ra
Ġc iting
se ys
ĠM ol
ud er
Ġen velope
Ġnew born
Ġmod ification
Ġpat rol
ĠNo ah
Ġcountry side
che m
ĠEd inburgh
inc eton
Ġcat ches
Ġreput able
Ġencry ption
Ġthem ed
ĠSec ure
dom inal
ĠOl ive
ĠPrin cipal
ĠCru ise
Ġrig orous
ĠLeban on
Apr il
J une
l adesh
Ġ ip
ĠY ale
ric a
Ġnight mare
ern ame
ĠAct ivities
Ġdecor ating
Ab out
Ġreim burse
) )
o ffic
à ¦
ĠS B
ĠP om
ĠR oth
Ġcom bo
ĠL ucky
ĠN athan
ĠHe ath
lic t
ĠCom plex
Ġcollect ively
Ġnote book
Ġblock chain
Ġg ates
Ġg ifted
Ġit iner
Ġex cerpt
Ġch asing
Ġproblem atic
ĠEl se
Ġcontrib utor
ĠSer iously
ĠVis a
Ġexhib itions
ĠON LY
ĠColl abor
ĠMethod s
ĠAmb assador
ĠStrateg ic
ur st
Ġor che
ĠG ates
Ġal igned
Ġpe ek
ĠWh ilst
ob i
Ġgot ta
Ġmight y
tt i
Ġjud ged
Ġdoub ts
ĠFound er
b ot
Ġw ires
ar is
Ġst oring
ĠM orm
Ġcont ests
ress ive
Ġhere in
Ġpres ervation
Ġpol ish
Ġsub missions
Ġdet ox
ĠGood s
Ġrent als
iling ual
Ġsty ling
ĠNov a
Ġhel m
Se pt
in flamm
ĠA Z
ig a
Ġhe ights
Ġrest art
pro v
Ġannoun cing
Ġhy giene
ĠEl ite
Ġpath way
Ġcolon ial
arat us
c ill
e or
Ġ vel
or por
ĠS ession
ig m
ĠR edd
ĠJ ourney
Ġj ealous
amp ed
Ġinter ven
Ġpack aged
ai ro
Ġvari ant
ĠRock y
Ġhonest y
ĠEconom y
pher d
Ġst ab
Ġcomm emor
ĠSh a
Ġpost p
ik o
Ġcommit tees
ĠRec ogn
ĠHot els
ĠResp ond
ĠBeh avior
Ġbund le
ĠScholars hip
c orn
p it
re x
Ġd in
ĠM BA
ĠW ing
ĠD ump
ĠN ad
Ġspecial ize
Ġseason ed
ĠDar win
Ġaccomplish ments
Ġrender ing
Ġw icked
ĠP ir
ĠF uel
ĠR ib
ĠR BI
ile mm
ĠAd vant
ĠMay a
Ġdefin itive
ĠPlay Station
Ġstick y
ĠPublic ation
ĠPhil osoph
ĠFam ilies
Ġabsor bed
ĠRebe cca
ĠB ros
ĠW ade
ĠK erry
ĠIt ems
Ġsc ales
Ġrem inis
ĠCon duct
uck land
Ġair ports
ĠFl u
Ġdeb ts
ĠGl as
Ġdemonstr ating
ĠBre ast
Ġlapt ops
ĠCase y
Ġgluc ose
r ina
Ġo we
il let
est ly
Ġsh aking
ĠV ine
Ġind ia
ĠTra vis
Ġrisk y
Ġcollect or
Ġrev ision
ĠImper ial
s ign
Ã ł
ro d
ĠC G
ĠN y
Ġdi ets
ĠRep lace
Ġbal ancing
Ġmis er
het ics
Ġprem ise
ht aking
II I
bro ok
Ġweakness es
Ġvegg ies
r ings
s qu
at omy
il ia
ĠD B
ment ia
Ġex h
Ġad here
ven ant
Ġun cover
Ġtext ures
head ed
Ġflo at
Ġdefe nder
Ġqual ification
Ġregul ators
Ġment ions
Ġbully ing
. <
at ches
Ġl oos
ĠM G
Ġun le
Ġfl ags
ĠSh ir
ĠRes cue
dis ciplinary
Ġinsert ed
Ġovers ight
Ġuncons cious
er d
Ġb oun
ll or
ent ry
Ġne p
ĠLast ly
ĠCab inet
ĠCher ry
Ġcongress ional
/ <
M AN
V R
Ġ 000
Ġre jection
Ġan onym
ĠD AY
ĠRe agan
att ed
ĠDes ert
yl um
Ġlength s
Ġadvis ors
Ġconcentr ations
Ġbom bs
O k
Ġm ol
Ġpro state
ĠSt ick
ĠDe cl
ĠDian e
s ens
Ġa in
Ġp estic
Ġth o
Ġl ion
Ġbe ers
Ġgr ind
ĠPl ug
Ġanaly tical
Ġveget arian
Ġattrib ute
Ġbarg ain
e lection
Ġf ixtures
ĠM aur
Ġhe mp
Ġpe el
ĠDe rek
arn ish
Ġexam ines
ĠMe g
Ġdest ructive
Ġesc aped
ĠDri ving
Ġlandsc apes
ĠMid west
alg ia
ĠQueens land
Ġcrimin als
á ¹
Ġhe el
ĠThe rm
ĠF ear
ĠF ail
ab el
Ġpre cip
Ġfl ame
ĠMar tha
Ġsw ap
Ġcheap est
ĠImport ant
Ġt ournaments
Ġg aze
Ġse ized
ĠJ et
Ġpass port
Ġdep ressed
Ġlack s
Ġâ ĸ
Ġir rig
Ġvir gin
Ġfle e
ĠPortug uese
Ġcer amic
Ġdos age
c ook
Ġl ivestock
ĠH amm
ĠD H
ĠR ug
ĠR alph
Ġpat ron
ĠZ oom
Ġprofess ors
Ġswe eping
Ġassess ing
Ġtransform ing
Ġcalcul ations
Ġrandom ly
Ġhorm ones
T op
ĠS ue
ig ent
il ion
Ġha ul
ĠF Y
ĠN W
ĠY u
cess ion
ener ation
Ġinf ants
Ġ197 1
Ġâ Ļ
Ġforth coming
ĠEth iop
Ġrefe ren
ĠAndre a
Ġdeliber ately
ĠIsa ac
V I
h all
Ġto ast
Ġwho ever
Ġdis semin
Ġident ifies
ĠGu ests
ĠMart ine
Ġpray ing
Ġteach ings
Ġtow els
Ġcompat ibility
ĠEmploy ees
is fact
ĠB ir
ĠD ual
ĠD ash
Ġle nd
Ġgener ates
let ters
ĠRem ote
Ġadvance ment
Ġmur dered
O b
e als
t est
Ġp ins
al ogue
ĠG aming
Ġunique ly
Ġrout ines
Ġbroad band
ĠThank fully
G en
e ment
Ġt am
ĠM N
ĠE lder
ov ed
Ġchar ities
ĠShe ll
Ġsw itches
Ġfore front
Ġgrad uating
sp ace
Ġdecor ations
Ġpra ised
Ġresid ency
ĠRepresent atives
ud ed
au er
Ġimpro per
IS H
ĠAdd ing
ĠRec ruit
ĠMil k
Ġtact ical
Ġski ing
ĠClear ly
Ġadmin ister
Ġlear nt
ĠWee kend
ĠResear chers
B L
S ince
w orm
ĠP ill
Ġar row
Ġshoot er
ĠElect rical
ĠSand ers
Ġpron ounced
ĠB end
Ġstud ios
Ġbl onde
Ġbr ides
ĠEx c
uff s
Ġvot er
ĠTim othy
Ġsyn c
PD ATE
Ġsemin ars
resist ant
g ro
Ġt bsp
ed uc
ave nder
Ġmet ro
Ġca fe
Ġrese ar
ĠOr ders
Ġsle pt
Ġlog s
ĠAnn ie
ĠMcC ain
ĠVer izon
Ġber ries
Ġmembr ane
ĠSacr amento
Ġth under
Ġhe ter
Ġan ime
ĠR SS
ĠL amb
ĠN ag
ĠN ike
um at
Ġx xx
Ġwall paper
Ġcup c
Ġâ Ĺ
ĠCharl eston
Ġaver aged
ĠScript ure
Ġjer sey
Ġfragr ance
ĠVenez uel
C AR
E ven
H igh
b ast
Ġw ipe
Ġf ost
as se
ĠC isco
ur ally
ĠR oof
red ict
ĠK in
Ġper sec
ang a
we lling
Ġbu cks
Ġins ult
Ġsubst it
Ġpursu ant
Ġflag ship
Ġfu els
Ġfrag ile
c ert
le vant
ĠI gn
ĠC rew
ĠR ide
ĠE co
our met
Ġwork flow
ĠAr ri
Ġperform er
ĠMe gan
tend ed
ĠX L
Ġbar be
Ġsurv iving
ĠMel issa
Ġinput s
Ġheav ier
ĠLeon ard
p ic
w en
Ġp oured
ĠF iction
ine a
Ġad ul
ĠV a
ob a
xt on
ĠIs n
Ġdisplay ing
Ġfell owship
Ġmicro phone
Ġang les
Ġtail or
ĠEnt reprene
author ized
ĠBasket ball
ar ry
ĠS ara
ard on
Ġen semble
Ġsc are
Ġ10 5
Ġcr ush
ĠReg ulation
Ġbi om
Ġargu ably
Ġmal ware
Ġroot ed
claim er
ĠPalestin ians
ĠRichards on
ĠPod cast
Ġanten na
b ly
ĠS ie
ĠD j
Ġch im
ĠY ard
Ġman eu
Ġac rylic
Ġnum er
Ġiss u
He alth
Ġinval uable
Ġunh appy
Ġfrank ly
D own
Ġs odium
ĠC ities
ĠH ip
Ġme g
ĠCh a
iss an
Ġlight ning
pos ium
ĠGe or
Ġbud d
ĠIndust ries
ĠBudd hist
ĠConsult ing
Ġexplicit ly
Ġmetap hor
n amed
t i
Ð ²
per m
ĠIn fin
cl ip
ixt y
Ġterrit ories
Ġstead ily
ch t
Ġat op
Ġpe ppers
Ġserv ant
ĠSo ccer
ott a
ĠFe w
Ġmean while
unt u
ĠGroup s
Ġble w
ĠExper ts
ucle ar
Ġorient ed
Ġbout ique
ĠProble m
B ec
i enced
j ah
p ound
ĠD ylan
Ġinter val
Ġsk ate
Ġpri ests
ĠBo at
Ġtrou bled
Ġspl ash
Ġresol utions
Ġcryptocur rency
M any
T M
W ork
o in
p se
ĠT roy
Ġcol oring
Ġadv ancing
Ġhy pe
ĠRE AD
Ġroutine ly
Ġadm its
Ġundert aking
Ġuncom mon
Ġthri ving
Ġpreval ence
Ġstap le
U P
l ength
v ice
Ġqu il
Ġhol istic
Ġprin cess
ĠDem on
Ġconcept ual
Ġden ial
ĠLyn ch
ĠChem ical
ĠFro st
ĠOtt awa
ĠTib et
- $
ĠC er
ĠR oh
ang ular
ĠMar athon
sh ow
Ġweb inar
Ġalle vi
Ġspr ings
Ġpil ots
Ġinstruct ors
f iction
or ne
ĠP ull
ific ant
ĠFavor ite
Ġrehe ars
ĠM ans
Ġpro be
ĠH ear
ib li
Ġtr ump
Ġche es
orn ings
ĠOr thodox
ĠCol in
Ġtyp ing
ĠPark ing
Ġcelebr ations
ĠEnt ry
ĠNep al
Ġindo ors
b ucks
Ġb ik
ĠP apers
per or
og g
Ġdis asters
Ġpart nered
Ġspe lling
Ġimp art
rib uted
Ġdet er
Ġmiss ile
Ġcoll ision
Ġorganiz ers
OC K
Ġdrain age
Ġsculpt ure
Ġcoord inated
n ai
ĠR M
out ed
Ġcur b
Ġbuild ers
ĠUS C
Ġlo ft
ĠPe ak
ĠLike wise
Ġcrypt o
Ġtestim on
in stein
Ġh i
ĠS ach
ĠA uckland
ĠB UT
ĠW elsh
Ġor th
ĠR hod
ĠG am
ust ral
ub ric
Ġinv asive
Ġgu iding
Ġbl oss
Ġgra pe
ĠProf ession
ĠIndepend ence
i eth
in fect
ĠA ware
im ental
Ġst roll
ia o
ens ation
Ġrec alls
ov es
read ing
Ġpass words
ĠPr inceton
Ġcard iac
Ġarch ives
Ġble nds
Ġble nded
Ġcompl aining
Ġlaun ches
ĠPH P
Ġsne ak
Ġstere o
N O
Ġp ave
Ġre per
ĠR ams
ĠL ect
ĠN I
Ġve locity
Ġprom o
Ġintern ship
bal ance
ĠGu ild
Ġland mark
Ġred ist
Ġassoci ates
ĠEm irates
Ġexerc ising
ĠTom orrow
ĠJul ian
ĠOffic ers
ĠPhys ics
ĠWarrant y
l asses
ĠC ake
ĠB IG
ĠN Z
ĠG reens
ĠJ os
ĠJ ump
Ġcl utch
Ġover looking
Ġco il
Ġwhere in
ĠNew castle
ĠFl a
ĠBr is
ox y
Ġcand les
fl ies
TH E
ĠNon etheless
ĠEffect ive
ĠTon ight
Ġrevel ation
Ġkilomet ers
Ġincon ven
Ġsandwic hes
7 50
P DF
d isc
k it
et ra
Ġr anch
ĠBr us
Ġclick s
Ġkn itting
Ġir regular
Ġpun ish
________ ________
Ġhelicop ter
am pton
ĠB ert
Ġback wards
Ġlow ered
Ġdemonstr ations
ĠNS W
. (
Ġc ad
ĠC af
ĠW aters
od ia
Ġcra cked
Ġbrand ed
Ġamend ments
S O
b log
n els
w ire
Ġout fits
ib an
Ġtw ins
Ġele ven
Ġlog ging
Ġobs c
Ġ196 4
Ġtow ers
Ġcommod ity
D av
Ġp unk
as ia
ĠF ellow
Ġv om
fe eding
nes ium
Ġtrain ers
Ġroof ing
Ġhyd rogen
Ġscript s
Ġsli pped
ĠAdvert ising
ĠHispan ic
ĠB elt
ĠW inner
ri um
Ġab used
Ġout dated
ov o
ball s
ĠChar acter
uk a
ĠSuper ior
Ġbreat htaking
Ġstret ched
Cl oud
Ġsyn chron
Ġreward ed
roph ic
al ie
ĠN est
Ġcomp uls
Ġcl iff
ass is
Ġcar ved
ĠAl cohol
ĠWhat s
Ġhead aches
Ġbro ch
Ġinstall ment
Ġdetail ing
Ġdecl ining
ĠHy per
ĠAtl as
ĠRub y
Ġexplos ive
Ġdefic iency
Ġembra ced
Ġinspir ational
Ġbacter ial
ĠReyn olds
e h
Ġw anna
Ġf ictional
ĠI oT
ĠS hen
Ġr im
Ġby pass
ĠJ ets
ĠTe ams
12 5
Ġengine ered
Ġabsor ption
Ġinev itably
% ),
ley ball
Ġterm ination
Ġclos es
ĠHol ocaust
Ġfulf illed
Ġindu ced
Ġtutorial s
Ġhazard ous
somet hing
B us
H ave
R ed
ĠA ur
ĠC lo
ul ic
est ab
form er
Ġ18 00
ĠChrist ine
ec hes
200 2
Ġball oon
Ġaw ake
ĠForm ula
Ġprosec ution
ĠBott om
F E
I RE
Ġs ab
Ġb iblical
Ġn ode
ĠC ensus
est hes
ange red
ros ion
ĠMon ica
Ġaw aken
Ġbra kes
Ġprot otype
Ġadvert isers
ĠAv iation
ĠElect ronics
Ġeffic acy
ĠDisc uss
ĠAccount ing
Ġtor que
anth a
Ġalloc ated
ĠTes la
ĠExerc ise
at isf
Ġb ore
Ġd ude
Ġd ancers
ver ted
ess a
ĠY ang
Ġend ure
Ġmet ric
ĠRes olution
let in
Ġge ographic
Ġâ ľ
Ġpractition er
ĠFif th
ĠSett ings
Ġnep hew
Ġb ip
ĠT M
il ogy
ĠM ight
Ġac re
ĠFe e
Ġcompan ions
Ġstra ins
Ġimag in
Ġ196 5
resp ons
Ġmob il
Ġtum ors
ĠFerg uson
f ill
v ie
Ġp udd
ĠW ii
ĠTh ous
ĠCh ain
Ġrel ied
ĠLe ather
Ġfil med
Ġ/ /
Ġsound track
ĠMark ets
Ġcollect ors
Ġill um
Ġsupply ing
ĠArm strong
1 30
Ñ ĭ
ĠT ags
ĠS V
ĠG iving
ail ability
Ġqu ir
Ġdes erved
ĠAn cient
Ġshow ers
Ġsk ull
med ia
ĠChrist ie
Ġswe pt
yl ene
ĠSupp lement
ĠEll is
Ġdiox ide
A cc
Ġ _
ĠG aza
ci o
ĠHe ight
ale y
Ġcard board
ĠCertain ly
ĠDat abase
Ġcaffe ine
B E
Ġc ows
Ġp ots
st ring
ur ry
ess ional
ri ad
Ġle aks
ĠU FC
Ġun anim
Ġra ge
Ġcond o
Ġdev ote
Th anks
ĠIm plement
Ġremember ing
fl ower
ĠPal mer
ĠAnge ls
ĠMu ham
ĠBry ant
Ġflaw s
Ġox id
ĠPubl isher
g reat
ĠI G
Ġres ide
oc ide
Ġmin isters
ĠCons idering
Ġvirt ue
coh olic
Ġdefend ants
Ġcritic ized
Ġtang ible
st als
Ġpro c
ĠF est
so ver
oll o
ĠUn cle
Ġcar rots
Ġcre ations
Ġpark ed
Ġaggreg ate
ĠGabri el
focus ed
Ġbe ast
ĠB rief
qu in
Ġdo ck
ind e
Ġfe ast
ĠBe come
Ġser um
ĠEx po
Ġdirect ing
Ġspecific ation
Ġ24 0
cont rol
Ġtrib al
Ġinspe ctions
ĠVen ice
wr ite
Ġhaz ards
ĠAthlet ic
L ike
n uts
re view
Ġf ade
am y
ĠM ile
Ġend urance
Ġexp ans
ĠOr d
Ġsubject ed
Ġfine ly
ĠPlay ing
ĠEngine er
ĠProcess ing
ĠGriff in
h n
n or
Ġw itch
le vard
ĠI A
ist ries
Ġint ens
Ġsm arter
Ġturn over
ĠÂ «
ĠFl ag
Ġdead lines
Ġiniti ate
ĠCD C
ĠExt reme
ĠTem per
Book s
ĠMethod ist
Ġfest ive
Ġnod ded
Ġdistract ed
Ġinher it
cycl opedia
Ġrif le
Ġcaut ious
H ER
d ates
ur ous
ad ian
ĠM oss
Ġ2 20
Ġv on
ĠO UR
ĠTh read
ĠLe eds
Ġsuccess es
ĠAct ivity
Ġvict ories
Ġbur gl
Ġscrut iny
ĠT ah
ĠM aps
Ġwh it
00 1
co al
work ers
ĠSee ing
Ġhur ts
ĠBal i
im age
Ġex agger
oc aly
ĠUn limited
ĠFr ances
Ġdist ances
Ġsmell s
ĠPow ell
Ġchef s
Ġdigest ive
Tw o
he ll
Ġl ag
ĠA ven
il k
ĠD uty
ĠL aser
Ġapp aratus
Ġgr ammar
Ġbo iler
Ġrep ublic
ĠApp lied
ĠCal gary
ĠEd it
ĠInc luded
Ġadjust ing
Ġmagn itude
ĠBang ladesh
ĠMap le
ĠRodrig uez
l iness
r ice
Ġl ush
ĠC ay
ĠH ockey
Ġass ort
Ġsl aves
Ġrep roduction
Ġtechn ician
Ġopen ings
ern el
ĠDon na
Ġstra ps
Ġbi ography
ĠProper ties
ĠSteven s
Ġgreet ed
Ġprovin cial
Ġinterfe re
? '
W E
g ars
y ards
ĠT rial
Ġn ause
ĠS udden
ĠH off
ĠL unch
Ġal beit
Ġcan al
ĠK athy
ov al
ĠRe ason
ĠAl bum
Ġmat rix
ĠSky pe
Ġclar ify
ĠUg anda
d ad
t ops
ï ¿
Ġt ide
Ġp iss
ĠT ut
Ġclass rooms
Ġve ctor
cl ub
ĠCar roll
ĠMin imum
Ġfra gment
ĠForm at
TH ER
ATION S
d imensional
Ġp ne
Ġg reed
ĠP ok
ter ing
Ġr ugged
ust ing
reat ing
Ġbl ades
Ġbeh ave
Ġdevelopment al
Ġbegin ners
de pend
Ġlisten ers
Ġannounce ments
ĠSustain able
inflamm atory
L ove
g ae
ĠM err
ours es
Ġ[ ...]
ĠEv il
Ġcompl ained
Ġquant itative
ĠTit an
ĠMov ies
ĠArn old
Ġrhet oric
k ill
om p
ĠB ark
Ġr ays
em ia
Ġcan cers
Ġup ward
Ġimport s
ĠApp eals
su pport
Ġgas oline
Ġdecor ation
Ġdomin ate
Ġhypot hesis
Ġcongreg ation
D O
b ands
c ats
ĠW ave
ĠH C
ĠD h
ĠR ah
ri pp
Ġper t
Ġwrit ings
ĠInst ant
ĠTy pes
ĠCard inals
Ġincorpor ates
ĠManufact uring
o ise
Ġa while
Ġf ats
Ġd aunting
ĠW als
ĠF ernand
ĠO g
Ġun ch
Ġun law
Ġinte nds
ĠFl ower
Ġris en
Ġmor ph
Ġcal culation
Ġlock er
Ġdiscount ed
olit ical
Ġbarrel s
commun ications
ĠSter ling
A K
b ath
l ib
ĠB og
ĠF T
ign ant
li ant
Ġgive away
Ġchat ting
ĠJeff rey
Ġelev ator
quir y
Ġrig id
Ġfemin ine
Ġfut ures
Y eah
Ġd ilemm
st ead
ĠS eth
ĠB oss
ĠP osition
ĠNe x
Ġinv oice
Ġrel ent
Ġhead ache
aut ions
Ġgl itter
OR Y
200 1
vis ors
Ġtim eless
ĠFire fox
Ġhur ting
Ġske pt
ĠGene va
ĠGuid elines
Ġdece ased
Ġinadequ ate
ĠP oss
ĠG rab
Ġapp ell
Ġsm ok
Ġeye b
ĠNet works
Ġoccur rence
ĠMass age
Ġstimul us
Pub Med
Ġcorrel ation
ĠEns ure
Ã º
Ġm ast
Ġl amb
Ġat he
Ġsh aping
Ġgood bye
Ġinter mediate
ĠComp ar
ĠAir ways
Ġregist ry
ĠRom ans
Ġ196 6
OW N
Ġproceed ing
ĠRegist ered
F e
m oon
ĠM IT
ĠB ub
ĠP ER
ĠH ang
ĠH erald
ag ain
Ġcomp rehe
av in
Ġco h
ĠAt hens
Ġste aling
Ġconc ludes
Ġpath ways
Ġprem ature
ĠRec reation
ĠList ing
Ġcomprom ised
ĠDra ke
Ġpropag anda
ĠHend erson
D is
R em
m itt
ar in
ĠC SS
Ġst all
ĠD iana
ĠD ipl
ge on
ĠE lection
ich ael
Ġres ilience
Ġun rest
Ġover d
ĠAl ready
ĠWas te
ĠFort une
Ġcock tails
Ġhat red
ĠLem on
Ġtodd ler
Ġprolong ed
ĠGlas gow
R P
Ġl ob
ver ter
ĠR EC
load s
ĠPre c
OS E
ĠCO MM
Ġdry er
ĠConf ed
omed ay
ĠConserv ative
l as
ĠT C
ig ion
ĠM add
ĠH annah
Ġapp arel
av ier
Ġjust ified
ĠSh ane
rict ion
Ġcontrib utors
ĠGen esis
ĠDan ish
Ġconstit utes
M r
w ife
Ġd ug
ĠP rest
ag le
Ġte e
ĠK or
Ġcome back
Ġwr ink
Ġel bow
Ġtrack ed
Ġarm or
Ġtro phy
Ġartif acts
Ġinsu fficient
ĠBris bane
E X
ar an
ĠP or
ab olic
Ġsh ipment
ci er
ak u
Ġcur tain
Ġelect oral
Ġadop ting
OL D
Ġvoc abulary
ĠDisc ussion
Ġspo il
Ã £
Ī Ĵ
ĠUn ique
Ġsur render
osp ice
Ġpropos ition
ns ic
Ġshoot s
Ġwild erness
Ġinstruct ed
Ġadvertise ment
olph ins
N ING
im i
ĠM IN
ĠW el
oo ses
ĠO re
ip h
vel t
ov ic
Ġfound ers
Ġsing ular
ĠDet erm
Ġhur d
Ġpresum ably
A h
l ene
Ġl ig
ĠB und
ĠH ands
ĠE as
ĠE sp
Ġr all
Ġpack et
cri ber
Ġremov es
ĠJack ie
Ġult rasound
Ġincl ined
Ġchick ens
Ġ iv
Ġe b
ĠB read
ĠN GO
ple asant
Ġinj ust
Ġextra ction
Ġrecogn izing
Ġacadem ics
ĠEss ential
ĠVi enna
oper ative
Ġdipl omatic
Ġsup reme
Ġthe aters
Ġd Ã©
Ġl aps
ĠA ber
Ġwh isk
um i
ĠK iss
ĠV AT
Ġcomm ence
Ġunder going
ĠAd s
Ġpublic ity
ĠSp in
Ġsound ing
ĠAc id
ĠPar ish
Ġelev ation
Ġmac ro
Ġaver aging
Ġaccum ulated
ĠFix ed
ĠFrame work
ĠRequire ments
B ar
p oke
Ġa we
Ġp oo
Ġl ac
Ġn arc
Ġsh ru
ĠK N
Ġco ats
oy s
ĠMe as
ĠCar r
Ġlif es
Ġmir rors
Ġwheel chair
ĠImpro ve
Ġexplo it
ĠIncre ase
ĠIndividual s
ĠRecomm ended
Ġdestro ying
Ġsuscept ible
Ġafore mentioned
Ġc ache
ĠP oker
ĠL loyd
ĠV ick
Ġref ine
ope z
OR K
Ġguess ing
Ġsurf ing
Ġnutri ent
ĠHait i
W atch
le ys
ĠSt ainless
ach ment
Ġgovernment al
Ġrestrict ion
Ġrein force
Ġconver ting
Ġportray ed
g one
h art
m ember
n an
Ñ ı
Ġc bd
ĠP ART
Ġad vers
ric ia
Ġadv iser
ĠUS E
Ġkind ly
Ġfre ight
ex cept
ĠEvery body
ĠBer g
Ġneck lace
Ġspell s
ĠLegisl ature
Ġtraff icking
M od
r ative
ĠI g
Ġhe ck
Ġch uck
Ġplan ets
ĠQ atar
ĠWar riors
Ġmis leading
udd y
ĠDet ect
Ġemp ire
ĠReport ing
ĠBal ance
AB LE
Ġinfect ious
Ġalloc ation
dr ates
Ġbot hered
H E
it oring
ut ton
ra red
get table
Ġfr amed
ĠAct iv
Ġjud ging
ĠVe get
ĠFil ms
Ġbat ting
Ġfert ility
prof ile
ĠSpecific ally
ĠT IME
Ġn inet
Ġoff s
arm ing
ĠSp art
ĠCons um
Ġrespond s
ĠPet erson
umin ium
ĠSet ting
FOR M
G reat
l ain
t oo
Ġo ct
Ġp enn
Ġan gels
ĠR ut
ĠL anka
Ġsh ining
ĠCh art
Ġopt imum
ĠCal endar
Ġlegisl ature
ĠHy dro
ĠLead ers
Ġpoly mer
Ġende avor
i ated
Ġw it
Ġm arsh
Ġwas ting
Ġdo d
ĠU ber
Ġwho lly
com p
Ġz oo
Ġdraft ed
Ġintention ally
ĠGreg ory
ĠFeat uring
Ġanth rop
Â £
Ġt il
ĠO T
iv o
erv ices
ish ops
Ġ7 50
ĠCon cept
ĠSw ift
Ġrent ed
Ġattract ing
Ġpit ches
ĠEval uation
+ +
Ġw aking
ig g
ill ery
iv able
ne g
Ġtr unk
Ġ15 00
Ġmult itude
ĠComp are
ĠSur face
Ġcivil ization
ĠProv idence
Ġcooper ative
Ġstim ulation
ĠRoche ster
ĠStephan ie
Ġs or
Ġb un
Ġp ains
ot ine
ol ics
Ġr ats
Ġab ol
ĠJ i
Ġk in
ĠK er
ĠRe cipe
Ġprodu ctions
Ġclass ics
Ġfire works
Ġlik ing
Ġemp loys
ĠFab ric
ĠCole man
ĠUA E
ĠKle in
Ġinterf aces
Ġg ems
ĠM ig
ĠB ug
ĠH uff
Ġ( +
âĢĿ ),
Ġsp awn
Ġinf amous
Ġpast ry
ĠCar p
che z
EN CE
Ġprofessional ism
ĠArt ists
Ġut most
Ġlawsu its
ĠAltern ative
ĠHop kins
Ġmatur ity
F orm
v ate
y ll
Ġt ense
ĠC AP
ĠW et
ĠG U
Ġun healthy
ĠRe ce
Ġche ek
AN G
ĠAb stract
ĠMet ropolitan
ĠPhot osh
Ġscen ic
Ġban ana
ĠInstall ation
c ents
g t
Ġb ats
ĠW ool
ĠH ospit
ĠE B
Ġab dominal
ag us
oll ar
ĠBe e
Ġel imination
Ġprote ctions
Ġstat ue
Ġcelebr ates
ĠWind ow
ĠSub mit
Ġmap le
ĠLab s
ĠExt ension
Ġspark ling
Ġmerch ants
ĠNob le
Ġinflamm atory
Ġgran ite
/ -
ed ience
Ġd y
ay ette
Ġpro active
ount y
ces ter
ĠQ B
ĠRes idential
br ush
Ġdefin ite
Ġri pped
Ġpremium s
ĠPrep are
ĠM VP
ol ation
Ġwh istle
ĠPe pper
ĠDep ression
Ġbox ing
Ġenh ances
Ġexhib ited
Ġign oring
ĠCarol ine
ĠPerson ally
Ġfib ers
Ġincom plete
roduct ory
G P
f ashion
s er
Ġc ove
ĠL ith
ĠL ily
ĠZ immer
ĠSc an
ĠCor on
Ġband width
Ġarchitect s
E uro
Ġc ialis
as per
ĠI b
ĠM ent
ĠM itt
ĠB ach
ĠL ibr
Ġhas ht
Ġsa us
Ġtra ction
Ġins ist
Ġtax payer
IC A
Ġviol ated
Ġcorrespond ence
ĠLiter ature
Ġgad gets
Ġgrap es
n ik
r r
Ġc ivic
Ġp s
Ġbe ads
ĠB order
ĠN aturally
ĠO dd
Ġup stairs
ens en
Ġ10 80
ĠPl ate
ĠPl aces
Ġref uses
Ġcr ashed
Ġstret ches
ĠCook ing
Ġphilosoph ical
Ġignor ance
Ju ly
Bec ause
ĠC red
Ġst ole
ĠF ry
ri ans
Ġad apter
ĠV ic
ĠV ern
Ġam ino
Ġgr in
Ġrep roductive
ĠFl ow
Ġ17 0
ĠCong ratulations
ĠBank ing
Ġphil anthrop
Ġbless ings
Ġreven ge
Ġc uc
Ġst ains
ĠG L
ind uced
oc ular
Ġun ified
ĠMy ers
ĠMar riage
AN K
Ġdeliver ies
Ġadequ ately
Ġbuff er
c ology
Ġp seud
Ġe go
st rom
Ġwith stand
ĠP ione
ĠD ia
ĠN issan
lic ation
Ġdisc ourse
ĠAr ctic
Ġpat ents
Ġbelie vers
ĠBr itt
lling ton
Ġconsist ed
Ġgrand parents
Ġthr ill
Ġhun ter
Ġsad ness
Ġemphas ize
Ġtrib e
Ġc emetery
ĠC hes
im er
ĠK ane
ah an
Ġbo iling
Ġconf irms
Ġsw ear
ĠCongress ional
Ġbul bs
ĠIll ustr
ĠExt ract
ĠAz ure
ĠHA VE
accept able
Ġassort ment
Ã ¸
ic ating
Ġl amps
Ġg ru
ĠC MS
ĠE ther
ĠO ption
Ġbl adder
for cing
ĠChe ster
ĠGr ill
ĠOver view
Ġdiagn ose
Ġtast ed
Ġsimpl est
ĠChem istry
Ġunp redict
ï¿ ½
Ġthe e
ab i
ĠL T
Ġch i
ud s
ĠK oh
ach i
Ġsp lend
Ġun aware
Ġfl ick
Ġmin us
Ġsystem ic
oot er
Ġter race
Ġgentle man
ĠBurn s
ĠGib son
Ġt urt
Ġw ives
Ġf erry
am iliar
ir ie
ĠP orter
ĠR ena
Ġde af
Ġapp rent
ĠCl are
Ġpur se
Ġopp ose
ĠBl vd
Ġline back
atic an
IC S
Ġboard ing
Ġintegr ating
ett i
Ġvill ain
ĠLo ans
Ġped al
ĠET F
Ġtoss ed
A ss
ĠC W
ĠM ong
ĠK ur
Ġres orts
Ġfl ush
vas ive
ĠDer by
H i
st arter
ĠA way
Ġst ain
Ġsk ies
Ġdefe nded
Ġbra cket
Ġsexual ity
Ġnegoti ating
Ġportra its
Ġinterpre ted
orig inal
B ox
f o
Ġm ornings
Ġe uros
ĠS CH
Ġj umps
Ġso ak
Ġro ast
Ġpre y
Ġinter vals
Ġret aining
Ġcomment ing
ĠAdv ance
ĠLib eral
Ġtrave lled
ĠReturn s
Ġtempt ed
Ġapolog ize
Ġfeas ible
Ġumb rella
Ġnons ense
ĠYor kshire
ĠMuham mad
M O
c uts
v id
et ically
il ight
ĠB ri
ĠThe me
Ġpe as
ĠFor ward
Ġlot tery
ĠShe et
Ġvari ants
Ġmot ors
Ġdeb it
Ġsqu ares
ĠAre as
ĠSil icon
Ġburn s
Ġprofit ability
ĠPen insula
Fr iday
. *
b ons
h ored
l ists
v ic
he rence
ĠF S
Ġor bit
ĠJ ill
Ġper taining
Ġbr ighter
ĠCal vin
ING TON
ĠSer ge
Ġgar ment
ĠLouis ville
Ġscrew s
ĠProt est
ĠClar ke
T y
k ok
Ġd ick
ĠS ally
Ġpro curement
ul se
ĠR osen
ĠL ives
Ġad missions
Ġinst itute
Ġed itions
Ġstate wide
ĠSte ps
ĠWorld wide
Ġhuge ly
ĠAff ordable
ĠCow boys
ĠPy thon
Ġshr ink
ĠAbs olutely
Ġtel es
ĠAub urn
Gener al
Ġc ensus
ĠI CT
ĠW IN
ĠL ounge
Ġv est
os o
av ia
ĠLe ading
Ġrepl ies
ĠFin ish
Ġphil os
ĠKn ights
ĠThink ing
step s
Ġtweet ed
Ġneglig ence
Ġon set
ĠB J
ĠW are
ĠU PS
ĠNew port
Ġreal ities
ĠMe yer
Ġground ed
Ġthreat en
ĠNorm al
ĠMartine z
ĠBrus sels
k ens
on line
Ġto ken
Ġh ose
Ġch in
Ġup right
Ġinc umb
oy le
Ġpres ently
Ġref using
Ġaccess ory
Ġbas il
ĠDr ink
ha ul
ĠAnn iversary
ĠDi abetes
Ġtrend y
Ġpreval ent
isfact ory
S omet
S QL
b ps
g rowing
k ar
s un
t ube
Ġpost ure
uss ian
ĠBu zz
Ġdrive way
clus ion
St ud
ĠSuper man
ĠEv an
Â® ,
craft ed
ĠÃ Ĺ
Ġje wellery
Ġeleg ance
Ġrou ter
Ġawa iting
T hen
Ġh ay
ĠG el
Ġcan s
Ġro ses
IN T
ĠBu ying
Ġneg lected
reg ard
ĠLog an
tw itter
Ġprosecut ors
Ġcyl inder
Pres ident
i ating
o pp
he res
Ġf ills
ĠI MP
ĠG D
ĠE yes
âĢĿ ?
Ġdis ruption
Ġdes cent
Ġgr illed
ĠCon sequently
Ġdi arr
Ġspecial izing
Ġauthor ization
Ġswe ater
In tern
Ġbur ger
ĠInter active
Ġthr iller
Ġpredict able
ĠIde al
ĠComb ine
Ġw oven
ĠT us
Ġst akes
Ġas semble
Ġcon gest
Ġle agues
Ġfun nel
Ġconf ess
Ġbas eline
Ġvers es
Ġcra b
Ġple asing
Ġobs ession
Ġslow ing
Ġprefer ably
Ġden ying
Ġplug ins
Ġguitar ist
Ġexceed ed
ĠGrow ing
ĠLad ies
ĠMerc ury
ĠL opez
Ġex ert
Ġex emption
Ġch ili
Ġpl um
Ġemploy ing
Ġeconom ically
osp ace
ĠAb d
Ġsuper hero
ĠDis claimer
ĠSw an
Ġhear ings
ĠEv idence
Ġvalid ation
Ġvalid ity
Ġpoly ester
Ġunf amiliar
ĠKenn eth
Ġsynt hesis
Ġpione er
ĠPant hers
Ġcleans ing
Ġc erv
es an
ĠP AR
ra z
op ing
ĠO B
Ġch ooses
ĠRe fer
Ġdec ay
ĠBe an
ĠSp ider
Ġsuper market
Ġhost ile
OU S
gen cies
Ġamb ition
cont rolled
Ġgest ure
B LE
w ent
Ġl iner
st ed
ĠP ix
ĠP ars
ĠF ruit
Ġmy riad
Ġapp liance
ond ay
Ġterm in
Ġbegin ner
ĠCor ner
Ġten ant
Ġimpl ants
Ġap ost
Ġtrib es
Ġbuff et
Ġpour ing
en ne
ĠW S
ĠH olly
Ġse ated
ĠO M
Ġthere after
Ġself ish
ĠPresident ial
put ed
Ġmer ger
Ġdat as
Ġaffili ates
Ġcoc oa
ĠIntegr ated
d ar
Ġthe ology
Ġl ingu
ĠI B
ĠP orn
ĠD ana
ĠR oose
and el
ĠK B
Ġgo at
Ġ19 00
Ġprocess ors
ĠBl air
Ġgovern ed
ĠIns pect
ĠBet ty
Ġbatt ling
ĠImm igration
was her
Ġinaug ural
n ational
Ġa ired
Ġn as
ĠL is
Ġex quisite
Ġfl ames
oint ed
Ġcheck list
ĠEn forcement
Ġlower ing
Ġtrust worthy
ĠDiv ine
Ġemp athy
Ġrot ating
Ġpig s
ĠTal iban
ĠCub an
inst all
clip se
ĠAware ness
P LE
b read
f est
ce ans
ĠM ets
ol and
Ġhe ater
ĠR ated
oc ado
ĠNe ck
Ġown ing
Ġpres idency
Ġspec s
Ġwonder fully
Ġoffe nders
Ġhistor ian
ĠUnder stand
ĠJew el
Ġspons orship
Ġspokes woman
Ġrefuge e
Ġdesp air
ĠOpport unity
Ġstub born
ĠPhilosoph y
= âĢĿ
b ral
ĠT rou
im an
ĠB od
ĠB arr
ĠW u
os ion
Ġwell s
ys ical
Ġcent r
Ġeconom ical
ĠGold man
Ġlock down
Ġspr int
ĠKn ox
Ġimmigr ant
Ġrug by
Ġreluct ant
ĠColomb ia
n as
ou x
Ġf ry
le ft
ĠR um
Ġfe ared
Ġdis gu
ĠCl iff
Ġtest ified
ote chnology
ĠSu ggest
Ġrespect ful
Ġsens ory
ĠDirect ory
Ġsurvey ed
ĠRequ ired
Ġcompr ising
ĠSS D
Ġh ollow
ĠT i
ot on
ĠN in
ĠE y
ĠE ating
az er
man uel
Ġaccount ed
Ġbit es
ĠCal cul
Ġcred ible
osh i
ĠKnow n
ĠDev ice
Ġcoc aine
Ph oto
ĠSex ual
> ;
r ance
Ġt ier
al er
Ġg i
ĠM olly
Ġpro xy
ĠR ates
ĠR ental
Ġpl edge
ac a
ĠCh ip
Ġrec urring
Ġtw isted
com b
Ġmem oir
app er
Ġmix er
ĠLa unch
fol k
Ġassum es
lyn n
Ġsufficient ly
Ġforecast s
ĠInterest ingly
Ġdash board
ĠH ilton
ustom ed
Ġrep aired
Ġlearn s
ĠHigh ly
Ġneg ot
Ġreflect ive
Ġexclus ion
Ġmal icious
Ġneighb oring
Ġfool ish
Ġcig arette
icular ly
ĠBegin ning
Ġneighbour hood
connect ed
Aug ust
P ort
c ock
he et
Ġf ocal
Ġth ru
Ġl as
ĠA AA
ĠF IF
Ġout right
Ġun pleasant
Ġpe aks
ĠSe vent
ĠCom fort
ĠUS DA
Ġred irect
Ġsqu ash
ĠJo an
ĠPat ient
Ġfix es
Ġamb ig
ĠCro at
Ġweigh s
" ).
D ri
x it
Ġp enny
an ol
ĠP RE
ĠO EM
Ġinc idence
ff ield
ĠBo eing
Ġhous ed
Ġcommission er
ĠDev il
Ġembarrass ing
Ġunfor gettable
ĠS ak
ĠW izard
ĠG iant
Ġsu ites
Ġcomp liant
Ġafter math
Ġconf ined
ĠLet ters
ĠMag gie
Com merce
ĠCrit ical
ĠNort heast
Ġcance led
v ak
ĠF ax
th ouse
Ġpat rons
ĠSp read
lt ry
ĠEv olution
ĠEr n
Ġobserv ing
ĠRh ode
Ġfont s
Ġtox ins
G C
Ġp am
ĠL I
ĠG and
Ġv apor
ĠCom pos
Ġeng ra
Ġpolit ician
Ġstick ers
Ġchem otherapy
ĠWin ston
Ġdecor ate
ĠCre ated
Ġregister ing
Ġconfig ured
Ġintent ional
Ġseam lessly
C ons
G e
W N
Ġa ka
om as
ĠB att
ack ing
ĠU nd
Ġman kind
Ġcol oured
ĠCom ics
Ġdisc oura
Ġorgan isms
Ġrece ivers
mon ary
Ġec ological
Ġhur ry
Mark et
a us
Ġ \
Ġout lines
lo bal
Ġsim mer
ids on
cu le
Ġmult ic
ĠMed al
Ġnorm s
Ġ196 2
Ġast ro
Ġdepth s
Ġspat ial
Ġintric ate
ĠPhotosh op
st ones
est ones
ĠE ug
um ed
Ġcomm itting
Ġfriends hips
Ġcrit ique
ĠGe nder
aste red
ĠBel ieve
ĠBer ry
ĠPur ple
ĠMonth ly
prote ct
Ġmitig ate
ĠT ank
ĠT ennis
Ġus ername
ĠDe e
Ġav id
ON D
IN K
ĠPer th
AL E
Ġlic ence
sp ons
obb ies
ĠCurt is
ĠRecruit ment
S W
S outh
p ract
Ġs ir
Ġw olf
ĠT ak
il ient
un ci
ĠV intage
Ġcal orie
Ġfig uring
Ġunc overed
ĠDi agn
ĠOrig in
Ġjun gle
ĠNaz i
ĠHung ary
it as
en es
Ġh ug
Ġe book
ie ves
Ġtw ent
Ġserv ants
ert on
up iter
ĠEar l
ĠStar bucks
Ġcompar isons
ĠJackson ville
Ġrein forced
Ġtrig gers
Ġphenomen al
Sp ace
Ġcompassion ate
Ġmart ial
Ġcit rus
D id
U CT
Ġ icing
ĠC ats
ĠG N
Ġtheir s
ĠSt ress
ĠCl ara
Ġrep ository
ĠCon vers
Ġexc av
Ġcraft ing
Ġfold ed
Ġlandsc aping
uten ant
d ata
m ax
ic able
ĠT ours
ur ations
ĠM au
ir teen
ĠG ain
our ing
Ġbl amed
Ġins ists
ĠRel ief
Ġgall on
met ics
Ġremem bers
Ġfart her
Ġfurnish ings
s aving
in as
Ġf aint
Ġn aming
ĠC bd
ĠM ann
ĠP engu
ĠL ars
ĠSe bast
ĠSh arp
Ġcur ves
Ġ12 8
Ġod or
ĠVolunte er
names e
J e
ĠB rett
ĠP ipe
ĠF ut
Ġv oy
Ġcomp ilation
Ġinc urred
Ġcl erk
ĠV atican
Ġweb page
Ġbur d
ĠArch ive
Ġthr one
Ġjoint ly
ĠOffic ials
ĠFarm ers
Ġbub bles
Ġmathem atical
dem and
Ġpix els
ĠRoose velt
H el
c ussion
Ġd ots
Ġth irst
ĠS Y
ĠA ges
ĠD D
ĠSt raw
Ġcr ashes
ĠCont rib
Ġpar a
Ġbad ge
Ġsn ake
ĠNews letter
ĠSam antha
Ġemphas ized
Ġanticip ation
Ġprivile ges
Ġster oid
Ġrust ic
Ġ` `
Ġfel ony
Ġinfin ite
ĠD ES
ĠD addy
ĠJ ur
ĠSt uff
Ġunder water
Ġsupp orter
Ġreal ization
ĠJohn s
IS A
Ġsimilar ities
ĠPat tern
Ġrock y
ĠSam ple
Ġbrows ers
ĠCook ies
Ġgate way
ĠCars on
Ġsher iff
N AS
Ġthat s
ĠB EST
ĠW on
Ġab usive
Ġrel ay
Ġend uring
Ġref urb
enn ium
ograph ics
Ġill usion
Ġple a
Ġbroad ly
Ġprin cip
Ġhyd ra
ĠMust ang
C ard
c ross
Ġt art
ĠH TC
ĠY ES
ass ium
Ġmet a
Ġ11 5
Ġpict ured
Ġhook s
Ġparad ise
ĠJama ica
ĠEVER Y
e g
u pp
at he
or f
Ġst amps
ĠM int
ĠP F
ĠW ish
Ġcomp rehens
ĠCh oosing
Ġpo pped
ĠCom ple
Ġatt ent
ĠBe ver
Ġsur plus
Ġill umin
Ġver dict
ĠST EM
ĠLu is
Ġdetect ive
ĠBroad cast
Ġrelie ved
ĠAw esome
Ġinval id
ju ven
Ġendors ed
offic ial
S im
j ob
l ot
Ġh alt
ĠG az
Ġrel iance
Ġdown side
ER T
Ġneg atively
Ġcorrect ed
ram id
Ġweigh ing
Ġfulfill ment
Ġmetab olic
ĠHit ler
Ġauton omous
P ac
l ive
ol an
ill es
Ġr ude
Ġdet ention
ĠAd mission
Ġval uation
ĠMc N
ĠWell ness
ĠAc ross
ĠCanad ians
ĠProdu ctions
Ġdivide nd
ĠNiger ian
N T
c iliation
d ec
u ces
Ġm p
ĠC RE
ĠM atter
ĠM aker
iss ue
Ġ10 4
Ġmult imedia
roll ers
Ġwel comes
Ġdisp ers
cont in
ĠProv iding
ĠCat hedral
ĠDom ain
ĠPast or
Ġrevers ed
g ages
l ifting
Ġf usion
Ġn odes
ol in
Ġha irst
ĠR ust
Ġde mentia
qu arter
Ġsh ampoo
ĠIn vent
Ġpres chool
arm ed
Ġrespect s
ĠDevelop er
Ġbul b
Ġveter inary
ĠGar age
Ġtab s
des ign
ĠTrib une
p aced
Ġs napped
is en
ĠTh r
Ġcomp artment
Ġper ceive
Ġmet allic
Ġmind ful
ĠInt rodu
ĠIN TER
ĠMax imum
Cl ass
Ġnom inee
ĠWrit ers
Ġconserv atives
Ġinacc urate
F M
Ġw ander
Ġl odge
Ġe tern
Ġst ellar
ĠR af
ĠL au
Ġnot ch
ĠJ agu
Ġad hesive
ĠSh ot
Ġdesign ation
ale igh
ĠFe es
Ġimm unity
ĠLook s
ĠBet a
ĠRay mond
Ġvent ilation
Ġprivile ged
fund ed
ĠBou levard
Ġimpair ment
ĠIng red
m und
er vers
ĠC ance
od er
Ġpart ition
ĠNe eds
Ġpol ite
Ġret ros
Ġvers atility
ĠX ML
ĠAb ility
ĠCoun ter
Ġreb ell
ĠFact s
ĠGard ner
Ġtherap ists
vit ational
ĠRoberts on
G reen
W ind
h ad
s ong
Ġh over
ĠM alt
ĠB I
ĠL D
ĠL ance
ĠN om
Ġso othing
ĠCom edy
Ġpres erving
ĠAmeric as
Ġdr ift
Ġwind ing
Ġannoun ces
Ġprep ares
Ġviol ate
Ġord inance
Ġspread she
ĠAM D
que z
ĠEngine ers
Ġexplan ations
ĠDom estic
ĠFle et
onge vity
Ġendorse ment
Ġcontam ination
ou ble
ul as
Ġex cel
Ġsu ed
Ġpl asma
Ġar rog
Ġimp ly
Ġimp aired
ĠEx act
ĠMar ina
Ġsett ling
UL L
ogen esis
ĠConsult ant
ĠImm un
best os
Lear n
Ġpurs ued
t ar
Ġm l
ĠA br
per ing
Ġad ren
Ġar ises
Ġcomm issions
Ġ10 2
Ġpass ages
Ġtri angle
ĠQu ite
ĠPre view
Ġstri pped
ĠMon roe
Ã¡ n
Ġantib odies
Ġirre levant
ĠAlb any
R Y
Ġu b
ĠF X
and o
we ed
Ġposs essions
ĠPl atinum
Ġide ally
Ġvolunte ering
Ġamb assador
Ġdecre ases
ĠAccess ories
Ġpreced ed
Ġreun ion
ĠFell owship
M s
Ġb olt
Ġl am
ĠH od
Ġint ro
ĠSe ller
ĠDo ctors
ĠBr ush
chie f
Ġri bs
Ġimpress ions
ĠSpring field
ĠAff ili
ĠEth ics
Ġsour ced
> <
p ages
Ġ ^
ĠI v
Ġup hol
ĠV I
Ġspe eches
ĠRe cip
Ġpol es
ĠAr lington
Ġide ology
Ġbro th
eng ine
hold ing
ett le
ĠGl ad
col ored
b ish
s ight
at ra
Ġp ian
if eration
Ġen large
ĠRe ach
Ġtra ject
att a
Ġhard core
Ġge ared
Ġdisp ens
Ġaccomplish ment
ĠTalk ing
ĠMine craft
M en
W he
ĠI E
ĠC ul
ĠD ining
Ġor chestra
Ġne on
ĠG ore
iv ating
als a
ĠFor bes
Ġear rings
Ġdeal ership
Ġprint ers
rag on
ĠSqu ad
Ġproceed ed
Ġexplo itation
Ġunsu ccess
Ġtran qu
S ource
ot er
ĠH ire
Ġch orus
Ġch assis
ĠSe ll
Ġfact ories
Ġfre ak
IC T
Ġlog os
Ġdest iny
ĠSim pson
Ġwarrant ies
Ġborrow ing
pur pose
iche ver
Ġmiser able
r ar
Ġa pr
it ars
Ġh alls
ĠF av
ĠF iles
int o
Ġwhere by
Ġrep s
Ġsing ers
edd y
Ġwar fare
Ġfirm ware
ĠLou ise
Ġterr ifying
ĠTan z
Tr ans
ĠFreder ick
H N
r ates
al ities
and ra
Ġdis pro
Ġcar amel
Ġiss uing
ĠBl ind
Ġorig inated
uff le
ĠGr ass
IC AL
Ġri pe
ĠQue bec
Ġboost ing
Ġinteract ing
ĠBull s
htt ps
Ġchampions hips
re a
Ġc ops
ĠB uc
ĠG ym
op ening
ĠK em
ĠAn ch
ĠJan et
Ġcounsel or
ĠJenn y
Ġcig arettes
Ġmaj ors
H L
c us
m un
ir ical
ĠR PG
Ġres in
pr ints
ĠAd apt
ĠPat rol
ING S
ĠMor rison
Ġgar ments
Ġdecre asing
Ġprepar ations
Ġspark ed
ĠNorm ally
Ġphenomen a
Ġque ue
c aster
g rown
Ġp ests
ic iary
ĠT rent
ĠC atch
ĠP ET
ĠH ep
qu artered
ort ium
Ġr ash
Ġper ceptions
ĠDep art
Ġge ographical
Ġprec autions
Ġminor ities
Ġbutter fly
ĠLight ning
Ġcalcul ator
Ġextract ed
Ġempower ing
Ġarom a
Ġepid emic
Ġprosecut or
ĠInit ially
Ġsubur ban
Ġcollaps ed
Ġirrig ation
M in
Ġl av
ro let
ĠD ed
ĠF ishing
pp ings
Ġall ergy
Ġ3 000
Ġsuccess or
aur us
Ġpal ace
cont ract
B erry
C ity
b irth
f air
ĠD uc
ĠR ip
ĠL ac
ĠJ upiter
Ġoff ence
Ġnew com
ĠRe e
Ġdisc ern
Ġcle arer
Ġdistrib utor
Ġthr illing
Ġfold ers
Ġconfig ure
UL T
dri ve
Ġimper ial
ĠGate way
Oct ober
P re
S ub
â Ĥ¬
ĠW oo
ĠH av
ĠL il
Ġal iens
Ġacc ustomed
Ġhome owner
ĠShe ffield
na ire
Ġadvert ised
ĠAp ollo
Ġtrave llers
ĠViet namese
Ġairpl ane
ĠRepe at
r ating
Ġ Ñģ
Ġw ow
Ġl ubric
ĠC edar
ĠM ik
ĠF ol
ĠIn flu
ne x
Ġ19 45
ason ic
me al
ĠPre heat
ĠHy brid
Ġveget ation
N orth
Ð ¿
ĠS ources
ĠA gg
Ġwh ipped
Ġintern ally
ĠCar ne
Ġconne ctor
Ġkey note
Ġsil icone
EM ENT
ĠLat ino
Ġshell s
ĠLux ury
Ġcareg ivers
! âĢĻ
S H
h arm
ro ots
ĠS age
ĠM ul
ĠP ist
fe ed
Ġcl ues
oc ese
aw i
Ġquestion able
Ġrain bow
Ġru ins
Ġreserv oir
B rien
Ã ´
ĠC av
ĠP and
ĠW P
ĠG ur
Ġv ault
ĠCon cer
let al
ĠReg ulations
Ġemer gence
Ġflu ids
ĠFil ip
ih ad
ĠPow der
ĠAdvis or
NY SE
ĠMorm on
ĠSudden ly
Ù Ĩ
in qu
ĠC ros
un ky
Ġprom in
ĠPre viously
Ġtransfer ring
ĠSa id
Ġju venile
Ġevolution ary
ĠManufact urer
Ġunlaw ful
G L
H is
m ake
Ġs ulf
ĠM ining
ĠP it
ĠP LE
ĠTh ing
Ġrec ount
ĠSe ed
az i
Ġmust ard
IS E
Ġdep icted
Ġorganiz er
Ġrelig ions
Ġgall ons
ĠMen u
ĠInterest ed
ĠConc ert
Ġhack ers
Ġdub bed
ĠRele ased
Ġfundament ally
p ric
Ġs lope
Ġc yn
Ġd ice
Ġe ats
ĠN um
ort ic
Ġcl ash
Ġres igned
Ġdifferent ial
Ġbelie ver
Ġpop s
Ġequ ip
ĠPr ide
par alle
Ġur ging
ĠSal v
Ġfashion able
Ġremark ably
ĠHawai ian
rend um
Ġresear ched
H ello
M ax
it ures
es ar
Ġp sy
Ġh ast
Ġg n
il ings
ĠP ie
us p
Ġag gra
Ġcons cience
ĠSe lection
ĠSc out
Ġconst ru
val ue
Ġple aded
Ġremov able
Ġlaugh s
ĠLib ya
ĠRoll ing
pack ed
ĠProt ocol
stan bul
Ġpuzz les
h it
Ġ ).
re ate
Ġd ye
Ġl ust
Ġre charge
ĠM ouse
Ġwe ighed
Ġserv icing
ĠCo pper
ĠPer u
Ġsuff ers
Ġmotiv ate
ĠProte in
On ce
ĠPop ulation
def ined
Ġembarrass ed
Ġentrepreneur ial
Ġoun ce
) -
E m
F igure
t it
op sy
Ġun available
ĠRe ality
Ġpo lling
Ġgra cious
Ġpod ium
alog y
ey ed
t alk
ab etic
Ġsu cks
Ġj our
ĠSt range
ĠRe hab
ĠSh aring
Ġgl owing
sh op
ĠTra cy
Ġfurn ished
Ġcop ied
ĠFriend ly
Ġrede em
Ġbod ily
Ġs way
Ġst ark
un al
ind ers
ĠK ris
Ġdown ward
ĠComp rehensive
Ġident ities
Ġlab s
ĠTrans it
Ġmile age
Ġfilmm akers
Ġalph a
ĠPos itive
Ġo wed
Ġb unk
Ġd inos
Ġcom fy
ant om
Ġher s
Ġar ter
Ġsl ated
the med
Ġunderstand able
Ġpan or
Ġlif ts
Ġalt itude
mod ern
Ġmanip ulation
) !
a eda
Ġre ef
ĠL akers
Ġper se
ĠMay o
ĠAm ber
ĠInst ruct
Ġdistrib utors
oly n
Ġsymb olic
ĠKenn y
ĠAdministr ator
Ġsuspic ion
Ġluc rative
Ġe cc
ĠS ays
ĠC ause
ĠP ig
ĠP ors
ab lo
op oly
ĠIn k
ord e
mer cially
Ġins urers
ĠSh i
ĠSu ff
Ġcertain ty
wh y
ĠMin utes
Ġperiod ically
Ġslow ed
Ġmail box
Ġliqu or
ĠBre xit
Ġobst acle
ĠJoh ann
Ġshar ply
l oss
s ix
in formation
Ġw ag
en o
Ġb amboo
ĠT uc
ĠD ial
and ing
ĠV ia
Ġsp here
Ġun acceptable
ĠSh ut
ĠEd en
Ġdraw er
ĠAR T
ĠProdu cer
Ġax is
Ġmigr ants
4 50
M c
ĠT ill
ĠT ier
ĠP ush
ĠF ully
ĠN it
Ġk not
are z
ous se
Ġun authorized
ĠHe aling
Ġplay ful
Ġhigh s
AN C
Ġcat alogue
ĠDesign s
Ġeval uations
cript ive
Americ a
Ġbroadcast ing
Ġconfront ed
ĠParad ise
: -
Ġover weight
ĠUn ity
ros is
Ġmet ic
me g
Ġeng lish
Ġter ribly
Ġcontinu ity
Ġvisual s
ĠLeg ion
ĠBa gh
ĠEmploy ee
enz ie
Ġscal p
Ġmasc ul
opath ic
Sept ember
á »
ar u
Ġl oops
Ġ2 30
ire ment
Ġapp la
Ġpo pping
ĠCom ic
Ġins urer
Ġclo ves
fer red
ĠServ ing
Ġment oring
ĠSecond ly
Ġacquis itions
Ġcree py
Ġrecept or
ĠRaven s
Ġunbelie vable
ĠChev rolet
Ġt ensions
Ġw ed
Ġsp ike
Ġra id
Ġ10 3
Ġallow ance
Ġbeh old
ĠKe ys
ĠAut umn
ĠLaw s
Ġutil ization
ĠPress ure
Ġhur ricane
ĠEqu ity
Ġpredomin antly
Ã£ o
Ġ Å
Ġd ictionary
Ġcon ced
ans on
oss ip
Ġplan ner
ĠMan ning
Ġpain ter
ĠCor nell
ĠSund ays
Ġessential s
Ġacadem y
ĠStr at
ĠStand ing
Ġju ices
Ġhun ters
Ġprop het
Ġlin en
Ġauthentic ity
ĠLi u
ĠCompl iance
Ġcub ic
Ġtoug her
ĠUb untu
B T
Ġ ib
Ġin ception
ĠM AC
ĠL ap
el iness
Ġreg ain
be e
ĠRes idents
Ġprob able
ĠAct s
ĠCra zy
ĠAutom atic
ĠUC LA
Ġinher ited
Ġrescu ed
M ake
a pping
Ġa unt
Ġf ixture
Ġl ump
ĠA MA
ĠH O
ĠR ear
te enth
Ġint oler
Ġdis able
Ġgener osity
âĢ¦ âĢ¦
Ġfav ored
ĠPr ayer
Ġcook er
Ġcompens ate
ĠField s
occ up
Ġprotagon ist
ĠRena issance
p ol
Ġw ont
an ity
Ġin duct
ĠM ole
ĠL or
el ia
ub le
Ġrem ix
Ġsm oked
ĠBl ade
ili ary
place ment
Ġbow ls
with out
Ġlib ert
uls ion
ela ide
Ġcomplement ary
ĠScient ists
ĠBird s
idel ity
Ġs omeday
Ġm ould
ĠD y
ĠR an
us ers
ant on
em b
Ġout ing
ĠY emen
Ġacc ents
Ġyoung sters
Ġobs cure
AM P
Ġdream ed
ĠView s
Ġconstruct ive
Ġdeliber ate
ĠCinem a
l ower
Ġch unk
fe e
ener gy
ĠMon itoring
ĠWin n
ipp ers
Ġsympt om
Ġtun ing
Ġjudge ment
Ġhell o
Ġchrom os
ĠWag ner
Ġunpredict able
b ags
f inal
ĠM ood
ĠB ash
Ġam use
ob ia
Ġblo om
Ġeduc ating
Ġ196 3
ĠBur ton
Ġthick er
Ġsick ness
Ġcooper ate
Ġmini ature
Ġscar ce
Ġdess erts
ĠFeat ured
Ġmos qu
Ġsung lasses
esthes ia
S earch
v ings
at ivity
et e
ĠC rist
ce ls
ĠW iki
ra c
ĠH B
ore t
ri ka
ĠJ S
Ġme ats
oc ative
Ġqu iz
ĠWe alth
Ġafter ward
Ġbl iss
Ġexc lude
ani el
Ġamb ul
ĠTer rit
Ġborrow ed
ĠRand om
Ġadvent urous
ĠAh med
ĠBudd h
Ġexch anged
Ġembra cing
Ġreprodu ce
Ġs igh
ĠS ou
Ġpro jections
ĠR ise
ĠN PR
Ġle aked
Ġj og
ĠâĢľ [
lect ic
ĠAn onymous
itor ium
Ġviol in
ĠFund ing
ĠNAS CAR
Ġenact ed
i ably
l r
ä ¸
ĠC ave
Ġst al
ĠB omb
ĠP ont
ĠR ural
Ġse greg
th reat
fe ren
Ġen forced
og ene
ĠCh in
Ġsub way
Ġcur s
Ġfire fighters
Ġemb ry
Ġfold ing
Wor ks
W D
b as
c ry
u f
an ed
ĠB ing
ĠB uch
ĠW rest
ĠH U
ĠF loyd
ĠG erald
Ġch alk
Ġch unks
ric ular
com pl
orn s
ok o
Ġdr astically
Ġtreat y
ĠRo le
Ġwa iver
IC ES
icon duct
Ġacceler ation
ĠSym pt
ĠLes lie
Ġstamp ed
Ġcous ins
Ġconfidential ity
ĠLanc aster
ĠLiqu id
Â ½
ill on
Ġtra ces
Ġsign atures
ĠPl aintiff
Ġpay day
Ġredu ctions
ograph s
IT ED
ĠRead ers
Ġcapital ism
Ġamb ient
Ġquant um
ĠDor othy
Ġthy roid
Ġsanct uary
Ġredes ign
Ġcomprehe nd
G G
T F
er red
st ars
ro ot
im o
ĠL ud
ĠE UR
ov ich
Ġmod ular
ĠTe ach
Ġparent al
Ġsort ed
Ġmer its
ii i
Ġjack ets
Ġpill ows
Ġacceler ated
IE W
prof its
ĠProble ms
Ġexped ition
ĠCandid ates
v ar
v ideo
Ġs perm
Ġc ath
ĠF CC
ĠL oop
Ġne ural
Ġoff season
Ġra iny
ĠSh annon
Ġspecial s
ĠSy ndrome
ĠSpe ech
Ġsubject ive
Ġrev ival
Ġspread s
ĠEr ror
Ġbes poke
Ġauthent ication
Ġmyth s
Ġcontam inated
Ġcapac ities
ĠWes ley
ĠViol ence
Euro pe
m ag
Ġto pping
ay an
ĠB ened
Ġde cks
Ġsu ms
res pect
Ġen closed
Ġfl or
Ġsk illet
uc ing
Ġpay able
10 1
Ġele phant
ID ENT
Ġthr ust
Ġment ality
ĠAgric ultural
c ards
Ġt ant
Ġf ist
ĠT ube
Ġn ipp
pe ction
ĠN u
ĠG ru
ort ions
cc oli
Ġint roductory
Ġtr out
Ġhome page
Ġbel ts
ĠComp uting
ĠGe off
ĠMus ical
Ġoptim ism
ht m
Ġsoci etal
ĠRap ids
ĠAnsw ers
ĠPier re
M obile
l ab
Ø ±
Ġp ushes
om al
ĠS AT
ĠH ank
ist ine
ĠN aval
Ġch op
Ġab d
ĠCom es
Ġ10 8
ĠSh awn
ale z
ĠMan age
Ġevent ual
pro cess
ĠGu itar
ĠSan chez
fin ished
Ġupgr ading
Ġcircumst ance
ĠHand book
Ġillustr ates
ĠProp het
ĠRecomm end
ĠCris is
Ġasp iring
ĠVik ings
Ġmaneu ver
" ?
B ased
M al
it als
st atic
Ġst ip
ĠF ont
ĠCh anging
ĠCh rys
ise x
Ġsy nd
ĠBe ast
Ġinf erior
ĠMar co
Ġmar riages
Ġpar an
na pping
St art
Ġprem ie
ĠPal in
ĠRel igious
Ġrepe ating
Ġrob bery
izz ard
Ġknock ing
Bl ue
Ġindu ction
Ġdipl oma
i ol
l b
r il
Ġh ij
om ics
st en
Ġn ylon
ist ani
ĠG or
Ġres ilient
ĠSh im
Ġmet adata
Ġes p
ĠBro ck
Ġwar rior
ĠOp in
ĠIN C
Ġwild ly
Ġvill a
Ġtransl ates
ĠOl ivia
ĠAutom otive
Ġunem ployed
L ive
Â »
Ñ Į
ra cuse
Ġwh ip
Ġpro claim
ĠR NA
ĠG os
ĠE rik
ĠU M
Ġco b
ĠDo ors
Ġselect ive
ij i
Ġborrow ers
Su per
ĠWy oming
c all
Ġa ven
Ġo y
ar ate
ĠT weet
ĠI stanbul
ra wn
ĠL C
Ġpl un
Ġcomp ares
ĠV ert
ĠAr med
Ġmot if
IL ITY
Ġcollect s
Ġmention ing
ĠDist ribution
Ġattract s
ĠInvest ors
ĠCath olics
Ġtag ged
Ġdomin ance
Ġdil igence
Ġfundra iser
Cont in
inf o
Ġpedest rian
ĠWend y
Ġskept ical
L I
U nder
ed o
Ġl ur
Ġn oodles
im ag
Ġwe aker
Ġas ylum
Ġres ides
Ġpe renn
Ġsc ans
ov an
ĠWh is
Ġgood ies
Ġday light
ane y
Ġdev otion
ĠRed uce
Ġsolid arity
Ġsimpl ify
ĠLeg acy
Ġtoler ate
Ġrefe rendum
Ġrefrig er
Eng lish
A g
D irect
R el
f ile
w ave
in arian
Ġp c
ĠA j
ad vert
ĠP irates
Ġcon e
ĠL OL
Ġme ga
Ġsa x
Ġcol ony
Ġpar cel
Ġcoll agen
ĠLaw yers
Ġtur f
ĠSur f
Ġutil izes
ĠCap acity
ĠCD s
writ ers
Ġexpend iture
Ġprovin ces
ĠDoll ar
Ġtheat rical
ĠNeigh bor
S atur
w i
Ġs add
al ong
all ow
od or
be h
stand ard
Ġpop ulated
ĠFl owers
Ġexc urs
ĠSun shine
Ġbelong ed
Ġconfig urations
ĠFarm s
Ġwra pping
des igned
Ġlean ing
ĠJen kins
prising ly
Ġitiner ary
B B
h oe
Ġb iking
Ġl an
ig nt
ĠW itch
Ġcom mercially
ĠL ORD
ĠN D
Ġmy st
Ġcl usters
Ġgr im
Ġcor rosion
AT ES
Ġclean up
ĠBar rett
ĠFirst ly
Ġbal d
Ġmer ge
Pl ay
Ã¼ r
Ġgre ase
ĠConne ction
ĠExhib ition
Ġwre ck
Ġcarbohy drates
Ġinjust ice
i ott
u ci
Ġc ate
Ġp ens
Ġd azz
Ġl inger
id ad
ĠG ang
Ġins ur
Ġmin es
Ġmed als
Ġemail ed
Wh ite
Ġge ography
Ġreb els
ĠBur ke
Ġer ad
Ġfavour ites
Ġhyper t
Ġsubsid ies
ĠAnim als
Che ck
Ġfundament als
Ġdilemm a
Ġo bey
Ġb og
Ġl ent
ĠM unicipal
ĠP oke
ĠH ugh
ĠD ro
ĠF lying
Ġcon ceived
ĠSt rip
Ġun used
ish i
Ġche ating
ĠSh in
cent ered
Ġste er
ĠPort al
Ġble nder
Ġlegisl ators
ĠTim ber
ĠHam as
Ġbond ing
Ġfasc inated
ĠImpro vement
Ġpreced ing
third s
Ġincons istent
ĠInj ury
Ġquir ky
T able
c ence
Ġb iod
ĠT iff
ind ex
Ġret ains
ĠEx port
Ġskin ny
ĠBack ground
Ġrecru ited
esty les
Ġshout ing
Ġresign ation
ĠDump ster
d ist
Ġc itation
Ġe ch
ut able
ĠD uration
Ġse wer
ĠJ in
te chn
ĠIn form
Ġinc ub
year s
Ġassist ants
Ġpers ist
Ġsett lements
Ġyouth ful
ĠAuthor ities
ĠInf rastructure
ĠMun ich
Ġb ob
ĠR ash
Ġnot orious
ĠJ A
Ġtra umatic
Ġ5 000
ĠPro ceed
ys on
ason able
Ġche eks
ON S
ĠÂ ¼
IC H
ĠKing ston
Ġver b
ĠBen ch
Ġrail road
ĠLind say
ĠGre ene
Ġirrit ation
bet ween
ĠRap id
arth y
Ġstro kes
E V
N ational
c urrent
f ig
n om
al in
Ġinc ap
ĠCh arter
Ġneed les
Ġcar bs
Ġclean ers
ĠDis p
Ġgra vel
ĠCor inth
ĠRel igion
ĠVen us
ĠIncre ased
Ġshowc asing
ĠProfession als
t v
Ġt ucked
ĠS ke
ĠD ON
Ġcan on
ag rams
Ġup wards
ace y
Ġun real
Ġspe ar
ock ing
ĠEx ternal
ĠInd igenous
ĠCar rie
ĠOff ering
Ġpair ing
Ġbask ets
Ġgather ings
ĠFac ility
ĠRelations hip
Ġbarbe cue
Ġnegot iation
L T
S how
j et
Ġo t
ĠS IM
im ir
ĠD W
ĠD odge
art e
ĠO mega
Ġab rupt
ĠK as
Ġfl uffy
Ġbefore hand
Ġche w
Ġdra gged
Ġgen ome
Ġlock ing
Ġcry stals
Ġsem if
ĠJud y
ĠPan ama
Ġrepet itive
P O
t rad
it ic
st ad
ra ined
ĠD ictionary
Ġse als
est eem
Ġcl er
ĠAd elaide
Ġbook ings
Ġref usal
Ġcap su
ĠTrans form
Ġpartner ing
Ġ196 1
ĠConst ant
ĠProv ides
ĠCraw ford
C all
h on
t em
he e
ĠS isters
Ġst alk
ĠM TV
ne eded
Ġres ent
Ġqu o
ress es
de v
face book
Ġfair ness
ĠPri x
Ġpsych iat
ĠPC s
Ġcop ing
Ġflood s
Ġfacilit ating
sa fe
Ġceremon ies
O rig
r ator
Ã ¥
Ð ¼
Ġ ì
es ame
ĠI van
ĠP ale
ĠG ET
cept ive
Ġpass ions
Ġdi ary
Ġgrad ual
Ġkitchen s
Ġtim er
Ġcontext s
Ġouts ourcing
Ġunde rest
Ġdiarr hea
A c
l inks
Ġd ancer
ch ard
ĠM ask
ĠH il
ĠH ass
ĠD N
ĠD ot
ĠV as
int ers
Ġcur tains
Ġdra ined
Ġnews letters
ĠPr ison
Ġmor ality
Ġtext books
Ġâ ĺ
Ġreb ound
ĠÐ ¿
ĠShort ly
Ġantib ody
Ġspir al
ĠStra ight
Ġtorn ado
ĠDesk top
ĠGram my
squ are
l ation
Ġd ermat
Ġon board
Ġor phan
ĠG ast
Ġad ore
ĠZ ip
ĠComm ander
ĠMe at
Ġvol leyball
Ġexc uses
Ġentire ty
Ġstri ker
ĠEven ing
Ġbur gers
Ġble nding
ĠSal em
Ġdivor ced
Ġpadd le
Ġvib ration
cond ition
i age
on ent
Ġc ite
ing les
Ġl ith
Ġpro se
act ivity
ff le
end ers
Ġteam ed
Ġmean ings
Ġprob ation
Ġvol cano
ex p
Ġment ors
Ġfuck ed
ĠRa iders
Ġaggress ion
ĠSS L
Ġelectron ically
Ġfilmm aker
psy ch
Ġcondem n
Ġsubur bs
it an
an mar
Ġd war
Ġor gas
ĠR N
ĠL af
Ġpost season
Ġreal izes
ĠUS S
Ġcra ving
gu ards
Ġuns afe
ĠDev on
Ġblank ets
c ot
Ġhe ir
ĠH M
ie u
ert ility
ĠAd ults
Ġsl opes
ĠZ oe
ĠGod s
Ġpain ts
ĠQu ad
ĠPre vent
Ġbal ances
verse ly
Ġmaster piece
Ġmort gages
ĠAdv ice
Ġnurs ery
Ġphotograp hed
Ġta pping
Ġscholar ly
C N
N ovember
P ower
T ake
W as
Ġb idding
Ġpro jection
ĠL one
are a
ĠChrist ina
load ing
ĠCont ents
ĠPark inson
Ġcommercial s
ĠCr usher
ĠPC I
Ġadapt ive
ĠLight ing
sm anship
Pl us
Ġgreet ing
Ġfemin ist
Ġtreas ures
ĠIngred ients
c ourt
d uty
t ake
Ġ ion
Ġt apes
Ġs erm
Ġm uc
Ġd rones
Ġl on
Ġhe ars
if ty
Ġal coholic
ĠRe con
ĠSh oes
Ġsk et
ĠSc and
Ġblack jack
ĠRom ance
LA Y
ĠSaf ari
Ġpil gr
ĠAndrew s
Ġunw illing
Ġpossess ed
Ġreferr als
hol m
Y ear
b ies
Ġd welling
ĠW ife
ill as
ĠL IM
Ġcan ada
ĠK au
gr ass
ty ard
Ġsuccess ion
ĠGerm ans
Ġflav ours
ĠEp ic
unicip ality
Ġash amed
Ġinterrupt ed
Ġsovere ign
R NA
c um
c ultural
g row
n ick
Ġre iter
ĠB row
us k
ĠG oth
ĠK ash
Ġ10 6
Ġstand point
ĠAm en
Ġvac ant
ĠProv ince
ĠDev ils
Ġguard ian
ĠImpro ved
Ġindu ce
Ġstack ed
Ġcapsu le
a S
p arent
t ax
Î ¿
Ġa isle
Ġp ixel
ar l
ĠG ig
ant o
ĠSt ruct
Ġsp ider
any a
Ġchar ger
Ġve in
ĠPar am
ĠClass es
ĠMil ton
ĠStart ed
ĠTre nds
Ġcolour ful
Ġspr inkle
ĠPract ices
Ġzomb ie
Ġaccus ations
Bus iness
Ġs addle
al ore
ĠP ierce
ĠH ers
ld om
th y
Ġ2 25
Ġex ceeds
Ġout ward
ick r
Ġcur ated
ĠAll ison
Ġmarket ed
uss ia
ote ch
Ġcra cking
ĠPre par
ĠInc lude
lt ers
Ġinsp ires
Ġemer gencies
Ġbright ness
Ġelimin ates
ĠMA Y
ĠNik on
ĠDod gers
Ġli abilities
J ack
P ay
b ishop
l ords
Ġm as
ent ric
ĠC ult
ver ts
ĠB iblical
ĠB oulder
ĠD one
Ġbu ys
Ġunder wear
co at
Ġeduc ator
Ġcamp uses
ĠQu art
Ġmag nesium
medi ately
Ġcredit ors
Ġsecret ly
OUN D
Ġnomin ations
Ġwrink les
ĠCarne gie
K O
Ġst ained
ĠM U
ĠB one
ĠL um
all i
Ġall y
ĠK umar
ĠWe llington
Ġtr ilogy
ik er
Ġsal v
Ġste als
Ġmiss iles
Ġbed ding
Ġcontract ed
ari us
Ġatmosp heric
ĠClay ton
Ġembod iment
Ġnause a
V al
k t
p ical
Ġw ired
ar cer
Ġand roid
Ġl ongevity
ĠG ir
Ġro oft
rit ical
ik ed
ĠSy racuse
ĠJe ep
Ġland lord
Ġinde fin
Ġamazing ly
AD E
Ġtruth s
ĠEr in
Ġje opard
ĠBudd y
ĠInsp ired
ĠGonz alez
Ġantioxid ants
f ed
Ġf ren
om ers
ci pro
ĠU PDATE
ip ur
Ġcont amin
ĠRe in
rib e
Ġexp ired
Ġpartic le
Ġtem ples
IT ION
Ġscreen ed
Ġqual itative
Ġsen ator
Ch ina
Ġaccident al
Ġoccup y
col m
Ġphotograph ic
ĠBre nd
ĠPerform ing
Ġaggress ively
Ġru ined
Ġconsolid ation
Ġmerc ury
Ġaspir ations
Ġcoh ort
% ).
C s
S an
c od
f elt
g ard
Ġp ans
Ġd ar
ro v
se nd
ĠM W
Ġ2 10
ant ing
ĠE A
Ġso fter
ĠSt amp
ĠRe b
Ġinv itations
Ġdet ained
âĢ¦ )
ĠCol le
ec d
Ġtem p
Ġrepresent ations
Ġexpress ly
Ġstar red
car bon
Ġrecon struction
Ġcompe lled
vit ra
ĠBron cos
ĠSpot ify
ĠPent agon
Ġinfring ement
ĠFerr ari
, .
G r
r ights
re ra
it ous
ĠA unt
im son
ĠD ates
ort al
Ġun m
Ġpe cul
Ġ19 48
Ġbo ast
Ġann ot
ĠMy stery
augh ty
Ġce real
Ġce ilings
vis ions
Ġentertain ed
ĠCy cle
Ġmel ting
Ġneighb ours
ĠCand y
Ġpla que
Ġstun ned
Ġpredecess or
paralle led
" ),
M onday
W ed
Ġm ug
se at
ĠP ly
Ġas bestos
ĠH ann
ĠL un
os i
oc he
ĠV end
Ġback ward
Ġteam mate
Ġob jection
Ġcor al
Ġeconom ist
ox ide
ĠHer oes
Ġ40 1
Ġemb ell
Ġconc ise
ĠUp dates
su per
ĠPat ricia
ĠBusiness es
sp oken
Ġfrequ encies
IP S
ĠMatthew s
Ġhes it
mid t
A nt
b en
ĠT error
Ġbe et
ĠN ames
Ġcan ned
ĠFor get
Ġdist raction
Ġexc luding
Ġprint able
Ġpsych ologist
Ġshut down
Ġsouth west
ĠFil ter
ĠSav ings
Ġalph abet
Ġameric an
Ġreminis cent
D ec
M ac
Å «
ĠM RI
ĠH BO
ĠF D
th inking
Ġr inse
ĠO D
Ġch rome
att ers
Ġcost ing
Ġvol atile
RE CT
Ġpray ed
Ġoccup ational
ĠHard y
Ġwra ps
ĠVeter inary
Ġcraw l
ĠAdministr ative
Ġrenov ated
Ġenzy me
Ġilleg ally
ĠFail ure
ĠEther net
ignt y
h im
r unning
z ema
Ġc ros
is ch
Ġin h
ĠH earing
Ġde hyd
us ually
ĠO THER
ies el
ĠJ ared
ag ged
Ġqu arant
lic ted
Ġ19 47
ĠNew man
Ġdisc s
Ġrun way
ĠShe pherd
Ġcoll ateral
ops is
Ġdest ined
agn etic
ograp hers
Ġrub bish
Ġmel od
On line
ĠPow ered
aceut icals
Ġspont aneous
Ġpecul iar
ic ates
Ġbe ard
ĠC AD
ĠC oup
ur l
aw ks
ĠPl ain
Ġpat ented
Ġbre wing
ok u
cu ador
Ġfore head
ĠComp at
ĠAb bey
ĠOff ers
Ġbur nt
mark ed
ĠSol o
Ġdiscover ies
ĠPass ion
ĠDur ham
qual ified
Ġretrie ve
H O
w yn
ĠA J
ĠL ines
Ġr ay
Ġcur ved
cent ric
ĠInc orpor
ĠSim mons
Ġstress es
ĠRom ania
Ġwid ow
Ġflood ed
Ġstim ulating
ĠAccount s
ĠTam il
Ġshowc ases
Ġfright ening
ĠBald win
R ock
Ä «
Ġh atch
ĠW id
ĠD il
est ead
iv ation
Ġk ernel
ĠTh u
cc o
ĠSe al
ĠSe qu
Ġright ly
Ġend angered
Ġfam ed
Ġcur ry
ĠIs le
Ġbre eds
cl amation
aster y
back ed
zz i
Ġing en
inte gr
ĠRick y
bird s
. /
ĠD uck
ld on
Ġcomm ute
Ġ19 42
ĠCol our
Ġ11 2
ĠDis ability
Ġfa ulty
ĠMatt ers
ĠAtt ack
ĠSign s
Ġconsequ ently
ĠCreat or
ĠDani els
ĠPalest ine
ĠBudd ha
Ġdrum mer
ĠRail way
ropract ic
Ġallevi ate
Satur day
? ).
T uesday
r anked
on ies
Ġb ac
Ġst aged
ĠP erman
Ġan ecd
ĠD ong
ĠF iber
ĠR ising
Ġall ot
Ġso ber
az ar
Ġve ins
ĠMar ian
ĠChar ge
ĠDem ocracy
Ġnut rit
ĠDevelop ing
ĠReal ty
ĠSand ra
ĠDoes n
Ġbelong ings
Ġ195 7
ĠMir ror
Ġcompos itions
ĠNat alie
rec ord
div ision
Ġaston ishing
Ġpou ltry
ĠMathem atics
Ġhydra ulic
d aughter
ĠP G
ĠN V
Ġpo ised
Ġtrans cription
Ġpar ap
ĠDec ision
ĠBur g
ĠHam mer
ĠNeed less
ĠRegard ing
ĠFrequ ently
Ġin mates
ĠT RA
Ġst umbled
Ġwe eds
pp le
iv ate
Ġpl ots
Ġ3 20
up unct
Ġop io
Ġcustom izable
Ġca ption
ĠMar ion
ĠCan al
Ġfoot wear
Ġstandard ized
Ġur gency
Ġtack ling
Ġdiscl aim
Ġdispos able
Ġfib re
ĠFran co
f inder
Ġl act
ĠT ac
ĠT ong
ĠI Q
Ġre use
ĠP VC
ĠW ald
ĠR ED
ĠG ather
Ġsub strate
Ġside walk
Ġspecific s
Ġcomb ust
ĠSm ooth
ĠAut hors
14 0
18 3
Ġsand y
ĠMer ry
Ġcompar ative
ĠSecond ary
Ġmut ations
ĠPot ential
ĠAp ost
ĠAp ache
ĠBull dogs
ĠAh mad
Ġperm itting
Ġmunicipal ities
Ġdupl icate
Ġpestic ides
Ġsaus age
Ġst ared
ĠF olk
Ġcon ventions
ĠR id
ĠG ri
ne a
ph al
Ġgu itars
und ay
Ġdisc overs
Ġdist ancing
Ġmus cular
mm m
Ġones elf
amb a
zz a
Ġlock smith
ĠSal on
ĠNE WS
Ġid ol
ubs cribe
Ġteasp oons
ĠRivers ide
ĠCamb odia
f ax
Ġs ixty
Ġf uss
ent e
ĠG inger
ĠU W
ĠY outube
ĠK ab
ĠCh ang
Ġem an
Ġbl ows
Ġmon key
Ġend ured
Ġlist ener
sh ield
sy stem
ĠPol ic
Ġrad ius
ĠBlack Berry
Ġemp owered
Al though
ĠCL ICK
ĠCos m
Ġpenet ration
Ġkilomet res
Ġneur ons
ĠFIF A
d ia
g ue
l ate
w ait
in ars
Ġf riction
ig ible
ĠD iversity
ĠR ac
Ġj elly
Ġno isy
Ġadd icted
uck ing
ĠRo oms
ai res
play ing
Ġred emption
Ġfire arms
hel ial
fl ows
ĠSk i
Ġenhance ments
ĠUt il
ĠFact or
ĠHold ings
ĠPric ing
appro ved
ĠDefin itely
Ġsatur ated
ĠDru gs
ĠRug by
3 60
P aul
S em
b uster
v on
Ġw ig
or ical
ĠC oo
Ġhe ft
ĠO L
ci le
Ġtra ps
Ġbusiness man
ĠMy anmar
min ster
-- -
ĠBrown s
Ġrat ios
Ġune ven
Ġconfirm ing
ĠKey words
ÃŃ a
ĠEll iott
Ġantib iotic
Ġflaw ed
ĠIntegr ation
ĠPros pect
ĠStreng th
g io
l anguage
Ġf aux
ĠC OR
im port
Ġst itches
ĠD L
ort on
Ġk idding
Ġev apor
ner g
Ġ10 7
ins ured
Ġexp osing
Ġsl am
ĠDr ama
16 0
Ġpictures que
Ġmechan ic
Ġdish on
ĠFun ny
Ġnic otine
Ġfraud ulent
may be
Ġexpend itures
Ġdisadvant age
Ġenzy mes
Jan uary
fashion ed
c ool
ï ¸
it at
Ġto mb
Ġg ases
ĠM K
ĠH undred
Ġk et
ĠSt ats
port ion
Ġind ict
Ġimp osing
ĠInd oor
Ġspace craft
ĠChar ity
bour g
sm all
Ġcro re
Ġnegoti ated
quir ies
Ġparam eter
ĠChall eng
ĠJoy ce
Ġcataly st
depend ent
B et
H ub
I AN
m and
w right
ĠT at
ĠN uclear
Ġsu cked
ĠJ ak
ĠV ERY
ft s
cl osures
sw ire
ĠPar ade
ĠOut standing
Ġdream ing
ĠMod els
ĠKim ber
Ġbell s
ĠCry pt
Ġentrepreneurs hip
Ġarbit rary
Ġdigest ion
Ġepid em
Ġvamp ire
W AY
Ġt int
Ġp uff
Ġn in
id is
ĠB ie
ĠH ernand
ri v
Ġrest ruct
Ġtest ament
10 5
ĠComm unities
ĠComp ared
Ġdeep est
Ġinvestig ator
mark ets
Ġstrateg ically
ĠCur ry
ĠTop ics
Ġestablish ments
Ġ195 9
ĠHon estly
Ġsynt hes
Ġtempt ation
Ġcondem ned
ĠTransl ation
Ġcorrid or
ĠBever ly
Pac ific
P at
w ild
Ġre juven
Ġy ell
ĠH ollow
pp ery
ĠG one
Ġcar cin
Ġadv ising
Ġchar coal
the m
10 16
Ġfore see
ĠDem and
ĠSpr ay
Ġthank ed
ĠCard inal
ĠFund s
ĠCre ation
ĠHD MI
Ġpump ing
ĠAB OUT
Ġdeleg ation
Ġdeleg ates
Ġsymp athy
ĠSoph ie
flo or
Ġub iqu
Ġf ries
ol ta
Ġall oy
pl aced
Ġem ission
Ġke eper
Ġbr ushes
ĠEx pos
ĠBo oth
Ġlay ered
Ġstri ving
Ġobs ess
23 3
bl ue
Ġtrail ers
mat ched
agg ering
ĠLif etime
ĠâĹ ı
Ġjour neys
b ai
Ġb ak
ĠT ang
Ġn ar
ĠS essions
id as
ig or
ĠR w
ĠN ate
ĠN urse
Ġso ils
ĠâĢľ âĢ¦
Ġdon ating
ĠAl ert
min ent
Ġmar itime
Ġlim bs
Ġcompet ed
ĠSy mb
Ġmultip layer
ĠCO L
Ġremind ing
loc al
** *
ĠBang kok
Ġstrengthen ed
ĠGuarant ee
V EL
o j
Ġm ul
ĠT T
Ġn avy
ĠB il
ĠP BS
ĠH idden
Ġha cking
our ced
ĠK ard
ink y
Ġpr ince
Ġrest oring
ĠGo als
ĠGr ants
Ġgen etics
Ġstri pes
Ġsat isfactory
Ġacqu aint
ĠAnt ar
DA Q
Ġforeign ers
Ġarrest s
ĠOrgan izations
Ġmel ody
Ġtut or
Ġcoordin ating
Ġdin ners
ĠBagh dad
! ,
b ach
Ġm u
ĠT in
ĠA zer
Ġtr am
ĠSc ale
Ġeconom ists
Ġste wards
do ing
Ġrev ital
Ġsweet ness
Ġfol iage
Ġship ments
ĠMel an
ĠLog in
Ġuniform s
ĠCli ents
ĠRain bow
Ġcommod ities
Ġnort heast
ĠTanz ania
ĠPors che
ĠTuc son
C or
l ins
o other
Ġw izard
Ġf ox
Ġin sec
Ġh ust
ĠC yn
ĠM um
ĠY ORK
og ens
Ġam using
Ġsy ll
ars ity
Ġhist ories
Ġcal end
ĠDep ot
Ġfant as
Ġbrief ing
Ġfilter ing
ĠBru ins
Ġpodcast s
Ġdefect ive
blo gs
Bu ild
Ġreferen ced
F ind
b ike
p resent
à ª
Ġ Ä
Ġp aved
Ġm ansion
ic ides
ĠA ce
am ac
ĠF en
us a
ĠL OT
Ġad orn
ĠV ul
Ġjust ification
Ġrec ess
gg le
Ġext ras
Ġfr aming
Ġ12 00
Ġequ als
IN S
ĠFe ature
Ġcondition er
ĠSub st
ĠFore ver
ĠGrand e
Ġju icy
Ġamb itions
Ġ195 8
ĠAR M
ĠPrin ciples
Ġcompr ise
ĠHost ing
Des ign
s ided
Ġt ed
Ġre el
ot ions
ĠP ST
ĠN ixon
Ġyour selves
ĠJ ed
iz ards
be fore
Ġcor ps
ĠFl ood
Ġ13 5
Ġ17 5
ĠRel ax
ĠMal colm
Ġrain fall
ĠMcC arthy
ĠSure ly
Ġcycl ists
ĠChance llor
Ġvou cher
Ġmidfield er
ĠVenezuel a
unci ation
O pen
Ġ Ï
ro b
Ġu m
ĠP atch
ĠR aleigh
os cope
Ġcl utter
Ġcur se
Ġchar ism
Ġty ing
Ġlet t
Ġcr ank
ĠOr al
Ġterm inate
AT H
Ġcompet ence
Ġdepend ence
su pp
Ġcopy ing
Ġbow ling
Ġbomb ing
ĠER P
Ġantioxid ant
Feb ruary
S w
f un
Ġw iped
Ġy ummy
ĠS ag
il is
Ġst ing
ĠD w
ĠF ool
ĠR are
ĠO VER
Ġal uminium
og o
Ġcur rencies
ĠDav ies
ĠDist ance
Ġtransl ations
ĠBas in
De cember
ĠPow ers
Ġdent istry
ĠPed ro
Ġgast ro
ĠPs alm
ĠSympt oms
e on
p ict
t ub
Å į
Ġf rench
ĠM UST
ĠV iv
Ġun paralleled
com mit
Ġret iring
Ġsl ate
Ġrep ent
Ġcustom ization
Ġperiod ic
Ġobs ervers
Ġinform ational
ĠMcC on
Ġrefe ree
ĠPhill ies
ĠCoc onut
ĠSustain ability
Ġswift ly
b rain
h p
u ber
ĠB ac
ĠW idth
ac erb
ĠLe gends
cent er
Ġide als
ĠPart ies
ĠHar old
Ġcool ed
Ġprevent ive
Ġreb oot
Ġbath s
Ġhar bor
bl ood
Ġbul lets
ĠHam pton
Ġtempt ing
ĠIdent ify
Ġstraw berry
Ġstraw berries
UC K
ĠHem p
Ġpupp ies
Ġaddict ive
ĠT ub
im acy
ĠD EC
ĠF HA
ĠR anger
and em
od s
Ġj ars
Ġind ications
Ġdec isive
gg ie
Ġinter cept
ĠCol ors
Ġhum our
sw ick
Ġident ifiable
Ġbow el
Ġdoctor al
ĠCustom s
Ġdish washer
Ġcolumn ist
Ġrecon ciliation
Ġthigh s
ĠSebast ian
: :
e ye
l bs
m ight
s burg
Ġb ait
an che
ĠP f
ĠW arning
pp e
ĠE cuador
Ġal ley
Ġle gends
Ġtw ists
ting ham
Ġra pper
Ġbl unt
ĠBl ank
ider y
ĠEl vis
Ġut er
Ġharm less
cont ent
Ġadvis able
Ġscreens hot
Ġroy alty
ĠClaim s
h at
h are
Ġbe ams
ĠB ills
ĠH amb
pe x
ĠN R
ĠG ad
ĠTh reat
ick y
ob iles
Ġday time
Ġfam ously
Ġform ulated
Ġsign aling
Ġsl ick
Ġfore nsic
Ġcomfort ing
Ġbur ial
ĠJoe y
Ġdefend ers
Ġbear ings
Ġconver ter
ĠTerm inal
NE W
ĠBelg ian
Ġrighteous ness
ĠAur ora
ĠEug ene
ĠPLE ASE
s ch
Ġp ores
Ġe g
ĠS G
ĠC OUN
ĠP B
ul ators
ric anes
Ġhand ing
Ġplan ners
Ġcor rections
Ġsal ads
rop olis
Ġweb cam
Ġcir cuits
Ġappe aled
Ġpropos es
ĠSol omon
ĠTre vor
Ġid i
och ond
ĠFac ilities
ĠPers ian
Ġsculpt ures
ĠBoo st
Ġunch anged
f acing
s n
Ġt idy
Ġthe r
en os
Ġh rs
ĠT ables
ĠD rain
ĠF ul
ab ol
Ġne uros
ans om
Ġar che
Ġshe lters
Ġunder went
Ġsur real
Ġinter rog
ĠPl ants
Ġpos ing
ĠRes erv
ĠMar in
ator ial
Ġbenef ited
ĠSatur days
ĠBook ing
ĠMac Book
Ġunc ont
ĠBrand s
Ġhall way
ĠSav annah
Ġgrocer ies
Ġencry pted
Ġenerg ies
Ġcav ity
R ight
S N
l ance
Ġa il
he umat
id ian
ĠP P
ĠP ocket
ĠThe m
ĠD UI
ud ing
Ġdo c
Ġsp raw
Ġun beat
Ġover lap
Ġro pes
Ġdif fers
Ġclass mates
ĠAv ailability
ĠCr us
ĠMean ing
ĠFar go
Ġdispl aced
ĠNob el
Ġaest hetics
ĠPain ting
Ġinject ed
Ġwand ering
mun ition
M att
f ruit
ĠI RA
ĠS ah
ĠC ourses
ol utions
Ġse ldom
ĠG in
ĠG ly
reat ment
we i
Ġmet ropolitan
Ġsw ings
Ġ-- -
Th ursday
Ġvol atility
ĠHar ley
ground s
Ġord in
Ġcross es
Ġremind ers
ĠSl ot
ĠHol idays
Ġinstruction al
ighth ouse
Ġaccum ulation
Ġintrig ued
ĠBeat les
Ġimprison ment
Ġinfluen za
Ġbudd ies
U AL
t ight
y o
Ġp als
Ġp ony
ĠS ector
ĠH oo
ac et
ĠK L
ĠK atherine
Ġun a
Ġun related
itt ings
Ġra z
Ġsol itary
Ġdem ons
Ġquestion naire
ĠPe rez
ĠMark s
gu ided
Ġbud s
Ġhour ly
Ġtur bo
ĠForm s
ĠDri vers
Ġjack pot
rid ges
Ġtact ic
ĠTele phone
ĠDream s
ĠHay es
Ġswall ow
S ign
r ations
le arning
ĠR ig
Ġat ro
est hetic
th ora
ĠL IF
od ka
ĠTh ought
Ġget away
Ġ10 9
Ġcontin uation
ĠEx clusive
ĠInst itution
ĠDr um
ĠLa un
amm ers
see ing
Ġreb el
Ġpsych iatric
Ġsav vy
ĠBuild er
ĠPenn y
Ġfing ert
Ġhorr ific
R et
b ol
Ġcon qu
Ġch ores
Ġinc arcer
ĠSt ap
oy a
ĠAl umni
ĠBe lla
ĠBe ef
Ġdifferent iate
Ġext r
Ġwater ing
ĠMe ga
Ġbas in
Ġprogress ed
Ġec lectic
ÃŃ t
ĠPak istani
Ġhel pless
Ġkiss ing
[...]
