{
  "version": "1.0",
  "truncation": null,
  "padding": null,
  "added_tokens": [],
  "normalizer": null,
  "pre_tokenizer": {
    "type": "ByteLevel",
    "add_prefix_space": true,
    "trim_offsets": true,
    "use_regex": true
  },
  "post_processor": null,
  "decoder": null,
  "model": {
    "type": "BPE",
    "dropout": null,
    "unk_token": null,
    "continuing_subword_prefix": null,
    "end_of_word_suffix": null,
    "fuse_unk": false,
    "byte_fallback": false,
    "ignore_merges": false,
    "vocab": {
      "<|endoftext|>": 0,
      "!": 1,
      "\"": 2,
      "#": 3,
      "$": 4,
      "%": 5,
      "&": 6,
      "'": 7,
      "(": 8,
      ")": 9,
      "*": 10,
      "+": 11,
      ",": 12,
      "-": 13,
      ".": 14,
      "/": 15,
      "0": 16,
      "1": 17,
      "2": 18,
      "3": 19,
      "4": 20,
      "5": 21,
      "6": 22,
      "7": 23,
      "8": 24,
      "9": 25,
      ":": 26,
      ";": 27,
      "<": 28,
      "=": 29,
      ">": 30,
      "?": 31,
      "@": 32,
      "A": 33,
      "B": 34,
      "C": 35,
      "D": 36,
      "E": 37,
      "F": 38,
      "G": 39,
      "H": 40,
      "I": 41,
      "J": 42,
      "K": 43,
      "L": 44,
      "M": 45,
      "N": 46,
      "O": 47,
      "P": 48,
      "Q": 49,
      "R": 50,
      "S": 51,
      "T": 52,
      "U": 53,
      "V": 54,
      "W": 55,
      "X": 56,
      "Y": 57,
      "Z": 58,
      "[": 59,
      "\\": 60,
      "]": 61,
      "^": 62,
      "_": 63,
      "`": 64,
      "a": 65,
      "b": 66,
      "c": 67,
      "d": 68,
      "e": 69,
      "f": 70,
      "g": 71,
      "h": 72,
      "i": 73,
      "j": 74,
      "k": 75,
      "l": 76,
      "m": 77,
      "n": 78,
      "o": 79,
      "p": 80,
      "q": 81,
      "r": 82,
      "s": 83,
      "t": 84,
      "u": 85,
      "v": 86,
      "w": 87,
      "x": 88,
      "y": 89,
      "z": 90,
      "{": 91,
      "|": 92,
      "}": 93,
      "~": 94,
      "¡": 95,
      "¢": 96,
      "£": 97,
      "¤": 98,
      "¥": 99,
      "¦": 100,
      "§": 101,
      "¨": 102,
      "©": 103,
      "ª": 104,
      "«": 105,
      "¬": 106,
      "®": 107,
      "¯": 108,
      "°": 109,
      "±": 110,
      "²": 111,
      "³": 112,
      "´": 113,
      "µ": 114,
      "¶": 115,
      "·": 116,
      "¸": 117,
      "¹": 118,
      "º": 119,
      "»": 120,
      "¼": 121,
      "½": 122,
      "¾": 123,
      "¿": 124,
      "À": 125,
      "Á": 126,
      "Â": 127,
      "Ã": 128,
      "Ä": 129,
      "Å": 130,
      "Æ": 131,
      "Ç": 132,
      "È": 133,
      "É": 134,
      "Ê": 135,
      "Ë": 136,
      "Ì": 137,
      "Í": 138,
      "Î": 139,
      "Ï": 140,
      "Ð": 141,
      "Ñ": 142,
      "Ò": 143,
      "Ó": 144,
      "Ô": 145,
      "Õ": 146,
      "Ö": 147,
      "×": 148,
      "Ø": 149,
      "Ù": 150,
      "Ú": 151,
      "Û": 152,
      "Ü": 153,
      "Ý": 154,
      "Þ": 155,
      "ß": 156,
      "à": 157,
      "á": 158,
      "â": 159,
      "ã": 160,
      "ä": 161,
      "å": 162,
      "æ": 163,
      "ç": 164,
      "è": 165,
      "é": 166,
      "ê": 167,
      "ë": 168,
      "ì": 169,
      "í": 170,
      "î": 171,
      "ï": 172,
      "ð": 173,
      "ñ": 174,
      "ò": 175,
      "ó": 176,
      "ô": 177,
      "õ": 178,
      "ö": 179,
      "÷": 180,
      "ø": 181,
      "ù": 182,
      "ú": 183,
      "û": 184,
      "ü": 185,
      "ý": 186,
      "þ": 187,
      "ÿ": 188,
      "Ā": 189,
      "ā": 190,
      "Ă": 191,
      "ă": 192,
      "Ą": 193,
      "ą": 194,
      "Ć": 195,
      "ć": 196,
      "Ĉ": 197,
      "ĉ": 198,
      "Ċ": 199,
      "ċ": 200,
      "Č": 201,
      "č": 202,
      "Ď": 203,
      "ď": 204,
      "Đ": 205,
      "đ": 206,
      "Ē": 207,
      "ē": 208,
      "Ĕ": 209,
      "ĕ": 210,
      "Ė": 211,
      "ė": 212,
      "Ę": 213,
      "ę": 214,
      "Ě": 215,
      "ě": 216,
      "Ĝ": 217,
      "ĝ": 218,
      "Ğ": 219,
      "ğ": 220,
      "Ġ": 221,
      "ġ": 222,
      "Ģ": 223,
      "ģ": 224,
      "Ĥ": 225,
      "ĥ": 226,
      "Ħ": 227,
      "ħ": 228,
      "Ĩ": 229,
      "ĩ": 230,
      "Ī": 231,
      "ī": 232,
      "Ĭ": 233,
      "ĭ": 234,
      "Į": 235,
      "į": 236,
      "İ": 237,
      "ı": 238,
      "Ĳ": 239,
      "ĳ": 240,
      "Ĵ": 241,
      "ĵ": 242,
      "Ķ": 243,
      "ķ": 244,
      "ĸ": 245,
      "Ĺ": 246,
      "ĺ": 247,
      "Ļ": 248,
      "ļ": 249,
      "Ľ": 250,
      "ľ": 251,
      "Ŀ": 252,
      "ŀ": 253,
      "Ł": 254,
      "ł": 255,
      "Ń": 256,
      "Ġt": 257,
      "Ġa": 258,
      "in": 259,
      "he": 260,
      "re": 261,
      "on": 262,
      "Ġthe": 263,
      "er": 264,
      "Ġs": 265,
      "Ġw": 266,
      "at": 267,
      "Ġo": 268,
      "nd": 269,
      "Ġc": 270,
      "it": 271,
      "or": 272,
      "es": 273,
      "ou": 274,
      "is": 275,
      "en": 276,
      "Ġf": 277,
      "ing": 278,
      "Ġb": 279,
      "Ġp": 280,
      "an": 281,
      "ed": 282,
      "Ġto": 283,
      "al": 284,
      "Ġm": 285,
      "ar": 286,
      "Ġand": 287,
      "Ġin": 288,
      "Ġof": 289,
      "Ġd": 290,
      "ic": 291,
      "Ġh": 292,
      "le": 293,
      "as": 294,
      "om": 295,
      "ion": 296,
      "Ġth": 297,
      "âĢ": 298,
      "ll": 299,
      "Ġl": 300,
      "ent": 301,
      "ĠT": 302,
      "ĠI": 303,
      "ve": 304,
      "Ġe": 305,
      "Ġre": 306,
      "st": 307,
      "Ġn": 308,
      "ro": 309,
      "Ġy": 310,
      "Ġg": 311,
      "ly": 312,
      "ct": 313,
      "Ġbe": 314,
      "ĠS": 315,
      "ĠA": 316,
      "Ġyou": 317,
      "et": 318,
      "ut": 319,
      "Ġis": 320,
      "ot": 321,
      "id": 322,
      "Ġon": 323,
      "Ġfor": 324,
      "ay": 325,
      "ĠC": 326,
      "ow": 327,
      "ur": 328,
      "se": 329,
      "im": 330,
      "ce": 331,
      "ad": 332,
      "ig": 333,
      "am": 334,
      "ver": 335,
      "Ġthat": 336,
      "Ġu": 337,
      "ch": 338,
      "ith": 339,
      "il": 340,
      "Ġst": 341,
      "ation": 342,
      "ĠM": 343,
      "ol": 344,
      "âĢĻ": 345,
      "Ġwith": 346,
      "ir": 347,
      "Ġit": 348,
      "Ġhe": 349,
      "ĠB": 350,
      "ĠP": 351,
      "ĠThe": 352,
      "Ġwe": 353,
      "ĠW": 354,
      "ra": 355,
      "Ġan": 356,
      "ill": 357,
      "Ġwh": 358,
      "Ġas": 359,
      "ers": 360,
      "ke": 361,
      "Ġpro": 362,
      "if": 363,
      "ĠH": 364,
      "Ġare": 365,
      "Ġha": 366,
      "ter": 367,
      "ĠD": 368,
      "ge": 369,
      "ĠF": 370,
      "Ġcon": 371,
      "oo": 372,
      "ld": 373,
      "Ġor": 374,
      "her": 375,
      "ul": 376,
      "ess": 377,
      "ate": 378,
      "pp": 379,
      "ĠR": 380,
      "ck": 381,
      "Ġcom": 382,
      "Ġat": 383,
      "Ġse": 384,
      "ore": 385,
      "est": 386,
      "ment": 387,
      "Ġ1": 388,
      "ri": 389,
      "Ġde": 390,
      "us": 391,
      "ĠâĢ": 392,
      "igh": 393,
      "ab": 394,
      "th": 395,
      "rom": 396,
      "Ġ2": 397,
      "ĠL": 398,
      "Ġwas": 399,
      "Ġne": 400,
      "ist": 401,
      "Ġ(": 402,
      "pe": 403,
      "Ġex": 404,
      "un": 405,
      "ĠN": 406,
      "ĠG": 407,
      "ant": 408,
      "ĠE": 409,
      "ity": 410,
      "qu": 411,
      "Ġsu": 412,
      "Ġv": 413,
      "Ġhave": 414,
      "ive": 415,
      "res": 416,
      "Ġyour": 417,
      "ort": 418,
      "Ġ-": 419,
      "op": 420,
      "Ġr": 421,
      "em": 422,
      "art": 423,
      "ĠO": 424,
      "ain": 425,
      "Ġthis": 426,
      "ust": 427,
      "Ġfrom": 428,
      "nt": 429,
      "Ġnot": 430,
      "Ġsh": 431,
      "um": 432,
      "el": 433,
      "Ġal": 434,
      "os": 435,
      "ies": 436,
      "Ġch": 437,
      "Ġby": 438,
      "Ġcan": 439,
      "ight": 440,
      "and": 441,
      "Ġwill": 442,
      "ome": 443,
      "Ġle": 444,
      "all": 445,
      "ard": 446,
      "out": 447,
      "ie": 448,
      "ould": 449,
      "ud": 450,
      "Ġab": 451,
      "Ġdo": 452,
      "Ġwor": 453,
      "red": 454,
      "our": 455,
      "ally": 456,
      "iv": 457,
      "ĠJ": 458,
      "gh": 459,
      "Ġpl": 460,
      "ost": 461,
      "te": 462,
      "Ġall": 463,
      "od": 464,
      "rou": 465,
      "Ġj": 466,
      "ci": 467,
      "ide": 468,
      "ast": 469,
      "ear": 470,
      "ak": 471,
      "00": 472,
      "'s": 473,
      "ine": 474,
      "Ġk": 475,
      "ag": 476,
      "Ġso": 477,
      "ure": 478,
      "per": 479,
      "Ġhas": 480,
      "fe": 481,
      "ĠTh": 482,
      "Ġme": 483,
      "Ġwhe": 484,
      "Ġbut": 485,
      "ĠâĢľ": 486,
      "âĢĿ": 487,
      "pt": 488,
      "ack": 489,
      "ice": 490,
      "ĠU": 491,
      "age": 492,
      "Ġus": 493,
      "ĠIn": 494,
      "Ġout": 495,
      "Ġad": 496,
      "ther": 497,
      "ac": 498,
      "Ġcomp": 499,
      "ction": 500,
      "ake": 501,
      "Ġup": 502,
      "ich": 503,
      "ook": 504,
      "one": 505,
      "Ġthey": 506,
      "Ġtheir": 507,
      "Ġmore": 508,
      "ind": 509,
      "are": 510,
      "so": 511,
      "very": 512,
      "ry": 513,
      "Ġen": 514,
      "lo": 515,
      "Ġmy": 516,
      "ong": 517,
      "able": 518,
      "ime": 519,
      "Ġte": 520,
      "ood": 521,
      "ĠY": 522,
      "cc": 523,
      "ated": 524,
      "ous": 525,
      "ite": 526,
      "Ġone": 527,
      "ike": 528,
      "ip": 529,
      "Ġhis": 530,
      "Ġsa": 531,
      "ans": 532,
      "Ġabout": 533,
      "iz": 534,
      "Ġim": 535,
      "orm": 536,
      "Ġour": 537,
      "Ġwho": 538,
      "ame": 539,
      "ĠK": 540,
      "Ġgo": 541,
      "Ġcont": 542,
      "ib": 543,
      "Ġfe": 544,
      "Ġman": 545,
      "og": 546,
      "ru": 547,
      "Ġ\"": 548,
      "ions": 549,
      "ance": 550,
      "ĠIt": 551,
      "Ġinc": 552,
      "du": 553,
      "act": 554,
      "čĊ": 555,
      "Ġcl": 556,
      "Ġwork": 557,
      "Ġ20": 558,
      "ne": 559,
      "Ġwhich": 560,
      "ia": 561,
      "ĠSt": 562,
      "ire": 563,
      "ach": 564,
      "ber": 565,
      "Ġres": 566,
      "ase": 567,
      "ree": 568,
      "oc": 569,
      "ays": 570,
      "ace": 571,
      "ign": 572,
      "Ġapp": 573,
      "ff": 574,
      "reat": 575,
      "ick": 576,
      "ap": 577,
      "Ġint": 578,
      "ations": 579,
      "Ġper": 580,
      "ven": 581,
      "ail": 582,
      "Ġoff": 583,
      "Ġother": 584,
      "ep": 585,
      "Ġqu": 586,
      "ĠV": 587,
      "Ġlike": 588,
      "Ġyear": 589,
      "ult": 590,
      "ary": 591,
      "ĠWe": 592,
      "Ġtime": 593,
      "au": 594,
      "Ġsome": 595,
      "ass": 596,
      "Ġalso": 597,
      "pl": 598,
      "ub": 599,
      "Ġany": 600,
      "ical": 601,
      "Ġget": 602,
      "ĠCh": 603,
      "ile": 604,
      "ue": 605,
      "ark": 606,
      "ount": 607,
      "Ġdis": 608,
      "Ġsp": 609,
      "now": 610,
      "Ġ3": 611,
      "form": 612,
      "Ġun": 613,
      "vel": 614,
      "ence": 615,
      "Ġthem": 616,
      "Ġnew": 617,
      "ings": 618,
      "ord": 619,
      "Ġpart": 620,
      "erv": 621,
      "Ġbeen": 622,
      "Ġhad": 623,
      "Ġpe": 624,
      "ress": 625,
      "ond": 626,
      "Ġag": 627,
      "Ġover": 628,
      "Ġher": 629,
      "Ġthere": 630,
      "Ġwere": 631,
      "Ġwhen": 632,
      "ĠHe": 633,
      "ove": 634,
      "ough": 635,
      "Ġwhat": 636,
      "ition": 637,
      "Ġwould": 638,
      "av": 639,
      "ents": 640,
      "Ġar": 641,
      "ial": 642,
      "Ġif": 643,
      "ink": 644,
      "ors": 645,
      "ĠThis": 646,
      "Ġjust": 647,
      "Ġthan": 648,
      "port": 649,
      "Ġro": 650,
      "ild": 651,
      "ens": 652,
      "Ġspe": 653,
      "Ġpre": 654,
      "Ġtr": 655,
      "ound": 656,
      "Ġ201": 657,
      "Ġbec": 658,
      "Ġrec": 659,
      "ople": 660,
      "ish": 661,
      "wn": 662,
      "Ġneed": 663,
      "int": 664,
      "Ġknow": 665,
      "mer": 666,
      "Ġinto": 667,
      "Ġsaid": 668,
      "own": 669,
      "..": 670,
      "irst": 671,
      "ren": 672,
      "Ġsc": 673,
      "Ġhow": 674,
      "Ġno": 675,
      "fter": 676,
      "nder": 677,
      "Ġam": 678,
      "ory": 679,
      "Ġacc": 680,
      "Ġco": 681,
      "ose": 682,
      "Ġpeople": 683,
      "ater": 684,
      "rough": 685,
      "ade": 686,
      "lic": 687,
      "Ġtw": 688,
      "itt": 689,
      "ning": 690,
      "ang": 691,
      "vers": 692,
      "Ġits": 693,
      "ov": 694,
      "ĠâĢĵ": 695,
      "old": 696,
      "Ġshe": 697,
      "cial": 698,
      "Ġdes": 699,
      "lud": 700,
      "ĠWh": 701,
      "ons": 702,
      "ces": 703,
      "ual": 704,
      "Ġmay": 705,
      "lp": 706,
      "Ġfirst": 707,
      "ause": 708,
      "ĠRe": 709,
      "Ġmake": 710,
      "we": 711,
      "ian": 712,
      "Ġcomm": 713,
      "ĠYou": 714,
      "Ġonly": 715,
      "Ġ4": 716,
      "hed": 717,
      "ull": 718,
      "Ġmost": 719,
      "Ġhelp": 720,
      "ates": 721,
      "Ġtra": 722,
      "'t": 723,
      "Ġbet": 724,
      "Ġlook": 725,
      "Ġadd": 726,
      "les": 727,
      "ft": 728,
      "ric": 729,
      "Ġback": 730,
      "ments": 731,
      "end": 732,
      "rent": 733,
      "Ġevery": 734,
      "ating": 735,
      "ob": 736,
      "ily": 737,
      "Ġ5": 738,
      "Ġprov": 739,
      "Ġpo": 740,
      "Ġwant": 741,
      "day": 742,
      "Ġthrough": 743,
      "round": 744,
      "tern": 745,
      "Ġind": 746,
      "Ġinclud": 747,
      "ise": 748,
      "ious": 749,
      "Ġsee": 750,
      "hing": 751,
      "Ġuse": 752,
      "Ġwell": 753,
      "ĠAs": 754,
      "Ġtwo": 755,
      "Ġ19": 756,
      "Ġact": 757,
      "Ġbu": 758,
      "ple": 759,
      "Ġcons": 760,
      "Ġprodu": 761,
      "Ġem": 762,
      "gr": 763,
      "Ġthese": 764,
      "ĠIf": 765,
      "ks": 766,
      "ĠNe": 767,
      "iew": 768,
      "Ġunder": 769,
      "sel": 770,
      "ect": 771,
      "Ġafter": 772,
      "ities": 773,
      "Ġcould": 774,
      "fect": 775,
      "ife": 776,
      "Ġserv": 777,
      "Ġph": 778,
      "iss": 779,
      ").": 780,
      "ph": 781,
      "ert": 782,
      "Ġsupp": 783,
      "fore": 784,
      "hen": 785,
      "Ġplay": 786,
      "xt": 787,
      "ced": 788,
      "ĠAnd": 789,
      "oll": 790,
      "Ġvery": 791,
      "Ġdif": 792,
      "ting": 793,
      "row": 794,
      "ific": 795,
      "uch": 796,
      "Ġgood": 797,
      "Ġway": 798,
      "Ġyears": 799,
      "Ġeven": 800,
      "Ġmany": 801,
      "urn": 802,
      "aw": 803,
      "ful": 804,
      "rit": 805,
      "ĠSe": 806,
      "Ġinv": 807,
      "ject": 808,
      "Ġrel": 809,
      "ont": 810,
      "iness": 811,
      "Ġpr": 812,
      "Ġreg": 813,
      "oy": 814,
      "aking": 815,
      "erson": 816,
      "Ġnow": 817,
      "Ġshould": 818,
      "Ġsy": 819,
      "lect": 820,
      "als": 821,
      "ool": 822,
      "ange": 823,
      "Ġwhere": 824,
      "Ġke": 825,
      "Ġstud": 826,
      "Ġdec": 827,
      "Ġthen": 828,
      "Ġra": 829,
      "pect": 830,
      "Ġfl": 831,
      "oss": 832,
      "Ġcol": 833,
      "Ġrem": 834,
      "Ġev": 835,
      "oth": 836,
      "Ġhim": 837,
      "ational": 838,
      "ĠUn": 839,
      "ility": 840,
      "Ġexper": 841,
      "ward": 842,
      "Ġsm": 843,
      "ĠAn": 844,
      "cess": 845,
      "bs": 846,
      "ible": 847,
      "ased": 848,
      "Ġdid": 849,
      "Ġbecause": 850,
      "Ġstart": 851,
      ".âĢĿ": 852,
      "ts": 853,
      "Ġdon": 854,
      "Ġsec": 855,
      "any": 856,
      "get": 857,
      "Ġright": 858,
      "Ġown": 859,
      "Ġgu": 860,
      "Ġbus": 861,
      "ures": 862,
      "ident": 863,
      "ble": 864,
      "Ġfin": 865,
      "olog": 866,
      "Ġgreat": 867,
      "Ġdown": 868,
      "ular": 869,
      "ices": 870,
      "ath": 871,
      "Ġmuch": 872,
      "Ġ$": 873,
      "Ġac": 874,
      "Ġ200": 875,
      "ĠBut": 876,
      "ĠCom": 877,
      "Ġbl": 878,
      "ower": 879,
      "uring": 880,
      "li": 881,
      "Ġthink": 882,
      "Ġtoo": 883,
      "Ġatt": 884,
      "erm": 885,
      "ty": 886,
      "Ġent": 887,
      "Ġimp": 888,
      "hip": 889,
      "ĠPro": 890,
      "Ġday": 891,
      "up": 892,
      "its": 893,
      "ative": 894,
      "formation": 895,
      "ĠFor": 896,
      "ract": 897,
      "ys": 898,
      "hes": 899,
      "alth": 900,
      "Ġlong": 901,
      "ĠDe": 902,
      "Ġhigh": 903,
      "com": 904,
      "other": 905,
      "Ġ6": 906,
      "omet": 907,
      "Ġsuch": 908,
      "Ġfind": 909,
      "ited": 910,
      "Ġagain": 911,
      "),": 912,
      "velop": 913,
      "Ġtake": 914,
      "ĠSo": 915,
      "Ġset": 916,
      "ork": 917,
      "ict": 918,
      "stem": 919,
      "air": 920,
      "gan": 921,
      "ics": 922,
      "Ġwee": 923,
      "arch": 924,
      "Ġinst": 925,
      "Ġbest": 926,
      "und": 927,
      "Ġbeing": 928,
      "Ġdoes": 929,
      "Ġread": 930,
      "Ġins": 931,
      "Ġhere": 932,
      "Ġbefore": 933,
      "Ġmon": 934,
      "Ġmade": 935,
      "ener": 936,
      "line": 937,
      "Ġinte": 938,
      "Ġdiffe": 939,
      "Ġshow": 940,
      "Ġthose": 941,
      "ason": 942,
      "Ġcar": 943,
      "amp": 944,
      "cy": 945,
      "ĠAl": 946,
      "ner": 947,
      "Ġend": 948,
      "chool": 949,
      "Ġ&": 950,
      "ually": 951,
      "Ġperson": 952,
      "ied": 953,
      "ĠBe": 954,
      "Ġmin": 955,
      "Ġcall": 956,
      "Ġpres": 957,
      "Ġloc": 958,
      "rib": 959,
      "Ġhome": 960,
      "Ġfam": 961,
      "Ġworld": 962,
      "Ġsur": 963,
      "Ġbel": 964,
      "alk": 965,
      "Ġbr": 966,
      "ĠNew": 967,
      "ues": 968,
      "Ġrequ": 969,
      "Ġmark": 970,
      "Ġlast": 971,
      "Ġass": 972,
      "Ġbusiness": 973,
      "ix": 974,
      "Ġche": 975,
      "Ġlife": 976,
      "Ġ10": 977,
      "ving": 978,
      "ollow": 979,
      "way": 980,
      "Ġinformation": 981,
      "Ġav": 982,
      "rest": 983,
      "ax": 984,
      "ĠSh": 985,
      "Ġsim": 986,
      "self": 987,
      "Ġhand": 988,
      "ank": 989,
      "ell": 990,
      "gram": 991,
      "Ġmed": 992,
      "io": 993,
      "ĠThere": 994,
      "ince": 995,
      "Ġ7": 996,
      "gg": 997,
      "Ġdevelop": 998,
      "Ġreally": 999,
      "Ġwhile": 1000,
      "Ġop": 1001,
      "ng": 1002,
      "ffect": 1003,
      "Ġear": 1004,
      "Ġdisc": 1005,
      "ins": 1006,
      "The": 1007,
      "Ġused": 1008,
      "led": 1009,
      "atch": 1010,
      "ather": 1011,
      "Ġcre": 1012,
      "ave": 1013,
      "Ġmem": 1014,
      "...": 1015,
      "Ġgoing": 1016,
      "Ġtrans": 1017,
      "az": 1018,
      "Ġart": 1019,
      "Ġlead": 1020,
      "Ġpol": 1021,
      "arm": 1022,
      "ros": 1023,
      "ĠHow": 1024,
      "ublic": 1025,
      "akes": 1026,
      "ives": 1027,
      "Ġsystem": 1028,
      "chn": 1029,
      "Ġaround": 1030,
      "Ġexperi": 1031,
      "Ġteam": 1032,
      "imes": 1033,
      "Ġvis": 1034,
      "Ġeach": 1035,
      "Ġdesign": 1036,
      ",âĢĿ": 1037,
      "Ġinter": 1038,
      "Ġmod": 1039,
      "ness": 1040,
      "ĠThey": 1041,
      "Ġthough": 1042,
      "ouse": 1043,
      "Ġsub": 1044,
      "pr": 1045,
      "Ġsupport": 1046,
      "Ġcount": 1047,
      "Ġproduct": 1048,
      "Ġsomet": 1049,
      "Ġ8": 1050,
      "land": 1051,
      "Ġstill": 1052,
      "Ġnum": 1053,
      "ality": 1054,
      "ines": 1055,
      "ets": 1056,
      "ale": 1057,
      "ock": 1058,
      "read": 1059,
      "ene": 1060,
      "ĠLe": 1061,
      "cept": 1062,
      "Ġchild": 1063,
      "Ġfeel": 1064,
      "riend": 1065,
      "oun": 1066,
      "Ġret": 1067,
      "Ġcare": 1068,
      "Ġdet": 1069,
      "ved": 1070,
      "Ġfollow": 1071,
      "Ġcomple": 1072,
      "ĠCl": 1073,
      "Ġcour": 1074,
      "view": 1075,
      "Ġexp": 1076,
      "Ġcur": 1077,
      "roup": 1078,
      "Ġadv": 1079,
      "ĠOn": 1080,
      "ash": 1081,
      "Ġprovid": 1082,
      "Ġed": 1083,
      "ĠAd": 1084,
      "Ġdifferent": 1085,
      "der": 1086,
      "ween": 1087,
      "Ġbook": 1088,
      "Ġsay": 1089,
      "irect": 1090,
      "ional": 1091,
      "ages": 1092,
      "Ġstr": 1093,
      "Ġform": 1094,
      "ize": 1095,
      "Ġpoint": 1096,
      "ittle": 1097,
      "Ġsk": 1098,
      "Ġchar": 1099,
      "ĠAr": 1100,
      "Ġser": 1101,
      "ctions": 1102,
      "Ġgr": 1103,
      "Ġsign": 1104,
      "Ġrun": 1105,
      "Ġsame": 1106,
      "Ġfound": 1107,
      "Ġeas": 1108,
      "ah": 1109,
      ".\"": 1110,
      "meric": 1111,
      "lease": 1112,
      "Ġsl": 1113,
      "Ġcle": 1114,
      "Ġaut": 1115,
      "ustom": 1116,
      "ivers": 1117,
      "Ġboth": 1118,
      "20": 1119,
      "Ġplace": 1120,
      "Ġfew": 1121,
      "Ġbo": 1122,
      "Ġbetween": 1123,
      "unity": 1124,
      "ute": 1125,
      "ON": 1126,
      "ways": 1127,
      "Ġthree": 1128,
      "Ġlot": 1129,
      "ars": 1130,
      "ata": 1131,
      "Ġhapp": 1132,
      "Ġprogram": 1133,
      "Ġ9": 1134,
      "Ġmet": 1135,
      "Ġfree": 1136,
      "man": 1137,
      "Ġimport": 1138,
      "Ġlove": 1139,
      "Ġtop": 1140,
      "Ġlist": 1141,
      "ever": 1142,
      "Ġprof": 1143,
      "ves": 1144,
      "Ġthings": 1145,
      "ton": 1146,
      "less": 1147,
      "Ġpost": 1148,
      "ĠShe": 1149,
      "Ġpur": 1150,
      "ames": 1151,
      "ety": 1152,
      "ody": 1153,
      "be": 1154,
      "Ġrep": 1155,
      "Ġhealth": 1156,
      "Ġreal": 1157,
      "ĠWhat": 1158,
      "Ġfull": 1159,
      "Ġmonth": 1160,
      "Ġlittle": 1161,
      "000": 1162,
      "ution": 1163,
      "Ġfun": 1164,
      "ized": 1165,
      "Ġext": 1166,
      "Ġplan": 1167,
      "Ġstate": 1168,
      "ĠAmeric": 1169,
      "ired": 1170,
      "Ġprocess": 1171,
      "Ġlar": 1172,
      "ĠTe": 1173,
      "ĠTo": 1174,
      "thing": 1175,
      "ĠAll": 1176,
      "Ġkeep": 1177,
      "ient": 1178,
      "ital": 1179,
      "Ġgener": 1180,
      "ten": 1181,
      "ants": 1182,
      "Ġavail": 1183,
      "orn": 1184,
      "Ġreport": 1185,
      "arn": 1186,
      "Ġtechn": 1187,
      "ross": 1188,
      "ists": 1189,
      "ĠWhen": 1190,
      "cer": 1191,
      "Ġschool": 1192,
      "ology": 1193,
      "uc": 1194,
      "Ġfil": 1195,
      "Ġduring": 1196,
      "Ġcome": 1197,
      "att": 1198,
      "Ġfact": 1199,
      "vern": 1200,
      "Ġgame": 1201,
      "Ġopen": 1202,
      "rand": 1203,
      "Ġfr": 1204,
      "Ġdef": 1205,
      "ining": 1206,
      "Ġappro": 1207,
      "Ġposs": 1208,
      "ering": 1209,
      "oh": 1210,
      "Ġmarket": 1211,
      "Ġsol": 1212,
      "ug": 1213,
      "Ġcustom": 1214,
      "Ġbetter": 1215,
      "Ġsomething": 1216,
      "ĠPl": 1217,
      "Ġput": 1218,
      "ically": 1219,
      "Ġpartic": 1220,
      "bers": 1221,
      "ĠAt": 1222,
      "ense": 1223,
      "Ġref": 1224,
      "ĠQ": 1225,
      "Ġfriend": 1226,
      "Ġcontin": 1227,
      "cent": 1228,
      "Ġusing": 1229,
      "iving": 1230,
      "Ġty": 1231,
      "ms": 1232,
      "Ġincluding": 1233,
      "ling": 1234,
      "Ġallow": 1235,
      "Ġbig": 1236,
      "gy": 1237,
      "ĠEx": 1238,
      "ature": 1239,
      "oot": 1240,
      "Ġalways": 1241,
      "Ġwithout": 1242,
      "Ġiss": 1243,
      "ined": 1244,
      "Ġresp": 1245,
      "Ġnext": 1246,
      "Ġpat": 1247,
      "Ġcompany": 1248,
      "Ġgot": 1249,
      "Ġresult": 1250,
      "uss": 1251,
      "ield": 1252,
      "Ġquest": 1253,
      "ĠIs": 1254,
      "con": 1255,
      "Ġvar": 1256,
      "Ġsmall": 1257,
      "Ġob": 1258,
      "Ġtry": 1259,
      "Ġrest": 1260,
      "Ġinterest": 1261,
      "Ġpri": 1262,
      "Ġavailable": 1263,
      "loy": 1264,
      "ished": 1265,
      "ared": 1266,
      "Ġpass": 1267,
      "Ġanother": 1268,
      "Ġfamily": 1269,
      "Ġmust": 1270,
      "Ġmain": 1271,
      "Ġwater": 1272,
      "Ġhead": 1273,
      "Ġweek": 1274,
      "iqu": 1275,
      "Ġcent": 1276,
      "ĠâĢĺ": 1277,
      "Ġgroup": 1278,
      "atur": 1279,
      "Ġopt": 1280,
      "Ġmight": 1281,
      "Ġtri": 1282,
      "ention": 1283,
      "Ġstand": 1284,
      "ĠâĢĶ": 1285,
      "Ġbuild": 1286,
      "ger": 1287,
      "Ġcor": 1288,
      "Ġconf": 1289,
      "Ġwom": 1290,
      "ĠFr": 1291,
      "ĠThat": 1292,
      "Ġdist": 1293,
      "Ġpay": 1294,
      "Ġsince": 1295,
      "Ġmus": 1296,
      "Ġide": 1297,
      "âĢ¦": 1298,
      "Ġsecond": 1299,
      "Ġval": 1300,
      "Ġdri": 1301,
      "Ġhard": 1302,
      "Ġorgan": 1303,
      "Ġeffect": 1304,
      "Ġnever": 1305,
      ",\"": 1306,
      "ier": 1307,
      "ik": 1308,
      "stand": 1309,
      "Ġwr": 1310,
      "ploy": 1311,
      "Ġexperience": 1312,
      "Ġimportant": 1313,
      "Ġmov": 1314,
      "Ġrece": 1315,
      "ately": 1316,
      "Ġlet": 1317,
      "Ġopp": 1318,
      "reen": 1319,
      "Ġincre": 1320,
      "Ġsure": 1321,
      "illion": 1322,
      "Ġi": 1323,
      "Ġproble": 1324,
      "ertain": 1325,
      "Ġask": 1326,
      "Ġperform": 1327,
      "Ġcr": 1328,
      "oney": 1329,
      "ision": 1330,
      "Ġproject": 1331,
      "ware": 1332,
      "ĠPh": 1333,
      "ĠInd": 1334,
      "me": 1335,
      "Ġpublic": 1336,
      "els": 1337,
      "Ġexam": 1338,
      "Ġnumber": 1339,
      "Ġdays": 1340,
      "ĠWith": 1341,
      "Ġclass": 1342,
      "aj": 1343,
      "Ġbro": 1344,
      "Ġlevel": 1345,
      "Ġdata": 1346,
      "Ġold": 1347,
      "ism": 1348,
      "rist": 1349,
      "Ġonline": 1350,
      "Ġwin": 1351,
      "Ġcost": 1352,
      "ccess": 1353,
      "Ġdirect": 1354,
      "Ġinvest": 1355,
      "Ġgive": 1356,
      "Ġve": 1357,
      "Ġinf": 1358,
      "Ġable": 1359,
      "Ġservice": 1360,
      "Ġagainst": 1361,
      "Ġless": 1362,
      "ps": 1363,
      "Ġpower": 1364,
      "Ġ0": 1365,
      "Ġgrow": 1366,
      "Ġbre": 1367,
      "cl": 1368,
      "ards": 1369,
      "ted": 1370,
      "iversity": 1371,
      "Ġca": 1372,
      "Ġspec": 1373,
      "Ġrese": 1374,
      "ĠZ": 1375,
      "Ġpos": 1376,
      "ĠCon": 1377,
      "ior": 1378,
      "Ġexpl": 1379,
      "Ġ12": 1380,
      "Ġblo": 1381,
      "rence": 1382,
      "ird": 1383,
      "Ġlaw": 1384,
      "Ġunt": 1385,
      "ĠOr": 1386,
      "Ġsit": 1387,
      "co": 1388,
      "ĠBl": 1389,
      "the": 1390,
      "ĠTr": 1391,
      "Ġel": 1392,
      "pend": 1393,
      "ases": 1394,
      "Ġbelie": 1395,
      "uck": 1396,
      "gin": 1397,
      "work": 1398,
      "Ġseem": 1399,
      "ĠNo": 1400,
      "Ġprovide": 1401,
      "Ġtest": 1402,
      "ĠUS": 1403,
      "ours": 1404,
      "ral": 1405,
      "ency": 1406,
      "ients": 1407,
      "Ġorder": 1408,
      "Ġcurrent": 1409,
      "ER": 1410,
      "Ġmeet": 1411,
      "rol": 1412,
      "ĠCol": 1413,
      "cing": 1414,
      "Ġturn": 1415,
      "aut": 1416,
      "ered": 1417,
      "ret": 1418,
      "Ġ'": 1419,
      "to": 1420,
      "Ġfour": 1421,
      "Ġtoday": 1422,
      "ote": 1423,
      "Ġwithin": 1424,
      "pped": 1425,
      "Ġprev": 1426,
      "inal": 1427,
      "ĠSp": 1428,
      "ats": 1429,
      "Ġproper": 1430,
      "Ġann": 1431,
      "ivid": 1432,
      "Ġservices": 1433,
      "ently": 1434,
      "Ġworking": 1435,
      "ĠMy": 1436,
      "Ġhum": 1437,
      "ably": 1438,
      "ann": 1439,
      "Ġfood": 1440,
      "outh": 1441,
      "raph": 1442,
      "10": 1443,
      "ffic": 1444,
      "Ġleg": 1445,
      "Ġdi": 1446,
      "ised": 1447,
      "Ġpop": 1448,
      "Ġmaking": 1449,
      "Ġsays": 1450,
      "here": 1451,
      "Ġaway": 1452,
      "Ġlight": 1453,
      "ission": 1454,
      "Ġaccess": 1455,
      "Ġgovern": 1456,
      "med": 1457,
      "Ġprote": 1458,
      "ains": 1459,
      "pping": 1460,
      "Ġjob": 1461,
      "Ġchildren": 1462,
      "Ġest": 1463,
      "ruct": 1464,
      "Ġarea": 1465,
      "Ġeng": 1466,
      "ĠRes": 1467,
      "Ġspecial": 1468,
      "joy": 1469,
      "Ġsing": 1470,
      "ember": 1471,
      "ration": 1472,
      "Ġoper": 1473,
      "Ġaddition": 1474,
      "pos": 1475,
      "Ġprom": 1476,
      "ĠMar": 1477,
      "ott": 1478,
      "ium": 1479,
      "ok": 1480,
      "âĢĶ": 1481,
      "Ġequ": 1482,
      "eng": 1483,
      "ron": 1484,
      "Ġwebs": 1485,
      "Ġ18": 1486,
      "ley": 1487,
      "ider": 1488,
      "Ġnight": 1489,
      "Ġview": 1490,
      "oint": 1491,
      "Ġtru": 1492,
      "Ġthing": 1493,
      "Ġlocal": 1494,
      "Ġbeh": 1495,
      "Ġuntil": 1496,
      "ĠComm": 1497,
      "Ġgl": 1498,
      "ids": 1499,
      "Ġsal": 1500,
      "Ġdem": 1501,
      "iting": 1502,
      "Ġlooking": 1503,
      "Ġphot": 1504,
      "ĠMe": 1505,
      "ĠMan": 1506,
      "Ġ15": 1507,
      "ories": 1508,
      "Ġpast": 1509,
      "tend": 1510,
      "ording": 1511,
      "ured": 1512,
      "atter": 1513,
      "Ġ<": 1514,
      "ream": 1515,
      "ump": 1516,
      "Ġchang": 1517,
      "Ġcourse": 1518,
      "Ġchange": 1519,
      "Ġcase": 1520,
      "ope": 1521,
      "Ġvide": 1522,
      "Ġcap": 1523,
      "Ġseason": 1524,
      "ified": 1525,
      "Ġhist": 1526,
      "Ġroom": 1527,
      "Ġmoney": 1528,
      "arent": 1529,
      "Ġ.": 1530,
      "hor": 1531,
      "ĠCan": 1532,
      "Ġwhy": 1533,
      "ability": 1534,
      "Ġstudents": 1535,
      "ury": 1536,
      "Ġimpro": 1537,
      "Ġbas": 1538,
      "Ġpract": 1539,
      "iron": 1540,
      "Ġintern": 1541,
      ".,": 1542,
      "ĠChrist": 1543,
      "ina": 1544,
      "ĠSc": 1545,
      "Ġprofess": 1546,
      "ĠOne": 1547,
      "ĠCent": 1548,
      "Ġfac": 1549,
      "orth": 1550,
      "ney": 1551,
      "Ġkind": 1552,
      "ator": 1553,
      "Ġexpect": 1554,
      "let": 1555,
      "Ġsuccess": 1556,
      "Ġpresent": 1557,
      "Ġlarge": 1558,
      "Ġevent": 1559,
      "aring": 1560,
      "Ġunderstand": 1561,
      "Ġtimes": 1562,
      "Ġwrit": 1563,
      "Ġsite": 1564,
      "Ġword": 1565,
      "augh": 1566,
      "ential": 1567,
      "Ġoften": 1568,
      "Ġair": 1569,
      "Ġconst": 1570,
      "omm": 1571,
      "lection": 1572,
      "Ġdr": 1573,
      "ĠMay": 1574,
      "Ġcomplete": 1575,
      "Ġdidn": 1576,
      "ify": 1577,
      "ills": 1578,
      "Ġemploy": 1579,
      "'re": 1580,
      "itions": 1581,
      "Ġleft": 1582,
      "por": 1583,
      "Ġtoget": 1584,
      "ocus": 1585,
      "Ġtogether": 1586,
      "ries": 1587,
      "Ġ[": 1588,
      "Ġlearn": 1589,
      "iven": 1590,
      "agement": 1591,
      "utes": 1592,
      "conom": 1593,
      "Ġalong": 1594,
      "Ġactiv": 1595,
      "ising": 1596,
      "Ġhaving": 1597,
      "Ġindust": 1598,
      "ged": 1599,
      "Ġdra": 1600,
      "icle": 1601,
      "ww": 1602,
      "Ġenjoy": 1603,
      "ĠOur": 1604,
      "ization": 1605,
      "min": 1606,
      "sh": 1607,
      "Ġenough": 1608,
      "ĠGod": 1609,
      "Ġcheck": 1610,
      "Ġ11": 1611,
      "lish": 1612,
      "Ġtell": 1613,
      "Ġname": 1614,
      "part": 1615,
      "Ġes": 1616,
      "Ġterm": 1617,
      "Ġcreat": 1618,
      "ready": 1619,
      "enef": 1620,
      "Ġtalk": 1621,
      "ĠCo": 1622,
      "Ġnear": 1623,
      "enn": 1624,
      "Ġmove": 1625,
      "Ġever": 1626,
      "veral": 1627,
      "Ġapplic": 1628,
      "Ġcond": 1629,
      "Ġbuy": 1630,
      "ĠThese": 1631,
      "ĠÂ": 1632,
      "soci": 1633,
      "ĠDo": 1634,
      "ĠSu": 1635,
      "ajor": 1636,
      "ived": 1637,
      "ĠAm": 1638,
      "Ġstory": 1639,
      "side": 1640,
      "Ġpain": 1641,
      "ane": 1642,
      "Ġtreat": 1643,
      "itive": 1644,
      "Ġside": 1645,
      "Ġbecome": 1646,
      "Ġpa": 1647,
      "cu": 1648,
      "Ġoffer": 1649,
      "aster": 1650,
      "ĠAfter": 1651,
      "ĠCar": 1652,
      "IN": 1653,
      "Ġproducts": 1654,
      "Ġfeat": 1655,
      "alf": 1656,
      "Ġneeds": 1657,
      "Ġresearch": 1658,
      "br": 1659,
      "Ġhouse": 1660,
      "ohn": 1661,
      "aim": 1662,
      "ination": 1663,
      "ividual": 1664,
      "ode": 1665,
      "Ġshort": 1666,
      "ots": 1667,
      "ĠUniversity": 1668,
      "Ġoffic": 1669,
      "Ġcommunity": 1670,
      "Ġdev": 1671,
      "Ġmar": 1672,
      "Ġwomen": 1673,
      "Ġaccount": 1674,
      "Ġclo": 1675,
      "Ġbody": 1676,
      "PH": 1677,
      "irl": 1678,
      "Ġbit": 1679,
      "Ġalready": 1680,
      "Ġmakes": 1681,
      "son": 1682,
      "Ġinclude": 1683,
      "uro": 1684,
      "ery": 1685,
      "ĠSte": 1686,
      "Ġline": 1687,
      "50": 1688,
      "Ġdone": 1689,
      "bo": 1690,
      "Ġmen": 1691,
      "Ġsw": 1692,
      "by": 1693,
      "Ġquality": 1694,
      "Ġconne": 1695,
      "Ġpossible": 1696,
      "Ġrecord": 1697,
      "Ġsocial": 1698,
      "ead": 1699,
      "ONE": 1700,
      "rap": 1701,
      "Ġgetting": 1702,
      "ern": 1703,
      "Ġcountry": 1704,
      "Ġfar": 1705,
      "Ġlive": 1706,
      "Ġeasy": 1707,
      "fort": 1708,
      "Ġmembers": 1709,
      "ĠApp": 1710,
      "Ġcalled": 1711,
      "Ġmusic": 1712,
      "urs": 1713,
      "ĠFe": 1714,
      "Ġdoing": 1715,
      "ĠHowever": 1716,
      "aterial": 1717,
      "tain": 1718,
      "Ġwebsite": 1719,
      "oice": 1720,
      "Ġbenef": 1721,
      "Ġcertain": 1722,
      "ush": 1723,
      "Ġpot": 1724,
      "Ġmeans": 1725,
      "ique": 1726,
      "Ġfocus": 1727,
      "load": 1728,
      "Ġothers": 1729,
      "Ġ30": 1730,
      "Ġtrad": 1731,
      "ĠEng": 1732,
      "ows": 1733,
      "ored": 1734,
      "une": 1735,
      "Ġbased": 1736,
      "Ġpersonal": 1737,
      "Ġcou": 1738,
      "Ġmean": 1739,
      "uture": 1740,
      "Ġmil": 1741,
      "Ġseveral": 1742,
      "Ġcame": 1743,
      "Ġvisit": 1744,
      "Ġocc": 1745,
      "Ġfollowing": 1746,
      "Ġindividual": 1747,
      "fer": 1748,
      "'m": 1749,
      "ails": 1750,
      "Ġactually": 1751,
      "Ġfund": 1752,
      "Ġmillion": 1753,
      "30": 1754,
      "ither": 1755,
      "Ġnews": 1756,
      "ĠJohn": 1757,
      "ec": 1758,
      "Ġlo": 1759,
      "viron": 1760,
      "Ġreview": 1761,
      "Ġeduc": 1762,
      "Ġgovernment": 1763,
      "Ġmind": 1764,
      "ands": 1765,
      "ĠAmerican": 1766,
      "Ġmajor": 1767,
      "Ġcomes": 1768,
      "Ġfav": 1769,
      "orts": 1770,
      "Ġleast": 1771,
      "cially": 1772,
      "Ġdoesn": 1773,
      "Ġfore": 1774,
      "ances": 1775,
      "PHONE": 1776,
      "Ġcamp": 1777,
      "Ġcontrol": 1778,
      "wards": 1779,
      "aff": 1780,
      "Ġquick": 1781,
      "Ġopport": 1782,
      "Ġnon": 1783,
      "Ġtre": 1784,
      "Ġacross": 1785,
      "We": 1786,
      "Ġlim": 1787,
      "ides": 1788,
      "Ġla": 1789,
      "Ġhold": 1790,
      "of": 1791,
      "ĠNot": 1792,
      "osed": 1793,
      "ĠFl": 1794,
      "Ġthought": 1795,
      "idd": 1796,
      "Ġcreate": 1797,
      "'ve": 1798,
      "most": 1799,
      "ES": 1800,
      "yle": 1801,
      "Ġonce": 1802,
      "Ġ199": 1803,
      "ĠRo": 1804,
      "ully": 1805,
      "Ġcharact": 1806,
      "Ġdeal": 1807,
      "Ġclear": 1808,
      "ĠRep": 1809,
      "Ġtook": 1810,
      "19": 1811,
      "Ġmom": 1812,
      "ĠPr": 1813,
      "AT": 1814,
      "Ġwon": 1815,
      "ĠEn": 1816,
      "Ġyoung": 1817,
      "Ġreturn": 1818,
      "Ġce": 1819,
      "Ġstarted": 1820,
      "ched": 1821,
      "Ġpercent": 1822,
      "Ġey": 1823,
      "atic": 1824,
      "ape": 1825,
      "Ġfriends": 1826,
      "Ġbeaut": 1827,
      "tt": 1828,
      "Ġmult": 1829,
      "Ġlow": 1830,
      "Ġcity": 1831,
      "Ġhappen": 1832,
      "Ġcontact": 1833,
      "Ġwent": 1834,
      "Ġnet": 1835,
      "ians": 1836,
      "AR": 1837,
      "ĠCont": 1838,
      "Ġelect": 1839,
      "rop": 1840,
      "ĠMed": 1841,
      "Ġsoft": 1842,
      "Ġdevelopment": 1843,
      "ches": 1844,
      "Ġfuture": 1845,
      "eral": 1846,
      "book": 1847,
      "ption": 1848,
      "Ġparticular": 1849,
      "Ġmaterial": 1850,
      "urity": 1851,
      "Ġinvol": 1852,
      "Ġcut": 1853,
      "ones": 1854,
      "Ġvideo": 1855,
      "app": 1856,
      "Ġcommun": 1857,
      "ĠYour": 1858,
      "ĠBr": 1859,
      "Ġspecific": 1860,
      "Ġorig": 1861,
      "ĠInst": 1862,
      "err": 1863,
      "Ġvers": 1864,
      "Ġmonths": 1865,
      "ee": 1866,
      "Ġwa": 1867,
      "Ġredu": 1868,
      "Ġcompet": 1869,
      "ony": 1870,
      "Ġris": 1871,
      "urther": 1872,
      "ino": 1873,
      "mber": 1874,
      "Ġperfect": 1875,
      "Ġbring": 1876,
      "Ġstrong": 1877,
      "Ġearly": 1878,
      "Ġhot": 1879,
      "aps": 1880,
      "uff": 1881,
      "Ġeconom": 1882,
      "vironment": 1883,
      "ips": 1884,
      "Ġhours": 1885,
      "Ġ--": 1886,
      "room": 1887,
      "Ġanal": 1888,
      "Ġreason": 1889,
      "Ġcompan": 1890,
      "cle": 1891,
      "lling": 1892,
      "aken": 1893,
      "Ġtyp": 1894,
      "oose": 1895,
      "Ġlink": 1896,
      "ĠWor": 1897,
      "Ġkey": 1898,
      "Ġheart": 1899,
      "Ġshare": 1900,
      "Ġrequire": 1901,
      "Ġtold": 1902,
      "Ġfive": 1903,
      "for": 1904,
      "not": 1905,
      "Ġyet": 1906,
      "use": 1907,
      "Ġlater": 1908,
      "ball": 1909,
      "iday": 1910,
      "ges": 1911,
      "duct": 1912,
      "bal": 1913,
      "lf": 1914,
      "crib": 1915,
      "Ġhig": 1916,
      "ĠIntern": 1917,
      "osp": 1918,
      "arr": 1919,
      "ences": 1920,
      "Ġproblem": 1921,
      "mm": 1922,
      "ister": 1923,
      "Ġbegin": 1924,
      "Ġstudy": 1925,
      "Ġess": 1926,
      "Ġclose": 1927,
      "ift": 1928,
      "wh": 1929,
      "ĠUnited": 1930,
      "ograph": 1931,
      "ĠX": 1932,
      "ster": 1933,
      "Ġexample": 1934,
      "Ġ14": 1935,
      "Ġ16": 1936,
      "Ġchall": 1937,
      "lished": 1938,
      "ference": 1939,
      "Ġwalk": 1940,
      "unch": 1941,
      "Th": 1942,
      "Ġstep": 1943,
      "Ġcover": 1944,
      "ĠSy": 1945,
      "ateg": 1946,
      "Ġele": 1947,
      "Ġtem": 1948,
      "Ġgames": 1949,
      "ĠComp": 1950,
      "OR": 1951,
      "Ġappear": 1952,
      "icy": 1953,
      "Ġpurch": 1954,
      "ights": 1955,
      "Ġpack": 1956,
      "ners": 1957,
      "Ġitem": 1958,
      "Ġcomb": 1959,
      "Ġtax": 1960,
      "Ġrele": 1961,
      "Ġminutes": 1962,
      "ĠChe": 1963,
      "sw": 1964,
      "Ġident": 1965,
      "ai": 1966,
      "Ġeverything": 1967,
      "Ġet": 1968,
      "utions": 1969,
      "Ġindustry": 1970,
      "ource": 1971,
      "Ġ/": 1972,
      "hod": 1973,
      "Ġknown": 1974,
      "Ġpress": 1975,
      "Ġhuman": 1976,
      "Ġpriv": 1977,
      "Ġvari": 1978,
      "Ġdiscuss": 1979,
      "ulation": 1980,
      "Ġant": 1981,
      "Ġspace": 1982,
      "Ġstay": 1983,
      "Ġbelow": 1984,
      "Ġface": 1985,
      "ources": 1986,
      "AN": 1987,
      "ler": 1988,
      "ĠState": 1989,
      "reet": 1990,
      "Ġauthor": 1991,
      "idence": 1992,
      "hers": 1993,
      "pro": 1994,
      "Ġrelations": 1995,
      "Ġpick": 1996,
      "Ġsound": 1997,
      "Ġprob": 1998,
      "ĠBy": 1999,
      "ĠNow": 2000,
      "Ġgiven": 2001,
      "oring": 2002,
      "resent": 2003,
      "Ġsomeone": 2004,
      "Ġseen": 2005,
      "Ġpage": 2006,
      "acy": 2007,
      "12": 2008,
      "over": 2009,
      "ĠWhile": 2010,
      "ilities": 2011,
      "pecially": 2012,
      "Ġste": 2013,
      "ĠTw": 2014,
      "rew": 2015,
      "Ġpar": 2016,
      "Ġpie": 2017,
      "Ġens": 2018,
      "illed": 2019,
      "iod": 2020,
      "ned": 2021,
      "ĠSome": 2022,
      "Ġsingle": 2023,
      "Ġdeli": 2024,
      "Ġfield": 2025,
      "lege": 2026,
      "Ġcompanies": 2027,
      "Ġtool": 2028,
      "Ġener": 2029,
      "ensive": 2030,
      "ĠGu": 2031,
      "Ġbreak": 2032,
      "oon": 2033,
      "Ġrespons": 2034,
      "Ġtot": 2035,
      "Ġquestion": 2036,
      "Ġmedia": 2037,
      "par": 2038,
      "'ll": 2039,
      "ĠServ": 2040,
      "ĠCount": 2041,
      "ĠAb": 2042,
      "Ġtaking": 2043,
      "ĠYork": 2044,
      "atural": 2045,
      "Ġwhole": 2046,
      "ply": 2047,
      "though": 2048,
      "ural": 2049,
      "Ġprice": 2050,
      "aces": 2051,
      "ama": 2052,
      "Ġwhether": 2053,
      "ĠHere": 2054,
      "Ġclean": 2055,
      "che": 2056,
      "ilt": 2057,
      "Ġamong": 2058,
      "rain": 2059,
      "Ġvol": 2060,
      "Ġenc": 2061,
      "ĠPe": 2062,
      "ilar": 2063,
      "Ġsuper": 2064,
      "Ġcra": 2065,
      "Ġhope": 2066,
      "ourn": 2067,
      "ibility": 2068,
      "Ġamount": 2069,
      "Ġpolit": 2070,
      "Ġago": 2071,
      "ctor": 2072,
      "Ġ100": 2073,
      "Ġhalf": 2074,
      "ĠCity": 2075,
      "ĠCal": 2076,
      "Ġhistory": 2077,
      "ided": 2078,
      "ĠEuro": 2079,
      "Ġbelieve": 2080,
      "Ġjo": 2081,
      "selves": 2082,
      "urch": 2083,
      "Ġclaim": 2084,
      "gs": 2085,
      "Ġwind": 2086,
      "Ġ13": 2087,
      "Ġmor": 2088,
      "Ġanything": 2089,
      "Ġage": 2090,
      "Ġcult": 2091,
      "Ġrecomm": 2092,
      "rict": 2093,
      "Ġexc": 2094,
      "ental": 2095,
      "iously": 2096,
      "ison": 2097,
      "new": 2098,
      "ĠDes": 2099,
      "Ġrecommend": 2100,
      "irm": 2101,
      "Ġfall": 2102,
      "abor": 2103,
      "ĠDr": 2104,
      "Ġcontent": 2105,
      "Ġissues": 2106,
      "Ġmess": 2107,
      "Ġcred": 2108,
      "ued": 2109,
      "Ġfre": 2110,
      "Ġmanag": 2111,
      "Ġabove": 2112,
      "fully": 2113,
      "Ġquestions": 2114,
      "Ġseries": 2115,
      "Ġdel": 2116,
      "de": 2117,
      "Ġdue": 2118,
      "irt": 2119,
      "Ġbrand": 2120,
      "ained": 2121,
      "Ġtechnology": 2122,
      "iver": 2123,
      "Ġplease": 2124,
      "ancial": 2125,
      "go": 2126,
      "Ġphys": 2127,
      "ĠEd": 2128,
      "Ġ17": 2129,
      "fic": 2130,
      "Ġgirl": 2131,
      "Ġfront": 2132,
      "Ġresults": 2133,
      "Ġworks": 2134,
      "ĠBro": 2135,
      "Ġconsider": 2136,
      "Ġmot": 2137,
      "Ġsci": 2138,
      "elt": 2139,
      "Ġsex": 2140,
      "Ġbuilding": 2141,
      "ĠPres": 2142,
      "Ġeveryone": 2143,
      "ggest": 2144,
      "IL": 2145,
      "Ġport": 2146,
      "uation": 2147,
      "ĠMr": 2148,
      "asing": 2149,
      "Ġpub": 2150,
      "Ġenvironment": 2151,
      "Ġwond": 2152,
      "Ġalmost": 2153,
      "Ġaddress": 2154,
      "af": 2155,
      "Ġstore": 2156,
      "Ġwatch": 2157,
      "Ġeff": 2158,
      "Ġidea": 2159,
      "ogn": 2160,
      "ĠHis": 2161,
      "11": 2162,
      "Ġaud": 2163,
      "ili": 2164,
      "It": 2165,
      "Ġtravel": 2166,
      "ĠSec": 2167,
      "Ġcrit": 2168,
      "Ġimprove": 2169,
      "ĠMc": 2170,
      "ĠJust": 2171,
      "Ġcommon": 2172,
      "Ġz": 2173,
      "ĠMore": 2174,
      "Ġfeatures": 2175,
      "ĠKe": 2176,
      "Ġentire": 2177,
      "Ġ*": 2178,
      "ĠMin": 2179,
      "Ġtraining": 2180,
      "Ġrange": 2181,
      "Ġbad": 2182,
      "Ġparent": 2183,
      "imate": 2184,
      "come": 2185,
      "mb": 2186,
      "Ġbar": 2187,
      "Ġrepl": 2188,
      "Ġeither": 2189,
      "Ġ24": 2190,
      "Ġpict": 2191,
      "gle": 2192,
      "ĠBo": 2193,
      "ĠGo": 2194,
      "ex": 2195,
      "ators": 2196,
      "Ġenergy": 2197,
      "Ġmiss": 2198,
      "anks": 2199,
      "Ġ#": 2200,
      "Ġperiod": 2201,
      "Ġquite": 2202,
      "Ġcal": 2203,
      "Ġaff": 2204,
      "Ġ2012": 2205,
      "ille": 2206,
      "Ġfilm": 2207,
      "ledge": 2208,
      "Ġdeb": 2209,
      "Ġ25": 2210,
      "ĠPer": 2211,
      "cri": 2212,
      "back": 2213,
      "Ġsuggest": 2214,
      "Ġfurther": 2215,
      "Ġtrack": 2216,
      "Ġthird": 2217,
      "ĠQu": 2218,
      "Ġespecially": 2219,
      "Ġwanted": 2220,
      "ĠJe": 2221,
      "ites": 2222,
      "iful": 2223,
      "ĠJan": 2224,
      "Ġvalue": 2225,
      "Ġsix": 2226,
      "Ġconcer": 2227,
      "chie": 2228,
      "ED": 2229,
      "Ġmag": 2230,
      "EN": 2231,
      "ĠGr": 2232,
      "MA": 2233,
      "ĠNational": 2234,
      "Ġcustomers": 2235,
      "Ġpoints": 2236,
      "Ġrelationship": 2237,
      "cell": 2238,
      "Ġfavor": 2239,
      "itted": 2240,
      "ging": 2241,
      "Ġlikely": 2242,
      "Ġtrying": 2243,
      "ĠDis": 2244,
      "Ġperformance": 2245,
      "used": 2246,
      "Ġoffers": 2247,
      "Ġpret": 2248,
      "ĠEurope": 2249,
      "Ġdou": 2250,
      "ĠWill": 2251,
      "arning": 2252,
      "Ġfoot": 2253,
      "Ġspend": 2254,
      "ried": 2255,
      "Ġdig": 2256,
      "Ġglo": 2257,
      "Ġblack": 2258,
      "Ġtype": 2259,
      "ams": 2260,
      "Ġself": 2261,
      "Ġsearch": 2262,
      "ask": 2263,
      "ĠDon": 2264,
      "Ġemail": 2265,
      "gest": 2266,
      "Ġprotect": 2267,
      "Ġparticip": 2268,
      "ĠSouth": 2269,
      "Ġsimple": 2270,
      "Ġtaken": 2271,
      "ively": 2272,
      "play": 2273,
      "Ġmeas": 2274,
      "ficult": 2275,
      "ĠWorld": 2276,
      "Ġoil": 2277,
      "Ġmanagement": 2278,
      "Ġ50": 2279,
      "Ġneeded": 2280,
      "gress": 2281,
      "ĠSchool": 2282,
      "Ġadded": 2283,
      "omes": 2284,
      "Ġcoming": 2285,
      "Ġsignific": 2286,
      "Ġmethod": 2287,
      "IT": 2288,
      "ĠSm": 2289,
      "ĠPart": 2290,
      "rodu": 2291,
      "Ġsent": 2292,
      "Ġweb": 2293,
      "Ġways": 2294,
      "vent": 2295,
      "time": 2296,
      "resh": 2297,
      "year": 2298,
      ".)": 2299,
      "Ġhowever": 2300,
      "vert": 2301,
      "Ġisn": 2302,
      "Ġinstall": 2303,
      "Ġconsum": 2304,
      "Ġprobably": 2305,
      "Ġvarious": 2306,
      "Ġareas": 2307,
      "Ġstop": 2308,
      "Ġasked": 2309,
      "Ġelse": 2310,
      "sy": 2311,
      "ĠMark": 2312,
      "Ġdifficult": 2313,
      "Ġpretty": 2314,
      "Ġsimply": 2315,
      "//": 2316,
      "ĠIm": 2317,
      "Ġstaff": 2318,
      "aur": 2319,
      "ĠGe": 2320,
      "AS": 2321,
      "itch": 2322,
      "Ġprovides": 2323,
      "Ġnecess": 2324,
      "ĠDep": 2325,
      "Ġland": 2326,
      "ĠPre": 2327,
      "ĠStates": 2328,
      "fact": 2329,
      "Ġhost": 2330,
      "lex": 2331,
      "Ġdam": 2332,
      "ĠNorth": 2333,
      "Ġcard": 2334,
      "IS": 2335,
      "oid": 2336,
      "://": 2337,
      "Ġred": 2338,
      "Ġrather": 2339,
      "ĠJu": 2340,
      "Ġcontinue": 2341,
      "Ġliving": 2342,
      "Ġprofessional": 2343,
      "Ġoffice": 2344,
      "ĠTra": 2345,
      "ires": 2346,
      "Ġ:": 2347,
      "Ġdocu": 2348,
      "Ġrequired": 2349,
      "Ġvi": 2350,
      "Ġabs": 2351,
      "Ġissue": 2352,
      "aching": 2353,
      "ially": 2354,
      "Ġbehind": 2355,
      "Ġcir": 2356,
      "Ġrisk": 2357,
      "ication": 2358,
      "Ġcomput": 2359,
      "Ġwriting": 2360,
      "ĠâĢ¢": 2361,
      "Ġassist": 2362,
      "Ġansw": 2363,
      "yn": 2364,
      "Ġ2013": 2365,
      "itor": 2366,
      "angu": 2367,
      "Ġtext": 2368,
      "Ġsoon": 2369,
      "Ġposition": 2370,
      "ĠTH": 2371,
      "itting": 2372,
      "Ġevents": 2373,
      "Ġproblems": 2374,
      "âĢĵ": 2375,
      "ĠAust": 2376,
      "umb": 2377,
      "Ġannoun": 2378,
      "Ġyourself": 2379,
      "ables": 2380,
      "ĠAcc": 2381,
      "Ġupd": 2382,
      "itional": 2383,
      "rie": 2384,
      "Ġcell": 2385,
      "Ġinj": 2386,
      "ĠBar": 2387,
      "astic": 2388,
      "Ġroad": 2389,
      "Ġbed": 2390,
      "ples": 2391,
      "ung": 2392,
      "Ġaccording": 2393,
      "Ġhy": 2394,
      "head": 2395,
      "Ġcook": 2396,
      "Ġforward": 2397,
      "Ġprep": 2398,
      "ĠPark": 2399,
      "urance": 2400,
      "Ġwords": 2401,
      "ze": 2402,
      "Ġflo": 2403,
      "ĠSpe": 2404,
      "ruction": 2405,
      "ĠAg": 2406,
      "Ġlov": 2407,
      "Ġproperty": 2408,
      "where": 2409,
      "Ġexist": 2410,
      "Ġcharacter": 2411,
      "ibr": 2412,
      "Ġinit": 2413,
      "Ġtou": 2414,
      "Ġnothing": 2415,
      "reme": 2416,
      "Ġmatter": 2417,
      "ĠApr": 2418,
      "ĠFrom": 2419,
      "ĠPlease": 2420,
      "ĠAdd": 2421,
      "ises": 2422,
      "Ġweeks": 2423,
      "AL": 2424,
      "era": 2425,
      "my": 2426,
      "roll": 2427,
      "ĠInc": 2428,
      "Ġinfl": 2429,
      "15": 2430,
      "obile": 2431,
      "Ġconnect": 2432,
      "minist": 2433,
      "Ġimpact": 2434,
      "pper": 2435,
      "uge": 2436,
      "ĠAf": 2437,
      "val": 2438,
      "Ġpopular": 2439,
      "ĠPol": 2440,
      "Ġaction": 2441,
      "Ġunique": 2442,
      "Ġrole": 2443,
      "Ġwhite": 2444,
      "Ġsle": 2445,
      "ience": 2446,
      "Ġfinal": 2447,
      "ĠOct": 2448,
      "Ġaccept": 2449,
      "ĠCenter": 2450,
      "Ġoutside": 2451,
      "Ġkids": 2452,
      "Ġnatural": 2453,
      "ival": 2454,
      "anc": 2455,
      "Ġsignificant": 2456,
      "Ġhon": 2457,
      "Ġsimilar": 2458,
      "ring": 2459,
      "itten": 2460,
      "Ġphone": 2461,
      "eth": 2462,
      "Ġachie": 2463,
      "Ġrepresent": 2464,
      "ĠAug": 2465,
      "opy": 2466,
      "ees": 2467,
      "Ġgra": 2468,
      "Ġsize": 2469,
      "Ġprovided": 2470,
      "Ġincrease": 2471,
      "Ġtakes": 2472,
      "Ġsum": 2473,
      "Ġfail": 2474,
      "verage": 2475,
      "aily": 2476,
      "medi": 2477,
      "Ġdeterm": 2478,
      "Ġfire": 2479,
      "Ġtrue": 2480,
      "Ġextra": 2481,
      "Ġsecurity": 2482,
      "Ġfinancial": 2483,
      "Ġbeautiful": 2484,
      "lt": 2485,
      "Ġdeath": 2486,
      "ification": 2487,
      "ĠCounty": 2488,
      "ĠStud": 2489,
      "Ġsubject": 2490,
      "apt": 2491,
      "ole": 2492,
      "Ġwide": 2493,
      "Ġofficial": 2494,
      "Ġskin": 2495,
      "Ġparty": 2496,
      "Ġeducation": 2497,
      "oud": 2498,
      "Ġchanges": 2499,
      "IC": 2500,
      "Ġswe": 2501,
      "Ġincludes": 2502,
      "ufact": 2503,
      "ĠReg": 2504,
      "Ġstat": 2505,
      "nes": 2506,
      "ĠPresident": 2507,
      "na": 2508,
      "ief": 2509,
      "Ġsafe": 2510,
      "Ġrecent": 2511,
      "ules": 2512,
      "Ġdate": 2513,
      "Ġregard": 2514,
      "Ġrunning": 2515,
      "Ġcouple": 2516,
      "ĠMarch": 2517,
      "Ġground": 2518,
      "Ġcoll": 2519,
      "Ġgeneral": 2520,
      "Ġlog": 2521,
      "ĠCor": 2522,
      "oura": 2523,
      "Ġheld": 2524,
      "ĠAct": 2525,
      "Ġlonger": 2526,
      "istic": 2527,
      "Ġinn": 2528,
      "Ġselect": 2529,
      "Ġdesigned": 2530,
      "erc": 2531,
      "Ġopportunity": 2532,
      "Ġusually": 2533,
      "Ġloss": 2534,
      "Ġengine": 2535,
      "ĠPa": 2536,
      "Ġpaper": 2537,
      "Ġseems": 2538,
      "Ġsend": 2539,
      "Ġleave": 2540,
      "ĠThen": 2541,
      "Ġcomfort": 2542,
      "ĠDav": 2543,
      "Ġmember": 2544,
      "overed": 2545,
      "Ġrecogn": 2546,
      "ĠAmerica": 2547,
      "ffe": 2548,
      "Ġtit": 2549,
      "Ġinside": 2550,
      "ĠWest": 2551,
      "Ġagree": 2552,
      "Ġcreated": 2553,
      "ume": 2554,
      "Ġarticle": 2555,
      "Ġsoftware": 2556,
      "Ġoptions": 2557,
      "Ġtreatment": 2558,
      "Ġsystems": 2559,
      "Ġhtt": 2560,
      "aving": 2561,
      "ests": 2562,
      "Ġchoose": 2563,
      "ĠFin": 2564,
      "Ġlat": 2565,
      "Ġcoun": 2566,
      "Ġregular": 2567,
      "Ġdefin": 2568,
      "ĠUs": 2569,
      "Ġtable": 2570,
      "Ġfast": 2571,
      "Ġmodel": 2572,
      "empt": 2573,
      "Ġanim": 2574,
      "Ġx": 2575,
      "anced": 2576,
      "ades": 2577,
      "cks": 2578,
      "Ġfig": 2579,
      "ĠHigh": 2580,
      "ĠBu": 2581,
      "ox": 2582,
      "olution": 2583,
      "Ġthroughout": 2584,
      "Ġusers": 2585,
      "icro": 2586,
      "Ġworth": 2587,
      "Ġbott": 2588,
      "ĠJune": 2589,
      "iter": 2590,
      "Ġplayers": 2591,
      "Ġ2011": 2592,
      "AC": 2593,
      "Ġspeak": 2594,
      "face": 2595,
      "Ġestab": 2596,
      "Ġtown": 2597,
      "Ġhigher": 2598,
      "Ġattack": 2599,
      "Ġpotential": 2600,
      "Ġshows": 2601,
      "Ġreceived": 2602,
      "Ġrespect": 2603,
      "Ġmoment": 2604,
      "Ġsong": 2605,
      "Ġcannot": 2606,
      "Ġassoci": 2607,
      "iddle": 2608,
      "Ġlives": 2609,
      "Ġready": 2610,
      "oph": 2611,
      "ĠApril": 2612,
      "ky": 2613,
      "Ġreceive": 2614,
      "Ġfa": 2615,
      "aced": 2616,
      "Ġensure": 2617,
      "Ġreading": 2618,
      "Ġinde": 2619,
      "Ġanyone": 2620,
      "arter": 2621,
      "izing": 2622,
      "arget": 2623,
      "ops": 2624,
      "Ġneg": 2625,
      "ĠDay": 2626,
      "Ġcollect": 2627,
      "Ġsaw": 2628,
      "Ġgrowth": 2629,
      "amed": 2630,
      "Ġfit": 2631,
      "Ġhappy": 2632,
      "ana": 2633,
      "Ġhit": 2634,
      "Ġnetwork": 2635,
      "Ġprint": 2636,
      "ĠEm": 2637,
      "iet": 2638,
      "Ġgen": 2639,
      "Ġlay": 2640,
      "Ġknowledge": 2641,
      "ese": 2642,
      "Ġmedical": 2643,
      "ada": 2644,
      "Ġattend": 2645,
      "ude": 2646,
      "Ġrate": 2647,
      "Ġgoal": 2648,
      "reg": 2649,
      "ĠHealth": 2650,
      "ID": 2651,
      "In": 2652,
      "Ġoriginal": 2653,
      "Ġleaders": 2654,
      "Ġtotal": 2655,
      "Ġstri": 2656,
      "Ġdetails": 2657,
      "Ġmach": 2658,
      "Ġupon": 2659,
      "Ġetc": 2660,
      "iff": 2661,
      "Ġnice": 2662,
      "Ġbox": 2663,
      "Ġnational": 2664,
      "Ġcontract": 2665,
      "ĠEl": 2666,
      "Ġsense": 2667,
      "Ġnorm": 2668,
      "ĠWas": 2669,
      "Ġcolor": 2670,
      "ening": 2671,
      "oogle": 2672,
      "atform": 2673,
      "Ġcontrib": 2674,
      "RE": 2675,
      "aging": 2676,
      "ĠSept": 2677,
      "Ġrecently": 2678,
      "Ġdepend": 2679,
      "Ġsales": 2680,
      "Ġpric": 2681,
      "rect": 2682,
      "Ġfunction": 2683,
      "Ġcause": 2684,
      "cil": 2685,
      "Ġill": 2686,
      "Ġrad": 2687,
      "aign": 2688,
      "Ġbase": 2689,
      "Ġstra": 2690,
      "Ġsho": 2691,
      "uary": 2692,
      "Ġlate": 2693,
      "hib": 2694,
      "azing": 2695,
      "ĠInt": 2696,
      "ciety": 2697,
      "Ġwonder": 2698,
      "Ġbooks": 2699,
      "Ġquickly": 2700,
      "Ġ,": 2701,
      "aining": 2702,
      "Ã©": 2703,
      "Ġversion": 2704,
      "eter": 2705,
      "ĠOf": 2706,
      "Ġclick": 2707,
      "Ġexact": 2708,
      "do": 2709,
      "Ġdep": 2710,
      "Ġcele": 2711,
      "Ġdom": 2712,
      "Ġpark": 2713,
      "Ġmorning": 2714,
      "Ġ21": 2715,
      "ĠJuly": 2716,
      "Ġcurrently": 2717,
      "Ġthemselves": 2718,
      "mit": 2719,
      "ĠMich": 2720,
      "200": 2721,
      "aby": 2722,
      "ĠArt": 2723,
      "atory": 2724,
      "Ġball": 2725,
      "Ġlearning": 2726,
      "ederal": 2727,
      "Ġformer": 2728,
      "ague": 2729,
      "Ġdecision": 2730,
      "Ġcareer": 2731,
      "Ġ198": 2732,
      "Ġplaying": 2733,
      "Ġdeep": 2734,
      "Ġpractice": 2735,
      "Ġvia": 2736,
      "based": 2737,
      "Ġdest": 2738,
      "ĠHer": 2739,
      "Ġcourt": 2740,
      "Ġworked": 2741,
      "Ġblog": 2742,
      "ĠOb": 2743,
      "Ġapplication": 2744,
      "like": 2745,
      "ĠHouse": 2746,
      "Ġprior": 2747,
      "Ġple": 2748,
      "adem": 2749,
      "Ġproduction": 2750,
      "Ġut": 2751,
      "idge": 2752,
      "cast": 2753,
      "earch": 2754,
      "ĠMon": 2755,
      "Ġ2010": 2756,
      "ĠOff": 2757,
      "Ġhands": 2758,
      "icles": 2759,
      "Ġitems": 2760,
      "Ġstyle": 2761,
      "Ġdescrib": 2762,
      "gu": 2763,
      "Ġprivate": 2764,
      "ĠFeb": 2765,
      "edd": 2766,
      "Ġlost": 2767,
      "Ġadditional": 2768,
      "ek": 2769,
      "lier": 2770,
      "bor": 2771,
      "Ġcy": 2772,
      "Ġpolicy": 2773,
      "ĠEvery": 2774,
      "Ġmass": 2775,
      "Ġwar": 2776,
      "Ġcredit": 2777,
      "ĠFriday": 2778,
      "ĠFirst": 2779,
      "Ġexpress": 2780,
      "ĠMost": 2781,
      "Ġtour": 2782,
      "Ġwasn": 2783,
      "Ġveh": 2784,
      "Ġboard": 2785,
      "Ġability": 2786,
      "Ġcustomer": 2787,
      "ĠVal": 2788,
      "Ġdownload": 2789,
      "Ġ...": 2790,
      "irit": 2791,
      "Ġhair": 2792,
      "Ġaffect": 2793,
      "Ġlangu": 2794,
      "Ġmyself": 2795,
      "Ġteac": 2796,
      "Ġpatients": 2797,
      "Ġsummer": 2798,
      "Ġ40": 2799,
      "Ġpan": 2800,
      "Ġbal": 2801,
      "eds": 2802,
      "off": 2803,
      "Ġcases": 2804,
      "Ġautom": 2805,
      "25": 2806,
      "Ġfight": 2807,
      "OU": 2808,
      "Ġrights": 2809,
      "Ġincluded": 2810,
      "Ġprograms": 2811,
      "ĠHar": 2812,
      "Ġweight": 2813,
      "Ġactivities": 2814,
      "Ġdeg": 2815,
      "Ġcool": 2816,
      "Ġsqu": 2817,
      "Ġwall": 2818,
      "ached": 2819,
      "Ġdrive": 2820,
      "Ġstruct": 2821,
      "Ġscreen": 2822,
      "ĠRead": 2823,
      "dd": 2824,
      "artment": 2825,
      "Ġsens": 2826,
      "ĠAut": 2827,
      "Ġemb": 2828,
      "Ġbegan": 2829,
      "Ġmeeting": 2830,
      "Ġconc": 2831,
      "Ġsat": 2832,
      "ĠSw": 2833,
      "ux": 2834,
      "ober": 2835,
      "Ġimmedi": 2836,
      "Ġgoes": 2837,
      "Ġcas": 2838,
      "Ġsaf": 2839,
      "Ġmanufact": 2840,
      "Ġinsp": 2841,
      "ĠJo": 2842,
      "Ġmatch": 2843,
      "ament": 2844,
      "Ġterms": 2845,
      "Ġpers": 2846,
      "Ġchance": 2847,
      "asons": 2848,
      "ĠFace": 2849,
      "Ġlatest": 2850,
      "Ġviol": 2851,
      "ming": 2852,
      "Ġeasily": 2853,
      "Ġitself": 2854,
      "Ġparents": 2855,
      "itter": 2856,
      "ĠWar": 2857,
      "Ġclos": 2858,
      "Ġdru": 2859,
      "Ġblood": 2860,
      "imum": 2861,
      "ĠSan": 2862,
      "Ġwoman": 2863,
      "Ġbud": 2864,
      "Ġep": 2865,
      "ĠLet": 2866,
      "ny": 2867,
      "oke": 2868,
      "Ġ2014": 2869,
      "ysis": 2870,
      "Ġprim": 2871,
      "erve": 2872,
      "ession": 2873,
      "ournal": 2874,
      "ĠSund": 2875,
      "16": 2876,
      "Ġmultip": 2877,
      "ĠSatur": 2878,
      "irth": 2879,
      "ĠChar": 2880,
      "Ġarri": 2881,
      "ecut": 2882,
      "Ġobs": 2883,
      "action": 2884,
      "13": 2885,
      "ground": 2886,
      "__": 2887,
      "Ġdise": 2888,
      "Ġskills": 2889,
      "inary": 2890,
      "Ġcam": 2891,
      "Ġdraw": 2892,
      "Ġdecided": 2893,
      "Ġri": 2894,
      "Ġinternational": 2895,
      "Ġintrodu": 2896,
      "14": 2897,
      "Ġfelt": 2898,
      "ĠMus": 2899,
      "light": 2900,
      "Ġapproach": 2901,
      "Ġinstead": 2902,
      "Ġmix": 2903,
      "Wh": 2904,
      "Ġlooks": 2905,
      "ĠAre": 2906,
      "reng": 2907,
      "itc": 2908,
      "Ġsurpr": 2909,
      "Ġgrad": 2910,
      "Ġlevels": 2911,
      "hood": 2912,
      "ham": 2913,
      "Ġround": 2914,
      "Ġtal": 2915,
      "Ġchoice": 2916,
      "airs": 2917,
      "clus": 2918,
      "lim": 2919,
      "ĠWell": 2920,
      "right": 2921,
      "Ġhol": 2922,
      "Ġobject": 2923,
      "OT": 2924,
      "Ġchalleng": 2925,
      "Ġinvolved": 2926,
      "Ġsun": 2927,
      "ĠPost": 2928,
      "org": 2929,
      "Ġstudent": 2930,
      "Ġimm": 2931,
      "ĠAssoci": 2932,
      "ĠCour": 2933,
      "Ġ2017": 2934,
      "Ġfavorite": 2935,
      "sc": 2936,
      "Ġbuilt": 2937,
      "ĠCons": 2938,
      "Ġremember": 2939,
      "Ġclients": 2940,
      "Ġplatform": 2941,
      "Ġpolitical": 2942,
      "Ġones": 2943,
      "Ġconditions": 2944,
      "Ġmarketing": 2945,
      "Ġmother": 2946,
      "uth": 2947,
      "ĠAlso": 2948,
      "18": 2949,
      "hel": 2950,
      "ological": 2951,
      "mon": 2952,
      "enced": 2953,
      "Ġcand": 2954,
      "rown": 2955,
      "attle": 2956,
      "Ġlegal": 2957,
      "ĠAustral": 2958,
      "Ġbecame": 2959,
      "ĠTV": 2960,
      "Ġfresh": 2961,
      "ĠAugust": 2962,
      "Ġcampaign": 2963,
      "ĠEven": 2964,
      "Ġtarget": 2965,
      "ĠAc": 2966,
      "Ġcountries": 2967,
      "haps": 2968,
      "ĠGet": 2969,
      "Ġprojects": 2970,
      "ris": 2971,
      "Ġord": 2972,
      "Ġattention": 2973,
      "ha": 2974,
      "Ġinvestig": 2975,
      "Ġappe": 2976,
      "ĠBrit": 2977,
      "ĠPar": 2978,
      "Ġstock": 2979,
      "Ġ2016": 2980,
      "ĠBlack": 2981,
      "Ġintegr": 2982,
      "pose": 2983,
      "bit": 2984,
      "ipment": 2985,
      "Ġplans": 2986,
      "Ġ22": 2987,
      "Ġleading": 2988,
      "Ġvict": 2989,
      "ĠSaturday": 2990,
      "Ġbenefits": 2991,
      "erous": 2992,
      "Ġlower": 2993,
      "Ġsell": 2994,
      "iam": 2995,
      "Ġapply": 2996,
      "ĠDirect": 2997,
      "Ġrelease": 2998,
      "ĠDepartment": 2999,
      "Ġmaintain": 3000,
      "Ġwritten": 3001,
      "ĠAfric": 3002,
      "Ġallows": 3003,
      "Ġbur": 3004,
      "Ġstandard": 3005,
      "Ġencoura": 3006,
      "Ġjud": 3007,
      "Ġmention": 3008,
      "ĠSim": 3009,
      "uses": 3010,
      "Ġwrong": 3011,
      "Ġemer": 3012,
      "illing": 3013,
      "Ġcosts": 3014,
      "Ġideas": 3015,
      "rought": 3016,
      "Ġsafety": 3017,
      "Ġ>": 3018,
      "ĠUp": 3019,
      "Ġcommit": 3020,
      "Ġhuge": 3021,
      "just": 3022,
      "hern": 3023,
      "Ġwrite": 3024,
      "Ġtouch": 3025,
      "pri": 3026,
      "ters": 3027,
      "Ġplayed": 3028,
      "iction": 3029,
      "atives": 3030,
      "60": 3031,
      "Ġmovie": 3032,
      "Ġsn": 3033,
      "fficient": 3034,
      "su": 3035,
      "Ġboy": 3036,
      "Ġpresident": 3037,
      "Ġattempt": 3038,
      "Ġnecessary": 3039,
      "Ġrelated": 3040,
      "Ġvariety": 3041,
      "kend": 3042,
      "Ġglobal": 3043,
      "Ġhear": 3044,
      "ray": 3045,
      "Ġgroups": 3046,
      "This": 3047,
      "aves": 3048,
      "Ġsett": 3049,
      "Ġbi": 3050,
      "Ġreported": 3051,
      "ĠOctober": 3052,
      "inc": 3053,
      "wood": 3054,
      "Ġ2015": 3055,
      "uel": 3056,
      "Ġaw": 3057,
      "Ġsepar": 3058,
      "ĠPat": 3059,
      "ĠJanuary": 3060,
      "ĠMond": 3061,
      "Ġgets": 3062,
      "Ġvac": 3063,
      "Ġuser": 3064,
      "put": 3065,
      "ĠCalif": 3066,
      "icated": 3067,
      "amb": 3068,
      "Ġthinking": 3069,
      "ĠEnglish": 3070,
      "17": 3071,
      "ĠUK": 3072,
      "ought": 3073,
      "Ġdrink": 3074,
      "str": 3075,
      "ING": 3076,
      "Ġsus": 3077,
      "Ġeffective": 3078,
      "Ġexcept": 3079,
      "ĠSunday": 3080,
      "onse": 3081,
      "body": 3082,
      "Ġamazing": 3083,
      "Ġlif": 3084,
      "ales": 3085,
      "vis": 3086,
      "Ġgave": 3087,
      "Ġsaying": 3088,
      "ĠOther": 3089,
      "Ġeyes": 3090,
      "Ġcomputer": 3091,
      "ĠWhy": 3092,
      "Ġ2009": 3093,
      "iring": 3094,
      "Ġpull": 3095,
      "OS": 3096,
      "Ġmodern": 3097,
      "hold": 3098,
      "Ġcompletely": 3099,
      "Ġoption": 3100,
      "Ġdaily": 3101,
      "Ġdefe": 3102,
      "Ġsil": 3103,
      "ĠFacebook": 3104,
      "ivity": 3105,
      "ĠGoogle": 3106,
      "Ġlab": 3107,
      "ĠInternational": 3108,
      "Ġpropos": 3109,
      "ĠSer": 3110,
      "Ġrout": 3111,
      "ovember": 3112,
      "plement": 3113,
      "Ġfair": 3114,
      "Ġpolice": 3115,
      "ĠAny": 3116,
      "ĠBus": 3117,
      "Ġstru": 3118,
      "Ġbank": 3119,
      "ĠSeptember": 3120,
      "Ġstreng": 3121,
      "avy": 3122,
      "ĠAir": 3123,
      "yl": 3124,
      "Ġcirc": 3125,
      "22": 3126,
      "Ġtrust": 3127,
      "Ġexpected": 3128,
      "ester": 3129,
      "Ġpurchase": 3130,
      "ĠSch": 3131,
      "Ġdating": 3132,
      "itary": 3133,
      "ondon": 3134,
      "bert": 3135,
      "ĠRed": 3136,
      "aged": 3137,
      "ension": 3138,
      "mercial": 3139,
      "pite": 3140,
      "Ġgiving": 3141,
      "Ġshall": 3142,
      "cip": 3143,
      "Ġsold": 3144,
      "Ġpositive": 3145,
      "iding": 3146,
      "'d": 3147,
      "Ġnote": 3148,
      "Ġanswer": 3149,
      "ĠMany": 3150,
      "Ġinteresting": 3151,
      "rel": 3152,
      "Ġexcell": 3153,
      "Ġaverage": 3154,
      "Ġhor": 3155,
      "gar": 3156,
      "Ġknew": 3157,
      "wise": 3158,
      "Ġgives": 3159,
      "ishing": 3160,
      "ĠOver": 3161,
      "St": 3162,
      "Ġprevent": 3163,
      "Ġdoor": 3164,
      "Ġresources": 3165,
      "enge": 3166,
      "Ġsource": 3167,
      "Ġur": 3168,
      "Ġpiece": 3169,
      "Ġenter": 3170,
      "Ġparts": 3171,
      "king": 3172,
      "Ġsituation": 3173,
      "enty": 3174,
      "Ġtypes": 3175,
      "Ġdepart": 3176,
      "Ġsites": 3177,
      "ĠSen": 3178,
      "Ġled": 3179,
      "Ġsave": 3180,
      "Ġmid": 3181,
      "ĠFree": 3182,
      "ule": 3183,
      "Ġproviding": 3184,
      "Ġdisplay": 3185,
      "Ġrequest": 3186,
      "Ġextreme": 3187,
      "Ġcomment": 3188,
      "Ġadminist": 3189,
      "cription": 3190,
      "ett": 3191,
      "Ġcenter": 3192,
      "Ġdiv": 3193,
      "idered": 3194,
      "Ġdigital": 3195,
      "Ġcelebr": 3196,
      "Ġ23": 3197,
      "Ġ+": 3198,
      "zy": 3199,
      "Ġtele": 3200,
      "ospital": 3201,
      "Ġpred": 3202,
      "Ġslow": 3203,
      "Ġremov": 3204,
      "Ġcross": 3205,
      "Ġsleep": 3206,
      "cember": 3207,
      "Ġhimself": 3208,
      "Ġlocated": 3209,
      "Ġsometimes": 3210,
      "Ġsche": 3211,
      "ĠSci": 3212,
      "ĠNews": 3213,
      "ĠMonday": 3214,
      "Ġheard": 3215,
      "Ġflow": 3216,
      "Ġinsurance": 3217,
      "Ġdocument": 3218,
      "Ġtools": 3219,
      "Ġ2018": 3220,
      "idents": 3221,
      "Ġorganization": 3222,
      "Ġcat": 3223,
      "EC": 3224,
      "Ġimage": 3225,
      "band": 3226,
      "fl": 3227,
      "ville": 3228,
      "vey": 3229,
      "Ġdead": 3230,
      "itation": 3231,
      "ornia": 3232,
      "ica": 3233,
      "ns": 3234,
      "ael": 3235,
      "ilies": 3236,
      "Ġinterview": 3237,
      "Ġhighly": 3238,
      "Ġfeed": 3239,
      "AM": 3240,
      "ĠNovember": 3241,
      "Ġplant": 3242,
      "yond": 3243,
      "Ġdark": 3244,
      "Ġhelps": 3245,
      "urt": 3246,
      "cious": 3247,
      "Ġstarting": 3248,
      "verse": 3249,
      "ĠGener": 3250,
      "40": 3251,
      "agn": 3252,
      "oms": 3253,
      "alt": 3254,
      "Ġeye": 3255,
      "Ġinflu": 3256,
      "Ġlocation": 3257,
      "Ġcup": 3258,
      "ceed": 3259,
      "ĠOnce": 3260,
      "key": 3261,
      "21": 3262,
      "Ġbroad": 3263,
      "Ġqual": 3264,
      "Ġplayer": 3265,
      "Ġpartners": 3266,
      "hington": 3267,
      "Ġstuff": 3268,
      "ĠNet": 3269,
      "Ġcapt": 3270,
      "ĠGerm": 3271,
      "Ġwood": 3272,
      "unt": 3273,
      "itely": 3274,
      "Ġpublished": 3275,
      "Ġpath": 3276,
      "lin": 3277,
      "Ġcollection": 3278,
      "Ġreach": 3279,
      "orge": 3280,
      "Ġweekend": 3281,
      "Ġoffe": 3282,
      "ĠSince": 3283,
      "ĠLondon": 3284,
      "Ġ28": 3285,
      "ĠKing": 3286,
      "Ġturned": 3287,
      "Ġbrought": 3288,
      "Ġfine": 3289,
      "Ġstories": 3290,
      "Ġtrip": 3291,
      "itute": 3292,
      "Ġprogress": 3293,
      "Ġfile": 3294,
      "Ġavoid": 3295,
      "Ġdetail": 3296,
      "mission": 3297,
      "ibly": 3298,
      "aches": 3299,
      "imately": 3300,
      "aste": 3301,
      "Ġdirectly": 3302,
      "ĠCO": 3303,
      "pre": 3304,
      "Ġreve": 3305,
      "apan": 3306,
      "ĠLaw": 3307,
      "Ġprin": 3308,
      "Ġarch": 3309,
      "ĠâĢ¦": 3310,
      "Ġmobile": 3311,
      "ĠChina": 3312,
      "Ġstates": 3313,
      "aker": 3314,
      "Ġconduct": 3315,
      "ma": 3316,
      "Ġspent": 3317,
      "Ġgreen": 3318,
      "Ġ2008": 3319,
      "Ġexerc": 3320,
      "ĠOut": 3321,
      "Ġphysical": 3322,
      "Ġreleased": 3323,
      "add": 3324,
      "Ġblock": 3325,
      "ĠCalifornia": 3326,
      "ĠStreet": 3327,
      "Ġaware": 3328,
      "Ġemployees": 3329,
      "omen": 3330,
      "ĠCoun": 3331,
      "unities": 3332,
      "Ġcondition": 3333,
      "Ġsolution": 3334,
      "aly": 3335,
      "Ġrev": 3336,
      "Ġdream": 3337,
      "Ġband": 3338,
      "sych": 3339,
      "Ġfarm": 3340,
      "Ġmultiple": 3341,
      "Ġconsidered": 3342,
      "iles": 3343,
      "ruary": 3344,
      "Ġlanguage": 3345,
      "cies": 3346,
      "Ġfeeling": 3347,
      "Ġtowards": 3348,
      "Ġimplement": 3349,
      "Ġfell": 3350,
      "Ġconvers": 3351,
      "Ġwarm": 3352,
      "ara": 3353,
      "ĠDem": 3354,
      "Ġfirm": 3355,
      "ĠWind": 3356,
      "âĢĿ.": 3357,
      "ĠDecember": 3358,
      "uesday": 3359,
      "Ġsuccessful": 3360,
      "ĠGl": 3361,
      "Ġpen": 3362,
      "Ġeconomic": 3363,
      "US": 3364,
      "Ġmaterials": 3365,
      "Ġlimited": 3366,
      "ications": 3367,
      "sec": 3368,
      "board": 3369,
      "Ġfeature": 3370,
      "Ġ197": 3371,
      "Ġfinally": 3372,
      "aught": 3373,
      "Ġspot": 3374,
      "ĠJes": 3375,
      "Ġnature": 3376,
      "\".": 3377,
      "Ġequipment": 3378,
      "rote": 3379,
      "Ġconsist": 3380,
      "ened": 3381,
      "Ġindividuals": 3382,
      "uate": 3383,
      "Ġcarry": 3384,
      "ĠLa": 3385,
      "Ġbag": 3386,
      "Ġsection": 3387,
      "Ġneigh": 3388,
      "ĠDavid": 3389,
      "Ġeffects": 3390,
      "EO": 3391,
      "ĠTrans": 3392,
      "aling": 3393,
      "Ġhour": 3394,
      "Ġge": 3395,
      "ĠWashington": 3396,
      "Ġplaces": 3397,
      "Ġtick": 3398,
      "Ġlooked": 3399,
      "ĠRuss": 3400,
      "itchen": 3401,
      "Ġdro": 3402,
      "urer": 3403,
      "cause": 3404,
      "ores": 3405,
      "xic": 3406,
      "Ġmis": 3407,
      "Ġlack": 3408,
      "ald": 3409,
      "Ġimag": 3410,
      "ĠProf": 3411,
      "ĠEar": 3412,
      "zz": 3413,
      "ivil": 3414,
      "Ġadvant": 3415,
      "Ġrestaur": 3416,
      "ĠGroup": 3417,
      "ĠJack": 3418,
      "Ġhttp": 3419,
      "Ġgrowing": 3420,
      "Ġnation": 3421,
      "Ġclub": 3422,
      "izes": 3423,
      "Ġbudget": 3424,
      "Ġson": 3425,
      "Ġinnov": 3426,
      "Ġrespond": 3427,
      "Ġprevious": 3428,
      "Ġcertainly": 3429,
      "ford": 3430,
      "Ġexpert": 3431,
      "Ġrace": 3432,
      "ĠTHE": 3433,
      "Ġfather": 3434,
      "Ġdog": 3435,
      "ĠMet": 3436,
      "Ġten": 3437,
      "Ġmount": 3438,
      "Ġfix": 3439,
      "Ġded": 3440,
      "tee": 3441,
      "Ġresponse": 3442,
      "Ġgoals": 3443,
      "Ġsubs": 3444,
      "aries": 3445,
      "Ġinterested": 3446,
      "nds": 3447,
      "raft": 3448,
      "aint": 3449,
      "Ġfully": 3450,
      "Ġcomplex": 3451,
      "Ġachieve": 3452,
      "arily": 3453,
      "Ġeat": 3454,
      "Ġspeed": 3455,
      "oul": 3456,
      "EMA": 3457,
      "Ġadult": 3458,
      "Ġexactly": 3459,
      "Ġtraditional": 3460,
      "Ġvot": 3461,
      "aughter": 3462,
      "Ġ27": 3463,
      "Ġbusinesses": 3464,
      "ĠCollege": 3465,
      "Ġphotos": 3466,
      "rences": 3467,
      "Ġdeveloped": 3468,
      "ĠCle": 3469,
      "ET": 3470,
      "oming": 3471,
      "Ġplanning": 3472,
      "ĠTod": 3473,
      "Ġkn": 3474,
      "www": 3475,
      "ursday": 3476,
      "Ġeffort": 3477,
      "Ġtried": 3478,
      "Ġsen": 3479,
      "ĠGreat": 3480,
      "Ġcorrect": 3481,
      "antly": 3482,
      "rast": 3483,
      "Ġhealthy": 3484,
      "Ġsubst": 3485,
      "Ġorganiz": 3486,
      "Ġdeliver": 3487,
      "ancy": 3488,
      "Ġcode": 3489,
      "Ġteams": 3490,
      "ĠAN": 3491,
      "Ġfeet": 3492,
      "Ġbehav": 3493,
      "ĠWhite": 3494,
      "EL": 3495,
      "ocr": 3496,
      "Ġconcept": 3497,
      "Ġlic": 3498,
      "arden": 3499,
      "ĠFebruary": 3500,
      "unk": 3501,
      "Ġstage": 3502,
      "Ġcopy": 3503,
      "mas": 3504,
      "Ġregist": 3505,
      "ida": 3506,
      "mark": 3507,
      "ĠWed": 3508,
      "isions": 3509,
      "Ġmessage": 3510,
      "field": 3511,
      "het": 3512,
      "Ġ26": 3513,
      "ĠMor": 3514,
      "ĠiP": 3515,
      "Ġbirth": 3516,
      "Ġdry": 3517,
      "Ġpromot": 3518,
      "Ġcollege": 3519,
      "ani": 3520,
      "ĠBusiness": 3521,
      "?âĢĿ": 3522,
      "ĠService": 3523,
      "ĠPaul": 3524,
      "ĠTuesday": 3525,
      "Ġstress": 3526,
      "Ġbeginning": 3527,
      "Ġmoving": 3528,
      "bur": 3529,
      "ram": 3530,
      "arant": 3531,
      "Ġnearly": 3532,
      "ari": 3533,
      "Ġdistrib": 3534,
      "Ġregul": 3535,
      "ĠAccording": 3536,
      "Ġroll": 3537,
      "Ġgold": 3538,
      "Ġwants": 3539,
      "Ġconsult": 3540,
      "ĠOp": 3541,
      "vant": 3542,
      "Ġaward": 3543,
      "Ġwel": 3544,
      "Ġcreating": 3545,
      "ography": 3546,
      "Ġevidence": 3547,
      "ĠJapan": 3548,
      "ipping": 3549,
      "Ġdress": 3550,
      "vin": 3551,
      "uk": 3552,
      "ĠBest": 3553,
      "Ġfamilies": 3554,
      "Ġprem": 3555,
      "rael": 3556,
      "olute": 3557,
      "Ġanalysis": 3558,
      "Ġthreat": 3559,
      "Ġimpress": 3560,
      "ĠRem": 3561,
      "):": 3562,
      "Ġannounced": 3563,
      "Ġschools": 3564,
      "bum": 3565,
      "Ġshoot": 3566,
      "ĠWeb": 3567,
      "Ġaccom": 3568,
      "uted": 3569,
      "ĠCourt": 3570,
      "Ġculture": 3571,
      "ĠEast": 3572,
      "Ġdifference": 3573,
      "Ġ60": 3574,
      "sp": 3575,
      "Ġwife": 3576,
      "Ġsolutions": 3577,
      "Ġemot": 3578,
      "ube": 3579,
      "ĠAlthough": 3580,
      "Ġbra": 3581,
      "ĠAss": 3582,
      "Ġprices": 3583,
      "Ġaltern": 3584,
      "Ġult": 3585,
      "Ġindepend": 3586,
      "ĠPlay": 3587,
      "Ġpressure": 3588,
      "Ġactivity": 3589,
      "down": 3590,
      "wide": 3591,
      "error": 3592,
      "ength": 3593,
      "Ġdisease": 3594,
      "Ġtalking": 3595,
      "ĠIndia": 3596,
      "Ġstraight": 3597,
      "Ġwish": 3598,
      "itable": 3599,
      "Ġpaid": 3600,
      "Ġwait": 3601,
      "Ġmat": 3602,
      "Ġpicture": 3603,
      "wor": 3604,
      "Ġhistor": 3605,
      "Ġstrateg": 3606,
      "ying": 3607,
      "Ġdemand": 3608,
      "Ġbillion": 3609,
      "ares": 3610,
      "ĠTex": 3611,
      "Ġoverall": 3612,
      "Ġmaybe": 3613,
      "Ġexcellent": 3614,
      "anch": 3615,
      "You": 3616,
      "Ġopportunities": 3617,
      "ĠÂ£": 3618,
      "ĠThursday": 3619,
      "EMAIL": 3620,
      "sequ": 3621,
      "ĠSuper": 3622,
      "Ġbenefit": 3623,
      "Ġhop": 3624,
      "Ġbaby": 3625,
      "ĠMod": 3626,
      "ĠIN": 3627,
      "ibrary": 3628,
      "ĠBook": 3629,
      "Ġgas": 3630,
      "ĠGood": 3631,
      "hest": 3632,
      "inner": 3633,
      "Ġshot": 3634,
      "erved": 3635,
      "Ġfat": 3636,
      "Ġdevice": 3637,
      "Ġfloor": 3638,
      "--": 3639,
      "Ġrent": 3640,
      "Ġdemon": 3641,
      "ĠOh": 3642,
      "ager": 3643,
      "Ġreports": 3644,
      "Ġapart": 3645,
      "Ġserious": 3646,
      "mitted": 3647,
      "Ġrequirements": 3648,
      "ruit": 3649,
      "Ġdirector": 3650,
      "oly": 3651,
      "atever": 3652,
      "more": 3653,
      "Ġter": 3654,
      "Ġparticularly": 3655,
      "Ġwrote": 3656,
      "Ġaim": 3657,
      "ĠTechn": 3658,
      "Ġfrequ": 3659,
      "reed": 3660,
      "Ġprot": 3661,
      "Ġimmediately": 3662,
      "Ġtitle": 3663,
      "Ġincreased": 3664,
      "Ġoccur": 3665,
      "ĠClick": 3666,
      "Ġfans": 3667,
      "ategy": 3668,
      "estern": 3669,
      "Ġcouldn": 3670,
      "nesday": 3671,
      "Ġthous": 3672,
      "Ġbeyond": 3673,
      "Ġunderstanding": 3674,
      "undred": 3675,
      "rows": 3676,
      "ĠHome": 3677,
      "Ġpurpose": 3678,
      "ew": 3679,
      "Ġdire": 3680,
      "Ġacqu": 3681,
      "Ġinstru": 3682,
      "ato": 3683,
      "Ġearlier": 3684,
      "ocol": 3685,
      "Ġsort": 3686,
      "Ġwhose": 3687,
      "ĠPal": 3688,
      "Ġheat": 3689,
      "IP": 3690,
      "Ġdoll": 3691,
      "AP": 3692,
      "ĠWork": 3693,
      "rench": 3694,
      "Ġcommercial": 3695,
      "Ġanaly": 3696,
      "ancing": 3697,
      "Ġappropri": 3698,
      "Ġalone": 3699,
      "Ġhous": 3700,
      "Ġregion": 3701,
      "duc": 3702,
      "Ġinform": 3703,
      "Ġloved": 3704,
      "BC": 3705,
      "Ġspirit": 3706,
      "ounds": 3707,
      "orage": 3708,
      "Ġallowed": 3709,
      "Ġcert": 3710,
      "Ġassess": 3711,
      "Ġdoub": 3712,
      "ĠJesus": 3713,
      "Ġâ": 3714,
      "Ġcancer": 3715,
      "ords": 3716,
      "isc": 3717,
      "Ġimages": 3718,
      "Ġapplications": 3719,
      "Ġinvestment": 3720,
      "Ġincreasing": 3721,
      "Ġdefinitely": 3722,
      "asc": 3723,
      "Ġtur": 3724,
      "reci": 3725,
      "ION": 3726,
      "Ġnut": 3727,
      "99": 3728,
      "ĠGold": 3729,
      "Ġmiddle": 3730,
      "Ġadvice": 3731,
      "ĠIsrael": 3732,
      "Ġrock": 3733,
      "venue": 3734,
      "imin": 3735,
      "amm": 3736,
      "Ġeight": 3737,
      "ĠLast": 3738,
      "ĠServices": 3739,
      "ously": 3740,
      "olf": 3741,
      "ĠGreen": 3742,
      "ĠSee": 3743,
      "Ġlik": 3744,
      "ĠIr": 3745,
      "ĠDist": 3746,
      "ĠBecause": 3747,
      "ĠProgram": 3748,
      "Ġliter": 3749,
      "ĠPort": 3750,
      "Ġble": 3751,
      "Ġsupply": 3752,
      "Ġtrade": 3753,
      "ĠRepublic": 3754,
      "ĠSub": 3755,
      "Ġseven": 3756,
      "Ġrelig": 3757,
      "Ġver": 3758,
      "ĠDel": 3759,
      "Ġopin": 3760,
      ">.": 3761,
      "Ġowners": 3762,
      "Ġfem": 3763,
      "Ġuses": 3764,
      "Ġdamage": 3765,
      "ĠII": 3766,
      "ashion": 3767,
      "Ġstrugg": 3768,
      "gen": 3769,
      "ronic": 3770,
      "ecutive": 3771,
      "ils": 3772,
      "He": 3773,
      "aled": 3774,
      "Ġserve": 3775,
      "ĠEach": 3776,
      "pm": 3777,
      "ĠWhe": 3778,
      "Ġcharge": 3779,
      "Ġfederal": 3780,
      "Ġfear": 3781,
      "Ġobtain": 3782,
      "Ġgar": 3783,
      "Ġsale": 3784,
      "Ġtemper": 3785,
      "ĠHall": 3786,
      "ĠBel": 3787,
      "Ġproced": 3788,
      "Ġvoice": 3789,
      "Ġchanged": 3790,
      "Ġpattern": 3791,
      "Ġgrand": 3792,
      "Ġenh": 3793,
      "Ġcorpor": 3794,
      "Ġalthough": 3795,
      "ĠAssociation": 3796,
      "Ġcandid": 3797,
      "vision": 3798,
      "Ġhus": 3799,
      "ĠSur": 3800,
      "Ġnumbers": 3801,
      "Ġreduce": 3802,
      "vest": 3803,
      "Ġremain": 3804,
      "Ġchallenge": 3805,
      "Ġstatement": 3806,
      "Ġsurv": 3807,
      "ĠJames": 3808,
      "Ġscient": 3809,
      "dom": 3810,
      "useum": 3811,
      "Ġund": 3812,
      "ault": 3813,
      "ĠPri": 3814,
      "Ġmeaning": 3815,
      "Ġmachine": 3816,
      "Ġcontain": 3817,
      "force": 3818,
      "Ġsmart": 3819,
      "ĠMichael": 3820,
      "isf": 3821,
      "Ġrules": 3822,
      "Ġcapital": 3823,
      "Ġnormal": 3824,
      "ĠSpr": 3825,
      "ĠEuropean": 3826,
      "Ġextend": 3827,
      "ĠWednesday": 3828,
      "Ġeasier": 3829,
      "Ġhappened": 3830,
      "Ġ2019": 3831,
      "Ġadvert": 3832,
      "iant": 3833,
      "ĠInternet": 3834,
      "Ġcomments": 3835,
      "ĠYear": 3836,
      "Ġreasons": 3837,
      "Ġrates": 3838,
      "Ġaren": 3839,
      "ĠCong": 3840,
      "ĠIndian": 3841,
      "Ġquarter": 3842,
      "ĠResearch": 3843,
      "Ġpartner": 3844,
      "Ġjobs": 3845,
      "Ġoffered": 3846,
      "Ġmax": 3847,
      "ĠTy": 3848,
      "iber": 3849,
      "set": 3850,
      "lock": 3851,
      "Ġchurch": 3852,
      "ĠSystem": 3853,
      "ooth": 3854,
      "Ġmoved": 3855,
      "ĠFound": 3856,
      "Ġhelped": 3857,
      "Ġload": 3858,
      "lied": 3859,
      "Ġcateg": 3860,
      "Ġresponsible": 3861,
      "Ġphoto": 3862,
      "Ġbasis": 3863,
      "Ġactive": 3864,
      "Ġguide": 3865,
      "ĠSupp": 3866,
      "Ġcold": 3867,
      "chan": 3868,
      "Ġ29": 3869,
      "ĠInter": 3870,
      "Ġalbum": 3871,
      "ĠCanada": 3872,
      "Ġaspect": 3873,
      "ĠTexas": 3874,
      "ĠPM": 3875,
      "Ġclin": 3876,
      "ĠMac": 3877,
      "ĠDevelop": 3878,
      "change": 3879,
      "Ġglass": 3880,
      "Ġmilitary": 3881,
      "Ġfab": 3882,
      "Ġdang": 3883,
      "pa": 3884,
      "orrow": 3885,
      "ban": 3886,
      "Ġtruly": 3887,
      "ĠYes": 3888,
      "Ġconstruction": 3889,
      "Ġstudies": 3890,
      "Ġhundred": 3891,
      "ffee": 3892,
      "lement": 3893,
      "Ġcru": 3894,
      "Ġing": 3895,
      "Ġforce": 3896,
      "rapy": 3897,
      "Ġessential": 3898,
      "Ġjoin": 3899,
      "ĠGovern": 3900,
      "Ġprefer": 3901,
      "ĠChristmas": 3902,
      "Ġ2020": 3903,
      "Ġprofession": 3904,
      "olic": 3905,
      "ĠObama": 3906,
      "ĠPeople": 3907,
      "Ġinstit": 3908,
      "Ġpatient": 3909,
      "arc": 3910,
      "Ġscience": 3911,
      "Ġpet": 3912,
      "Ġbasic": 3913,
      "ago": 3914,
      "Ġahead": 3915,
      "Ġpow": 3916,
      "ĠRet": 3917,
      "Ġoffering": 3918,
      "ĠToday": 3919,
      "isl": 3920,
      "Ġshown": 3921,
      "Ġdouble": 3922,
      "Ġspread": 3923,
      "osing": 3924,
      "Ġdevices": 3925,
      "inger": 3926,
      "Ġefforts": 3927,
      "Ġreflect": 3928,
      "iling": 3929,
      "Ġpages": 3930,
      "Ġcash": 3931,
      "Ġabsolute": 3932,
      "24": 3933,
      "icip": 3934,
      "Ġinternet": 3935,
      "Ġdelivery": 3936,
      "Ġ2007": 3937,
      "house": 3938,
      "80": 3939,
      "Ġbottom": 3940,
      "Ġlargest": 3941,
      "Ġguys": 3942,
      "Ġattract": 3943,
      "ĠDesign": 3944,
      "itiz": 3945,
      "ĠAv": 3946,
      "nded": 3947,
      "Ġnotice": 3948,
      "ĠRich": 3949,
      "Ġwild": 3950,
      "edding": 3951,
      "istry": 3952,
      "Ġgone": 3953,
      "Ġfra": 3954,
      "iny": 3955,
      "icate": 3956,
      "Ġstick": 3957,
      "Ġdegree": 3958,
      "order": 3959,
      "ĠEduc": 3960,
      "mp": 3961,
      "ĠLike": 3962,
      "ĠMake": 3963,
      "Ġannual": 3964,
      "ĠCouncil": 3965,
      "see": 3966,
      "Ġnamed": 3967,
      "ĠAM": 3968,
      "ĠOffice": 3969,
      "omb": 3970,
      "ĠIS": 3971,
      "Ġguy": 3972,
      "Ġsports": 3973,
      "Ġsam": 3974,
      "Ġvehicle": 3975,
      "Ġwonderful": 3976,
      "Ġsust": 3977,
      "Ġwww": 3978,
      "Ġgreater": 3979,
      "ĠMarket": 3980,
      "well": 3981,
      "Ġhelping": 3982,
      "Ġmer": 3983,
      "ĠMem": 3984,
      "Ġstar": 3985,
      "coming": 3986,
      "ĠThanks": 3987,
      "ĠAnt": 3988,
      "istics": 3989,
      "akers": 3990,
      "Ġlines": 3991,
      "rief": 3992,
      "Ġlots": 3993,
      "Ġmeasure": 3994,
      "ports": 3995,
      "ourney": 3996,
      "Ġsurround": 3997,
      "ĠSam": 3998,
      "Ġmiles": 3999,
      "ĠCheck": 4000,
      "Ġaccur": 4001,
      "Ġpeace": 4002,
      "Ġpoor": 4003,
      "rial": 4004,
      "Ch": 4005,
      "Ġpowerful": 4006,
      "Ġassociated": 4007,
      "Ġgirls": 4008,
      "Ġadjust": 4009,
      "RO": 4010,
      "Ġfinish": 4011,
      "Ġsetting": 4012,
      "Ġfollowed": 4013,
      "que": 4014,
      "la": 4015,
      "Ġperhaps": 4016,
      "Ġdecl": 4017,
      "ĠAnge": 4018,
      "Ġclient": 4019,
      "Ġframe": 4020,
      "ĠChristian": 4021,
      "ĠChurch": 4022,
      "Ġden": 4023,
      "ĠCr": 4024,
      "Ġkitchen": 4025,
      "Ġ@": 4026,
      "Ġbill": 4027,
      "Ġslight": 4028,
      "Ġfinished": 4029,
      "etic": 4030,
      "hips": 4031,
      "Ġexpand": 4032,
      "ĠUse": 4033,
      "Ġappreci": 4034,
      "Ġpictures": 4035,
      "ĠCompany": 4036,
      "ĠFlor": 4037,
      "Ġhusband": 4038,
      "Ġbrain": 4039,
      "ss": 4040,
      "ĠBritish": 4041,
      "itect": 4042,
      "Ġstrength": 4043,
      "atively": 4044,
      "place": 4045,
      "ĠLoc": 4046,
      "bon": 4047,
      "Ġtrou": 4048,
      "Ġshop": 4049,
      "Ġoccas": 4050,
      "ĠPublic": 4051,
      "care": 4052,
      "Ġblue": 4053,
      "ipped": 4054,
      "Ġstrategy": 4055,
      "Ġworkers": 4056,
      "bed": 4057,
      "ĠBoard": 4058,
      "Ġserved": 4059,
      "Ġproduce": 4060,
      "amic": 4061,
      "ĠDuring": 4062,
      "Ġsociety": 4063,
      "ĠClass": 4064,
      "ĠTwitter": 4065,
      "AD": 4066,
      "Ġcompon": 4067,
      "Ġobv": 4068,
      "ĠRel": 4069,
      "Ġextremely": 4070,
      "Ġseeing": 4071,
      "Ġcharacters": 4072,
      "Ġeval": 4073,
      "ls": 4074,
      "itude": 4075,
      "Ġhotel": 4076,
      "Ġregarding": 4077,
      "ston": 4078,
      "ĠSol": 4079,
      "Ġletter": 4080,
      "Ġbrother": 4081,
      "Ġsteps": 4082,
      "PS": 4083,
      "Ġfant": 4084,
      "Ġchem": 4085,
      "anging": 4086,
      "Ġclot": 4087,
      "ĠAnn": 4088,
      "ĠJer": 4089,
      "Ġbreat": 4090,
      "ĠRom": 4091,
      "Ġincome": 4092,
      "Ġcollabor": 4093,
      "ĠRec": 4094,
      "lying": 4095,
      "ken": 4096,
      "Ġreplace": 4097,
      "Ġweather": 4098,
      "term": 4099,
      "ties": 4100,
      "Ġfaith": 4101,
      "Ġtransfer": 4102,
      "Ġopening": 4103,
      "Ġhomes": 4104,
      "Ġcast": 4105,
      "Ġcompared": 4106,
      "ĠDirector": 4107,
      "ĠAnother": 4108,
      "Ġlearned": 4109,
      "Ġpros": 4110,
      "Ġsweet": 4111,
      "inated": 4112,
      "ĠHot": 4113,
      "ĠBig": 4114,
      "Ġkept": 4115,
      "Ġdrug": 4116,
      "Ġlock": 4117,
      "Ġcritical": 4118,
      "ĠBill": 4119,
      "ĠUnder": 4120,
      "encies": 4121,
      "Ġborn": 4122,
      "Ġcamera": 4123,
      "Ġwear": 4124,
      "ĠHel": 4125,
      "hens": 4126,
      "ses": 4127,
      "friend": 4128,
      "unte": 4129,
      "Ġeconomy": 4130,
      "Ġtransport": 4131,
      "Ġanti": 4132,
      "Ġtruth": 4133,
      "ĠCur": 4134,
      "ĠReview": 4135,
      "Ġexisting": 4136,
      "ĠAbout": 4137,
      "rem": 4138,
      "Ġreb": 4139,
      "Ġguarant": 4140,
      "Ġafford": 4141,
      "ĠLear": 4142,
      "Ġhaven": 4143,
      "ulf": 4144,
      "Ġadvantage": 4145,
      "ĠTwo": 4146,
      "ero": 4147,
      "imal": 4148,
      "Ġvirt": 4149,
      "Ġpieces": 4150,
      "Ġdriving": 4151,
      "Ġwat": 4152,
      "ĠTop": 4153,
      "asy": 4154,
      "Ġonto": 4155,
      "ady": 4156,
      "rig": 4157,
      "ĠST": 4158,
      "ĠMart": 4159,
      "Ġplus": 4160,
      "Ġcontinued": 4161,
      "Ġexperienced": 4162,
      "ech": 4163,
      "lies": 4164,
      "apter": 4165,
      "Ġgift": 4166,
      "Ġmovement": 4167,
      "Ġthank": 4168,
      "Ġleader": 4169,
      "ĠMag": 4170,
      "Ġvill": 4171,
      "dule": 4172,
      "Ġprotection": 4173,
      "acity": 4174,
      "Ġpopulation": 4175,
      "LE": 4176,
      "Ġruns": 4177,
      "Ġappropriate": 4178,
      "Ġcomfortable": 4179,
      "Ġaudience": 4180,
      "Ġtrain": 4181,
      "iced": 4182,
      "ĠGeneral": 4183,
      "23": 4184,
      "Ġlarger": 4185,
      "ĠWho": 4186,
      "Ġcho": 4187,
      "ĠEv": 4188,
      "Ġsuff": 4189,
      "ampions": 4190,
      "iable": 4191,
      "cul": 4192,
      "eria": 4193,
      "Ġharm": 4194,
      "Ġsurface": 4195,
      "Ġappoint": 4196,
      "ĠAustralia": 4197,
      "ĠThom": 4198,
      "Ġwouldn": 4199,
      "Ġcolle": 4200,
      "aming": 4201,
      "ĠVis": 4202,
      "Ġpsych": 4203,
      "ifying": 4204,
      "Ġbiggest": 4205,
      "Ġbath": 4206,
      "ĠIT": 4207,
      "Ġcry": 4208,
      "Ġdisapp": 4209,
      "ĠPhot": 4210,
      "ĠRoad": 4211,
      "ĠLife": 4212,
      "rupt": 4213,
      "ĠDown": 4214,
      "Ġir": 4215,
      "Ġrepe": 4216,
      "icine": 4217,
      "Ġbeg": 4218,
      "Ġhom": 4219,
      "Ġbow": 4220,
      "Ġknows": 4221,
      "iment": 4222,
      "ĠTime": 4223,
      "Ġsatisf": 4224,
      "ĠWindows": 4225,
      "Ġfootball": 4226,
      "Ġdoctor": 4227,
      "Ġorganizations": 4228,
      "range": 4229,
      "ĠRob": 4230,
      "If": 4231,
      "Ġiniti": 4232,
      "Ġlength": 4233,
      "Ġcreative": 4234,
      "ologies": 4235,
      "Ġscore": 4236,
      "Ġscene": 4237,
      "Ġfigure": 4238,
      "ĠMicro": 4239,
      "ĠHum": 4240,
      "Ġentertain": 4241,
      "Ġpassed": 4242,
      "ĠCam": 4243,
      "using": 4244,
      "ĠFrench": 4245,
      "gn": 4246,
      "Ġmodels": 4247,
      "ustr": 4248,
      "Ġhighest": 4249,
      "ĠBra": 4250,
      "Ġuseful": 4251,
      "phone": 4252,
      "Ġtend": 4253,
      "ĠBay": 4254,
      "Ġpayment": 4255,
      "ĠLook": 4256,
      "gency": 4257,
      "Ġincred": 4258,
      "ST": 4259,
      "Ġreality": 4260,
      "ĠApple": 4261,
      "Ġheavy": 4262,
      "ado": 4263,
      "IV": 4264,
      "Ġesc": 4265,
      "Ġgenerally": 4266,
      "Ġbackground": 4267,
      "ĠIsland": 4268,
      "rey": 4269,
      "rowd": 4270,
      "Ġdiet": 4271,
      "ĠPhil": 4272,
      "sey": 4273,
      "Ġcontinu": 4274,
      "Ġtoward": 4275,
      "Ġdemonstr": 4276,
      "Ġfinding": 4277,
      "ĠMary": 4278,
      "usion": 4279,
      "ĠPlan": 4280,
      "gal": 4281,
      "Ġadop": 4282,
      "Ġnovel": 4283,
      "Ġstorage": 4284,
      "ĠWin": 4285,
      "Ġactual": 4286,
      "ĠMatt": 4287,
      "Ġrequires": 4288,
      "roud": 4289,
      "ĠBank": 4290,
      "Ġcompleted": 4291,
      "Ġstream": 4292,
      "ĠChild": 4293,
      "itors": 4294,
      "ĠSun": 4295,
      "porary": 4296,
      "Ġmethods": 4297,
      "ĠLord": 4298,
      "ĠHist": 4299,
      "pective": 4300,
      "ĠTom": 4301,
      "ĠSk": 4302,
      "Ġstructure": 4303,
      "ae": 4304,
      "Ġcalls": 4305,
      "udd": 4306,
      "Ġpray": 4307,
      "Ġstandards": 4308,
      "Ġolder": 4309,
      "Ġguid": 4310,
      "Ġtips": 4311,
      "raw": 4312,
      "Ġchallenges": 4313,
      "riage": 4314,
      "Ġestablished": 4315,
      "Ġconference": 4316,
      "Ġdaughter": 4317,
      "Ġprimary": 4318,
      "estival": 4319,
      "Ġjourney": 4320,
      "unately": 4321,
      "rees": 4322,
      "Ġacadem": 4323,
      "Ġmist": 4324,
      "ĠCare": 4325,
      "ĠRock": 4326,
      "inese": 4327,
      "Ġalle": 4328,
      "Ġowner": 4329,
      "Ġremind": 4330,
      "aven": 4331,
      "Ġnames": 4332,
      "Ġexhib": 4333,
      "45": 4334,
      "ker": 4335,
      "ym": 4336,
      "Ġ80": 4337,
      "Ġsto": 4338,
      "100": 4339,
      "orial": 4340,
      "Ġfan": 4341,
      "za": 4342,
      "ĠFam": 4343,
      "Ġ=": 4344,
      "Ġ2006": 4345,
      "ĠBack": 4346,
      "ios": 4347,
      "box": 4348,
      "Ġmission": 4349,
      "Ġcells": 4350,
      "Ġshared": 4351,
      "Ġretail": 4352,
      "Ġwhatever": 4353,
      "ĠFind": 4354,
      "Ġdied": 4355,
      "Ġscen": 4356,
      "Ġexercise": 4357,
      "Ġunit": 4358,
      "rian": 4359,
      "Ġreviews": 4360,
      "iled": 4361,
      "osure": 4362,
      "Ġmanage": 4363,
      "ĠRiver": 4364,
      "Ġexperiences": 4365,
      "Ġcoach": 4366,
      "Ġproduced": 4367,
      "ij": 4368,
      "IG": 4369,
      "ĠHave": 4370,
      "Ġcompl": 4371,
      "anta": 4372,
      "nding": 4373,
      "ĠPC": 4374,
      "ĠClub": 4375,
      "ĠThank": 4376,
      "Ġutil": 4377,
      "atically": 4378,
      "Ġcompetition": 4379,
      "oos": 4380,
      "ĠFlorida": 4381,
      "Ġorigin": 4382,
      "Ġfiles": 4383,
      "ona": 4384,
      "ĠInstitute": 4385,
      "OL": 4386,
      "ression": 4387,
      "Ġcards": 4388,
      "Ġsenior": 4389,
      "DA": 4390,
      "Ġtom": 4391,
      "Ġconnection": 4392,
      "Ġcivil": 4393,
      "vere": 4394,
      "ĠCommission": 4395,
      "Ġsolid": 4396,
      "rab": 4397,
      "Ġ31": 4398,
      "Ġdrop": 4399,
      "Ġhospital": 4400,
      "Ġthanks": 4401,
      "Ġevening": 4402,
      "Ġremains": 4403,
      "Ġprec": 4404,
      "Ġmeant": 4405,
      "ĠMiss": 4406,
      "overy": 4407,
      "Ġfish": 4408,
      "Ġsecure": 4409,
      "Ġmill": 4410,
      "ĠBer": 4411,
      "Ġcommunities": 4412,
      "Ġstatus": 4413,
      "free": 4414,
      "Ġhappens": 4415,
      "Ġessay": 4416,
      "Ġspring": 4417,
      "Ġofficials": 4418,
      "icks": 4419,
      "Ġplaced": 4420,
      "Ġelectric": 4421,
      "Ġmanager": 4422,
      "Ġchann": 4423,
      "ĠSa": 4424,
      "Ġsym": 4425,
      "Ġwaiting": 4426,
      "Ġflav": 4427,
      "enses": 4428,
      "osh": 4429,
      "Ġmaster": 4430,
      "Ġcentury": 4431,
      "CC": 4432,
      "entially": 4433,
      "Ġresist": 4434,
      "iques": 4435,
      "500": 4436,
      "ĠSal": 4437,
      "Ġlimit": 4438,
      "Ġrare": 4439,
      "works": 4440,
      "Ġcovered": 4441,
      "ĠJew": 4442,
      "Ġguess": 4443,
      "acing": 4444,
      "Ġcontinues": 4445,
      "Â®": 4446,
      "Ġfill": 4447,
      "reak": 4448,
      "ĠManagement": 4449,
      "itar": 4450,
      "Ġsecret": 4451,
      "ĠInformation": 4452,
      "Ġpool": 4453,
      "Ġestablish": 4454,
      "azine": 4455,
      "Ġparties": 4456,
      "Ġclaims": 4457,
      "ĠTO": 4458,
      "Ġbalance": 4459,
      "ĠCap": 4460,
      "ĠBen": 4461,
      "Ġtraffic": 4462,
      "Ġearn": 4463,
      "Ġviews": 4464,
      "Ġcoffee": 4465,
      "look": 4466,
      "Ġwine": 4467,
      "ĠPower": 4468,
      "ĠMal": 4469,
      "uty": 4470,
      "ĠPress": 4471,
      "Ġtherefore": 4472,
      "gery": 4473,
      "iation": 4474,
      "Ġmechan": 4475,
      "Ġkeeping": 4476,
      "Ġgun": 4477,
      "ĠUSA": 4478,
      "ĠSocial": 4479,
      "Ġlose": 4480,
      "ula": 4481,
      "ĠTrump": 4482,
      "ĠChic": 4483,
      "soft": 4484,
      "yer": 4485,
      "Ġrich": 4486,
      "Ġfactors": 4487,
      "ĠIns": 4488,
      "Ġcaused": 4489,
      "Ġpassion": 4490,
      "Ġmatt": 4491,
      "Ġselection": 4492,
      "ervation": 4493,
      "Ġlaunch": 4494,
      "fast": 4495,
      "Ġspending": 4496,
      "text": 4497,
      "Ġstreet": 4498,
      "ĠTake": 4499,
      "standing": 4500,
      "Ġwatching": 4501,
      "ĠProfess": 4502,
      "ĠSl": 4503,
      "ĠOF": 4504,
      "35": 4505,
      "Ġfashion": 4506,
      "Ġrob": 4507,
      "Ġton": 4508,
      "Ġsession": 4509,
      "Ġbeat": 4510,
      "ads": 4511,
      "Ġrefer": 4512,
      "Ġluck": 4513,
      "Ġopened": 4514,
      "Ġhar": 4515,
      "Ġforms": 4516,
      "ĠCamp": 4517,
      "ĠWater": 4518,
      "ĠLou": 4519,
      "ĠEducation": 4520,
      "Ġcasino": 4521,
      "ander": 4522,
      "Ġboo": 4523,
      "ĠDet": 4524,
      "Ġearth": 4525,
      "Ġtechnical": 4526,
      "âĢĿ,": 4527,
      "Ġideal": 4528,
      "ĠStar": 4529,
      "ĠDec": 4530,
      "osis": 4531,
      "Ġvideos": 4532,
      "Ġsources": 4533,
      "Ġteaching": 4534,
      "azon": 4535,
      "Ġbatter": 4536,
      "Ġ90": 4537,
      "ota": 4538,
      "Ġprepared": 4539,
      "Ġfol": 4540,
      "ĠSum": 4541,
      "Ġdeveloping": 4542,
      "Ġepis": 4543,
      "Ġbecomes": 4544,
      "ĠWhere": 4545,
      "ĠSmith": 4546,
      "ĠChinese": 4547,
      "men": 4548,
      "ĠCongress": 4549,
      "Ġwinter": 4550,
      "Ġmentioned": 4551,
      "Ġshowed": 4552,
      "Ġfunds": 4553,
      "Ġexcited": 4554,
      "oop": 4555,
      "Ġegg": 4556,
      "Ġforget": 4557,
      "MS": 4558,
      "umn": 4559,
      "Ġrelax": 4560,
      "ipe": 4561,
      "Ġseemed": 4562,
      "Ġlinks": 4563,
      "Ġleaving": 4564,
      "ĠPet": 4565,
      "Ġdetermine": 4566,
      "Ġexclus": 4567,
      "Ġjump": 4568,
      "roid": 4569,
      "ĠOpen": 4570,
      "know": 4571,
      "Ġcrowd": 4572,
      "Ġgrant": 4573,
      "Ġcraft": 4574,
      "Ġlands": 4575,
      "As": 4576,
      "Ġcris": 4577,
      "itness": 4578,
      "Ġingred": 4579,
      "Ġthousands": 4580,
      "Ġvision": 4581,
      "ading": 4582,
      "amin": 4583,
      "27": 4584,
      "Ġcatch": 4585,
      "uled": 4586,
      "ĠEngland": 4587,
      "ĠBet": 4588,
      "ĠMexic": 4589,
      "Ġ196": 4590,
      "vention": 4591,
      "Ġmajority": 4592,
      "Ġcommunication": 4593,
      "Ġproud": 4594,
      "ĠAfrica": 4595,
      "Ġplenty": 4596,
      "lor": 4597,
      "Ġpresented": 4598,
      "Ġadding": 4599,
      "What": 4600,
      "Ġtesting": 4601,
      "Ġestate": 4602,
      "Ġflex": 4603,
      "Ġlegisl": 4604,
      "Ġstarts": 4605,
      "Ġoperations": 4606,
      "Ġforeign": 4607,
      "Ġpaint": 4608,
      "Ġbutton": 4609,
      "Ġelements": 4610,
      "Ġhandle": 4611,
      "ĠVir": 4612,
      "Ġtim": 4613,
      "ooper": 4614,
      "Ġpolic": 4615,
      "ctors": 4616,
      "iller": 4617,
      "Ġcitiz": 4618,
      "Ġdirection": 4619,
      "lig": 4620,
      "TS": 4621,
      "Ġbecoming": 4622,
      "ĠProject": 4623,
      "Ġcounter": 4624,
      "ĠMount": 4625,
      "miss": 4626,
      "Ġice": 4627,
      "Ġgain": 4628,
      "Ġimpl": 4629,
      "ĠGeorge": 4630,
      "oyal": 4631,
      "Ġrap": 4632,
      "apers": 4633,
      "Ġeth": 4634,
      "Re": 4635,
      "ented": 4636,
      "ĠFore": 4637,
      "ĠStep": 4638,
      "Ġmemory": 4639,
      "Ġposted": 4640,
      "Ġshape": 4641,
      "Ġdespite": 4642,
      "ipp": 4643,
      "Ġwedding": 4644,
      "ĠCall": 4645,
      "ĠTheir": 4646,
      "Ġsugar": 4647,
      "ĠSing": 4648,
      "Ġwindow": 4649,
      "ĠSil": 4650,
      "Ġefficient": 4651,
      "RA": 4652,
      "ĠLake": 4653,
      "Ġunc": 4654,
      "Ġpair": 4655,
      "Ġfamous": 4656,
      "Ġfurn": 4657,
      "asp": 4658,
      "Ġinjury": 4659,
      "Ġpleas": 4660,
      "Ġjournal": 4661,
      "gment": 4662,
      "oe": 4663,
      "Ġrecords": 4664,
      "iers": 4665,
      "Ġdescribed": 4666,
      "esome": 4667,
      "ĠBefore": 4668,
      "iency": 4669,
      "ugg": 4670,
      "Ġminute": 4671,
      "Ġclearly": 4672,
      "ĠDemocr": 4673,
      "Ġleadership": 4674,
      "Ġsnow": 4675,
      "ĠMil": 4676,
      "orney": 4677,
      "Ġindependent": 4678,
      "ĠGlo": 4679,
      "ĠBrown": 4680,
      "odes": 4681,
      "Ġargu": 4682,
      "Ġstation": 4683,
      "Ġvictim": 4684,
      "door": 4685,
      "ellow": 4686,
      "Ġkid": 4687,
      "PA": 4688,
      "ĠAlex": 4689,
      "hem": 4690,
      "Ġvolunte": 4691,
      "Ġdepartment": 4692,
      "Ġschedule": 4693,
      "Ġgraph": 4694,
      "ĠBoth": 4695,
      "ĠLove": 4696,
      "Ġdedicated": 4697,
      "Ġrank": 4698,
      "Ġflu": 4699,
      "Ġdiagn": 4700,
      "how": 4701,
      "ĠCustom": 4702,
      "OW": 4703,
      "Ġdiscover": 4704,
      "Ġcentral": 4705,
      "Ġsand": 4706,
      "Ġestim": 4707,
      "Ġwelcome": 4708,
      "Ġwilling": 4709,
      "Ġloan": 4710,
      "iliar": 4711,
      "Ġcream": 4712,
      "ĠAtt": 4713,
      "Ġappears": 4714,
      "uries": 4715,
      "ĠOnline": 4716,
      "antic": 4717,
      "Ġotherwise": 4718,
      "Ġvalues": 4719,
      "Ġapprox": 4720,
      "Ġresidents": 4721,
      "Ġdecide": 4722,
      "Ġdat": 4723,
      "ĠForm": 4724,
      "Ġcars": 4725,
      "26": 4726,
      "Ġmental": 4727,
      "Ġcloud": 4728,
      "ette": 4729,
      "Ġremove": 4730,
      "ĠVol": 4731,
      "log": 4732,
      "ĠFood": 4733,
      "Ġconven": 4734,
      "Ġsched": 4735,
      "Ġended": 4736,
      "Ġagency": 4737,
      "Ġworry": 4738,
      "Ġtask": 4739,
      "Ġnumerous": 4740,
      "?\"": 4741,
      "cript": 4742,
      "ĠBur": 4743,
      "ĠHy": 4744,
      "Ġvir": 4745,
      "Ġwinning": 4746,
      "Ġfocused": 4747,
      "Ġleaves": 4748,
      "ste": 4749,
      "Ġsmaller": 4750,
      "Ġraised": 4751,
      "ĠScience": 4752,
      "outhern": 4753,
      "win": 4754,
      "Ġ35": 4755,
      "Ġclosed": 4756,
      "Ġdecisions": 4757,
      "Ġshowing": 4758,
      "29": 4759,
      "state": 4760,
      "Ġsustain": 4761,
      "Ġfabric": 4762,
      "Ġartist": 4763,
      "Ġadvance": 4764,
      "Ġsty": 4765,
      "olly": 4766,
      "estic": 4767,
      "Ġvote": 4768,
      "28": 4769,
      "fit": 4770,
      "icken": 4771,
      "Ġexperts": 4772,
      "ĠTur": 4773,
      "Ġdriver": 4774,
      "Ġclasses": 4775,
      "Ġhonest": 4776,
      "Ġseparate": 4777,
      "point": 4778,
      "Ġbird": 4779,
      "edy": 4780,
      "ĠStr": 4781,
      "semb": 4782,
      "craft": 4783,
      "bing": 4784,
      "enture": 4785,
      "osition": 4786,
      "Ġsch": 4787,
      "Ġsympt": 4788,
      "ĠMot": 4789,
      "Ġpresence": 4790,
      "night": 4791,
      "Ġcontains": 4792,
      "Ġshopping": 4793,
      "IM": 4794,
      "Ġpractices": 4795,
      "hy": 4796,
      "icon": 4797,
      "ĠCommunity": 4798,
      "abilities": 4799,
      "Ġcapacity": 4800,
      "inct": 4801,
      "Ġplants": 4802,
      "Ġdecor": 4803,
      "Ġchanging": 4804,
      "Ġanimals": 4805,
      "Ġagreement": 4806,
      "bl": 4807,
      "ĠMain": 4808,
      "Ġeating": 4809,
      "Ġdelic": 4810,
      "tenance": 4811,
      "ĠVe": 4812,
      "Ġtaste": 4813,
      "ĠChicago": 4814,
      "ka": 4815,
      "nect": 4816,
      "berg": 4817,
      "Ġcab": 4818,
      "pan": 4819,
      "Ġgarden": 4820,
      "going": 4821,
      "Ġopinion": 4822,
      "OM": 4823,
      "Ġsexual": 4824,
      "oma": 4825,
      "actions": 4826,
      "Ġthrow": 4827,
      "Ġbuying": 4828,
      "aked": 4829,
      "ĠCommit": 4830,
      "Ġbon": 4831,
      "Ġholiday": 4832,
      "Ġtree": 4833,
      "isco": 4834,
      "ĠFire": 4835,
      "ĠTimes": 4836,
      "Ġwalking": 4837,
      "Ġsmooth": 4838,
      "Ġcore": 4839,
      "Ġlisten": 4840,
      "ĠWood": 4841,
      "Ġmarkets": 4842,
      "Ġship": 4843,
      "Ġ70": 4844,
      "Ġ2005": 4845,
      "Ġthoughts": 4846,
      "Ġbright": 4847,
      "inn": 4848,
      "itz": 4849,
      "illa": 4850,
      "Ġincor": 4851,
      "CA": 4852,
      "ki": 4853,
      "ception": 4854,
      "Ġexplore": 4855,
      "Ġride": 4856,
      "ĠLeague": 4857,
      "Ġthus": 4858,
      "Ġmotor": 4859,
      "Ġslightly": 4860,
      "Ġmail": 4861,
      "70": 4862,
      "ĠFollow": 4863,
      "Ġbul": 4864,
      "Ġupdate": 4865,
      "Ġbought": 4866,
      "Ġmanufacturer": 4867,
      "Ġreached": 4868,
      "ship": 4869,
      "Ġpoll": 4870,
      "Ġign": 4871,
      "Ġtrail": 4872,
      "Ġtransl": 4873,
      "Ġlisted": 4874,
      "ĠMusic": 4875,
      "Ġdinner": 4876,
      "Ġdefense": 4877,
      "Ġsector": 4878,
      "Ġspl": 4879,
      "Ġlabor": 4880,
      "iture": 4881,
      "Ġmicro": 4882,
      "Ġmanaged": 4883,
      "\",": 4884,
      "Ġmo": 4885,
      "ĠPay": 4886,
      "active": 4887,
      "outs": 4888,
      "Ġrelevant": 4889,
      "UR": 4890,
      "Ġfunding": 4891,
      "Ġactions": 4892,
      "Ġbrings": 4893,
      "Ġbrief": 4894,
      "ano": 4895,
      "Ġbehavior": 4896,
      "ĠFranc": 4897,
      "Ġabsolutely": 4898,
      "Ġsharing": 4899,
      "ĠHill": 4900,
      "Ġtrial": 4901,
      "Ġartists": 4902,
      "Ġrestaurant": 4903,
      "ĠSpecial": 4904,
      "Ġfeels": 4905,
      "ĠDevelopment": 4906,
      "There": 4907,
      "gl": 4908,
      "Ġclassic": 4909,
      "ĠDiv": 4910,
      "ĠLu": 4911,
      "ixt": 4912,
      "Ġcorner": 4913,
      "Ġteachers": 4914,
      "Ġarchitect": 4915,
      "!âĢĿ": 4916,
      "Ġidentify": 4917,
      "Ġputting": 4918,
      "ga": 4919,
      "Ġrid": 4920,
      "idential": 4921,
      "ĠCarol": 4922,
      "Ġinitial": 4923,
      "Ġlaws": 4924,
      "Ġassign": 4925,
      "Ġrelationships": 4926,
      "Ġneighbor": 4927,
      "Ġrule": 4928,
      "Ġpreviously": 4929,
      "ĠBlue": 4930,
      "ĠScott": 4931,
      "Ġcombination": 4932,
      "Ġnotes": 4933,
      "Ġcolors": 4934,
      "Ġflat": 4935,
      "roy": 4936,
      "Ġcoverage": 4937,
      "rehens": 4938,
      "Ġencourage": 4939,
      "ror": 4940,
      "Ġbeauty": 4941,
      "ĠAP": 4942,
      "ĠGra": 4943,
      "Ġbattle": 4944,
      "Ġ(<": 4945,
      "cket": 4946,
      "Ġsem": 4947,
      "isation": 4948,
      "ferences": 4949,
      "ĠWil": 4950,
      "Ġkick": 4951,
      "Ġsounds": 4952,
      "press": 4953,
      "Ġmostly": 4954,
      "ĠLong": 4955,
      "ĠStart": 4956,
      "EM": 4957,
      "ĠCentral": 4958,
      "ĠMer": 4959,
      "Ġshut": 4960,
      "Ġvs": 4961,
      "ĠSomet": 4962,
      "ĠHol": 4963,
      "Ġarticles": 4964,
      "esterday": 4965,
      "ishes": 4966,
      "Ġdebt": 4967,
      "iance": 4968,
      "Ġeventually": 4969,
      "cipe": 4970,
      "Ġadapt": 4971,
      "BS": 4972,
      "Ġadvanced": 4973,
      "Ġpolicies": 4974,
      "ĠTim": 4975,
      "Ġfacilities": 4976,
      "Ġsumm": 4977,
      "Ġemp": 4978,
      "Ġoperating": 4979,
      "Ġvisual": 4980,
      "ĠShow": 4981,
      "Ġdocuments": 4982,
      "Ġmouth": 4983,
      "ĠGrand": 4984,
      "ĠTeam": 4985,
      "ĠWomen": 4986,
      "Ġspect": 4987,
      "90": 4988,
      "ocolate": 4989,
      "BA": 4990,
      "Ġarm": 4991,
      "Ġasking": 4992,
      "Ġresponsibility": 4993,
      "Ġexciting": 4994,
      "Ġmort": 4995,
      "Ġconcerns": 4996,
      "Ġcircum": 4997,
      "cel": 4998,
      "Ġconnected": 4999,
      "ĠArch": 5000,
      "NA": 5001,
      "ript": 5002,
      "unction": 5003,
      "ĠAND": 5004,
      "ĠDri": 5005,
      "Ġlaun": 5006,
      "lands": 5007,
      "Ġalternative": 5008,
      "rd": 5009,
      "Ġwhom": 5010,
      "Ġselling": 5011,
      "Ġdiscussion": 5012,
      "ĠAmericans": 5013,
      "Ġsitu": 5014,
      "mail": 5015,
      "pet": 5016,
      "Ġfee": 5017,
      "Ġentry": 5018,
      "ĠSecurity": 5019,
      "ĠSociety": 5020,
      "Ġenvironmental": 5021,
      "Ġer": 5022,
      "ĠJim": 5023,
      "ommod": 5024,
      "Ġkilled": 5025,
      "Ġdoubt": 5026,
      "unning": 5027,
      "ĠEnter": 5028,
      "Ġfilled": 5029,
      "alls": 5030,
      "ĠAmazon": 5031,
      "life": 5032,
      "arge": 5033,
      "ĠFort": 5034,
      "Ġdu": 5035,
      "Ġchair": 5036,
      "Ġselected": 5037,
      "Ġadministration": 5038,
      "hone": 5039,
      "Ġrat": 5040,
      "Ġbeach": 5041,
      "Ġcompar": 5042,
      "while": 5043,
      "Ġveget": 5044,
      "ternal": 5045,
      "ĠJournal": 5046,
      "ulated": 5047,
      "Ġnegative": 5048,
      "Ġclim": 5049,
      "Ġfuel": 5050,
      "Ġ2000": 5051,
      "ĠRobert": 5052,
      "ĠExper": 5053,
      "ĠReal": 5054,
      "ection": 5055,
      "75": 5056,
      "Ġthr": 5057,
      "ĠDistrict": 5058,
      "Ġminor": 5059,
      "icians": 5060,
      "word": 5061,
      "no": 5062,
      "ĠFoundation": 5063,
      "ĠMad": 5064,
      "ĠColor": 5065,
      "Ġap": 5066,
      "Ġsouth": 5067,
      "ĠOnly": 5068,
      "Ġprofessionals": 5069,
      "tered": 5070,
      "okes": 5071,
      "Ġfriendly": 5072,
      "Ġaccompl": 5073,
      ");": 5074,
      "Ġteacher": 5075,
      "CH": 5076,
      "ĠCD": 5077,
      "ĠBeach": 5078,
      "ini": 5079,
      "Ġsport": 5080,
      "Ġfreed": 5081,
      "ĠElect": 5082,
      "ront": 5083,
      "Ġposts": 5084,
      "ushing": 5085,
      "ĠJud": 5086,
      "ĠIts": 5087,
      "Ġreturned": 5088,
      "Ġexpensive": 5089,
      "coh": 5090,
      "arrant": 5091,
      "Ġpackage": 5092,
      "hab": 5093,
      "Ġwaste": 5094,
      "Ġtemperature": 5095,
      "IA": 5096,
      "ĠThose": 5097,
      "Ġgeneration": 5098,
      "ograp": 5099,
      "essions": 5100,
      "ructure": 5101,
      "ushed": 5102,
      "atures": 5103,
      "Ġmap": 5104,
      "ENT": 5105,
      "Ġmarriage": 5106,
      "ĠAL": 5107,
      "Ġedge": 5108,
      "ĠTor": 5109,
      "Ġsea": 5110,
      "reek": 5111,
      "fortunately": 5112,
      "Ġunless": 5113,
      "Ġtight": 5114,
      "Ġjoint": 5115,
      "Ġconsid": 5116,
      "fin": 5117,
      "ĠKeep": 5118,
      "ups": 5119,
      "Ġsongs": 5120,
      "Ġfemale": 5121,
      "Ġrain": 5122,
      "Ġmur": 5123,
      "spe": 5124,
      "ĠMcC": 5125,
      "ifts": 5126,
      "ĠAS": 5127,
      "Ġmulti": 5128,
      "Ġallowing": 5129,
      "ĠView": 5130,
      "ĠCommittee": 5131,
      "Ġhelpful": 5132,
      "ĠMedia": 5133,
      "Ġplastic": 5134,
      "known": 5135,
      "ius": 5136,
      "Ġplays": 5137,
      "ĠMont": 5138,
      "Ġcorporate": 5139,
      "Ġrise": 5140,
      "Ġmedium": 5141,
      "ĠWhether": 5142,
      "eed": 5143,
      "ĠValley": 5144,
      "noon": 5145,
      "llig": 5146,
      "Ġtransform": 5147,
      "Ġradio": 5148,
      "but": 5149,
      "Ġmetal": 5150,
      "ĠAtl": 5151,
      "ĠStand": 5152,
      "orter": 5153,
      "Ġnor": 5154,
      "Ġyouth": 5155,
      "ĠMel": 5156,
      "Ġspecies": 5157,
      "Ġapplied": 5158,
      "nel": 5159,
      "ĠData": 5160,
      "Ġenjoyed": 5161,
      "Ġhearing": 5162,
      "Ġsigned": 5163,
      "Ġguests": 5164,
      "ĠLat": 5165,
      "Ġrooms": 5166,
      "Ġ2004": 5167,
      "Ġtechniques": 5168,
      "ĠProduct": 5169,
      "Ġfees": 5170,
      "Ġarrest": 5171,
      "ĠFrank": 5172,
      "Ġtypically": 5173,
      "95": 5174,
      "ola": 5175,
      "Ġsurvey": 5176,
      "ulate": 5177,
      "ĠAcadem": 5178,
      "ĠTre": 5179,
      "Ġseek": 5180,
      "ĠJul": 5181,
      "Ġproperties": 5182,
      "ĠCard": 5183,
      "Ġleads": 5184,
      "ĠHam": 5185,
      "Ġ45": 5186,
      "odies": 5187,
      "ĠUN": 5188,
      "ĠPeter": 5189,
      "Ġseconds": 5190,
      "Ġconversation": 5191,
      "âĢľ": 5192,
      "Ġreaders": 5193,
      "ĠEngine": 5194,
      "Ġindic": 5195,
      "ĠQue": 5196,
      "Ġoptim": 5197,
      "Ġholding": 5198,
      "Ġinfluence": 5199,
      "Ġimportance": 5200,
      "Ġwriter": 5201,
      "Ġnorth": 5202,
      "Ġassistance": 5203,
      "ĠUnion": 5204,
      "Ġminimum": 5205,
      "Ġdistance": 5206,
      "isher": 5207,
      "ĠNext": 5208,
      "Ġbusy": 5209,
      "umber": 5210,
      "Ġcommitted": 5211,
      "Ġourselves": 5212,
      "Ġraise": 5213,
      "Ġsymptoms": 5214,
      "rim": 5215,
      "ĠGovernment": 5216,
      "____": 5217,
      "ĠMike": 5218,
      "Ġtheme": 5219,
      "Ġclimate": 5220,
      "Ġforces": 5221,
      "ulture": 5222,
      "Ġjoined": 5223,
      "otic": 5224,
      "Ġconsumers": 5225,
      "ĠOffic": 5226,
      "Ġprinci": 5227,
      "Ġnoted": 5228,
      "Ġsitting": 5229,
      "ĠDig": 5230,
      "Ġpal": 5231,
      "gers": 5232,
      "Ġsequ": 5233,
      "Ġpush": 5234,
      "Ġbutter": 5235,
      "ĠOrgan": 5236,
      "top": 5237,
      "asks": 5238,
      "Ġforg": 5239,
      "Ġbrows": 5240,
      "Ġweap": 5241,
      "ĠVirgin": 5242,
      "rs": 5243,
      "ĠMass": 5244,
      "Ġmeasures": 5245,
      "Ġfacility": 5246,
      "ĠList": 5247,
      "oles": 5248,
      "Ġtough": 5249,
      "orthern": 5250,
      "Ġprocesses": 5251,
      "Ġcheap": 5252,
      "ĠNY": 5253,
      "ĠInstead": 5254,
      "ĠConst": 5255,
      "uce": 5256,
      "Ġpun": 5257,
      "Ġcontext": 5258,
      "ĠMicrosoft": 5259,
      "ordin": 5260,
      "Ġsurgery": 5261,
      "Ġtopic": 5262,
      "ĠRad": 5263,
      "ears": 5264,
      "Ġteach": 5265,
      "ĠRE": 5266,
      "Ġfourth": 5267,
      "prise": 5268,
      "Ġath": 5269,
      "Ġdisp": 5270,
      "Ġrecommended": 5271,
      "Ġmissing": 5272,
      "Ġvisitors": 5273,
      "33": 5274,
      "igan": 5275,
      "Ġshipping": 5276,
      "osen": 5277,
      "Ġelection": 5278,
      "Ġperformed": 5279,
      "Ġcalling": 5280,
      "ĠMa": 5281,
      "Ġresearc": 5282,
      "Ġsets": 5283,
      "Ġfamiliar": 5284,
      "ĠEarth": 5285,
      "Ġdistrict": 5286,
      "Ġspons": 5287,
      "Ġrepair": 5288,
      "Ġnine": 5289,
      "ĠPerson": 5290,
      "Ġquiet": 5291,
      "what": 5292,
      "Ġingredients": 5293,
      "Ġsav": 5294,
      "Ġaccident": 5295,
      "Ġappeared": 5296,
      "ĠFamily": 5297,
      "tion": 5298,
      "ĠFrance": 5299,
      "istan": 5300,
      "Ġproperly": 5301,
      "Ġsalt": 5302,
      "eal": 5303,
      "SA": 5304,
      "zen": 5305,
      "Ġupgr": 5306,
      "cher": 5307,
      "Ġban": 5308,
      "ĠCEO": 5309,
      "ĠBuild": 5310,
      "Ġexplain": 5311,
      "Ġtotally": 5312,
      "po": 5313,
      "Ġthick": 5314,
      "ĠNov": 5315,
      "Ġsupposed": 5316,
      "ĠRy": 5317,
      "Ġsigns": 5318,
      "Ġstores": 5319,
      "Ġ500": 5320,
      "with": 5321,
      "ums": 5322,
      "Ġpossibly": 5323,
      "ya": 5324,
      "olars": 5325,
      "which": 5326,
      "Ġapparent": 5327,
      "ucle": 5328,
      "Ġju": 5329,
      "Ġannounce": 5330,
      "water": 5331,
      "Ġcities": 5332,
      "poses": 5333,
      "Ġdogs": 5334,
      "ĠLos": 5335,
      "Ġstret": 5336,
      "Ġaccommod": 5337,
      "Ġseeking": 5338,
      "ĠContact": 5339,
      "Ġcaught": 5340,
      "Ġanimal": 5341,
      "den": 5342,
      "Ġment": 5343,
      "Ġfif": 5344,
      "ĠFil": 5345,
      "Ġoperation": 5346,
      "ĠThomas": 5347,
      "rolled": 5348,
      "Ġconcent": 5349,
      "omin": 5350,
      "Ġacademic": 5351,
      "ĠWestern": 5352,
      "uable": 5353,
      "Ġran": 5354,
      "Ġpredict": 5355,
      "Ġdie": 5356,
      "igr": 5357,
      "ĠWord": 5358,
      "Ġcultural": 5359,
      "ĠJoe": 5360,
      "ĠParty": 5361,
      "Ġcart": 5362,
      "ĠChris": 5363,
      "list": 5364,
      "Ġwebsites": 5365,
      "ĠAfrican": 5366,
      "Ġdur": 5367,
      "rical": 5368,
      "cient": 5369,
      "ivered": 5370,
      "ĠSecond": 5371,
      "Ġsoul": 5372,
      "ĠNote": 5373,
      "Ġdesk": 5374,
      "Ġconfidence": 5375,
      "Ġintellig": 5376,
      "Ġ36": 5377,
      "Ġseat": 5378,
      "Ġmaintenance": 5379,
      "Ġmarried": 5380,
      "Ġdyn": 5381,
      "Ġscale": 5382,
      "Ġadults": 5383,
      "Ġconflic": 5384,
      "Ġgall": 5385,
      "ags": 5386,
      "Ġcombined": 5387,
      "kin": 5388,
      "cipl": 5389,
      "Ġlived": 5390,
      "Ġhun": 5391,
      "umin": 5392,
      "ĠLight": 5393,
      "Ġviolence": 5394,
      "anda": 5395,
      "Ġformat": 5396,
      "Ġafternoon": 5397,
      "Ġtells": 5398,
      "iat": 5399,
      "ĠBob": 5400,
      "avig": 5401,
      "Ġcourses": 5402,
      "Ġcleaning": 5403,
      "ĠTest": 5404,
      "ĠNOT": 5405,
      "Ġdollars": 5406,
      "Ġserving": 5407,
      "ĠDou": 5408,
      "Ġmagn": 5409,
      "Ġprofile": 5410,
      "Ġrecipe": 5411,
      "Ġeffic": 5412,
      "Ġcharges": 5413,
      "ĠSand": 5414,
      "ĠMaybe": 5415,
      "Ġconv": 5416,
      "LC": 5417,
      "Ġstated": 5418,
      "Ġspecifically": 5419,
      "Ġcontem": 5420,
      "ĠMo": 5421,
      "Ġ2003": 5422,
      "ita": 5423,
      "Ġdiscount": 5424,
      "Ġpanel": 5425,
      "Ġdepos": 5426,
      "Ġphil": 5427,
      "Ġchemical": 5428,
      "Ġmale": 5429,
      "Ġyes": 5430,
      "ĠMedical": 5431,
      "Ġdance": 5432,
      "ĠPolice": 5433,
      "Ġtun": 5434,
      "Ġchat": 5435,
      "Ġtrees": 5436,
      "Ġoccup": 5437,
      "Ġarg": 5438,
      "Ġdesire": 5439,
      "ĠReport": 5440,
      "Ġextensive": 5441,
      "Ġenhance": 5442,
      "Ġwire": 5443,
      "Ġpregn": 5444,
      "Ġdatab": 5445,
      "ĠTri": 5446,
      "Ġlocations": 5447,
      "!)": 5448,
      "ingly": 5449,
      "Ġpurposes": 5450,
      "ĠNor": 5451,
      "Ġtherapy": 5452,
      "ĠOld": 5453,
      "Ġremoved": 5454,
      "ĠGame": 5455,
      "rooms": 5456,
      "ye": 5457,
      "Ġmotiv": 5458,
      "Ġdecades": 5459,
      "ĠHead": 5460,
      "ien": 5461,
      "ĠWilliam": 5462,
      "erg": 5463,
      "Ġrealize": 5464,
      "Ġvan": 5465,
      "resp": 5466,
      "ĠSet": 5467,
      "Ġpromote": 5468,
      "iration": 5469,
      "Ġexchange": 5470,
      "Ġvalid": 5471,
      "Ġforced": 5472,
      "Ġfailed": 5473,
      "Ġtow": 5474,
      "Ġawesome": 5475,
      "ĠLo": 5476,
      "Ġemergency": 5477,
      "ician": 5478,
      "Ġbringing": 5479,
      "ania": 5480,
      "iminal": 5481,
      "ĠWall": 5482,
      "Ġanywhere": 5483,
      "Ġtelevision": 5484,
      "ulty": 5485,
      "fol": 5486,
      "Ġrom": 5487,
      "ĠOk": 5488,
      "oses": 5489,
      "ĠGen": 5490,
      "Ġinternal": 5491,
      "mes": 5492,
      "iveness": 5493,
      "CT": 5494,
      "cles": 5495,
      "ĠCanad": 5496,
      "Ġbike": 5497,
      "Ġbond": 5498,
      "Ġrecip": 5499,
      "ĠMuseum": 5500,
      "Ġcitizens": 5501,
      "Ġsides": 5502,
      "Ġexecutive": 5503,
      "Ġintended": 5504,
      "iest": 5505,
      "rier": 5506,
      "Ġlunch": 5507,
      "Ġfold": 5508,
      "idden": 5509,
      "Ġmanner": 5510,
      "Ġapproximately": 5511,
      "Ġuns": 5512,
      "Ġhundreds": 5513,
      "ĠDan": 5514,
      "Ġappearance": 5515,
      "Ġrub": 5516,
      "Ġmilk": 5517,
      "ĠLim": 5518,
      "Ġrapid": 5519,
      "Ġfavour": 5520,
      "Ġprop": 5521,
      "Ġorders": 5522,
      "rehensive": 5523,
      "Ġdiscovered": 5524,
      "Ġlandsc": 5525,
      "Ġfantastic": 5526,
      "Ġsuit": 5527,
      "Ġemployee": 5528,
      "IR": 5529,
      "Ġmaximum": 5530,
      "Ġfruit": 5531,
      "Ġder": 5532,
      "Ġarrange": 5533,
      "Ġaccounts": 5534,
      "ĠBi": 5535,
      "Ġstrategies": 5536,
      "Ġmenu": 5537,
      "Ġstanding": 5538,
      "Ġjoy": 5539,
      "Ġconsumer": 5540,
      "ĠHuman": 5541,
      "Ġreference": 5542,
      "lines": 5543,
      "Ġbask": 5544,
      "Ġsteel": 5545,
      "Ġaspects": 5546,
      "fection": 5547,
      "Ġapps": 5548,
      "Ġveter": 5549,
      "Ġdepending": 5550,
      "phas": 5551,
      "ĠSign": 5552,
      "Ġworse": 5553,
      "Ġbegins": 5554,
      "Ġgather": 5555,
      "Ġamb": 5556,
      "ĠFund": 5557,
      "uts": 5558,
      "kins": 5559,
      "Ġlibrary": 5560,
      "Ġgreatest": 5561,
      "ĠiPhone": 5562,
      "ĠGar": 5563,
      "pected": 5564,
      "ĠGerman": 5565,
      "Ġcauses": 5566,
      "Ġcircumst": 5567,
      "Ġmovies": 5568,
      "Ġeditor": 5569,
      "Ġunits": 5570,
      "Ġboost": 5571,
      "Ġstopped": 5572,
      "arp": 5573,
      "Ġvehicles": 5574,
      "arsh": 5575,
      "Ġfailure": 5576,
      "ev": 5577,
      "cohol": 5578,
      "Ġbigger": 5579,
      "agram": 5580,
      "ĠLouis": 5581,
      "Ġfaster": 5582,
      "eper": 5583,
      "ĠThrough": 5584,
      "Ġvolume": 5585,
      "cont": 5586,
      "Ġbreast": 5587,
      "ĠGermany": 5588,
      "ĠIll": 5589,
      "Ġinterests": 5590,
      "Ġswitch": 5591,
      "ĠAuthor": 5592,
      "ĠJeff": 5593,
      "equ": 5594,
      "ĠPub": 5595,
      "Ġserver": 5596,
      "Ġintroduced": 5597,
      "bu": 5598,
      "Ġquant": 5599,
      "36": 5600,
      "ĠDen": 5601,
      "Ġquot": 5602,
      "Ġupdated": 5603,
      "ideo": 5604,
      "Ġring": 5605,
      "Ġproposed": 5606,
      "ĠKnow": 5607,
      "rag": 5608,
      "TH": 5609,
      "reens": 5610,
      "ifications": 5611,
      "ĠAud": 5612,
      "ĠYOU": 5613,
      "ĠInvest": 5614,
      "Ġconcerned": 5615,
      "bour": 5616,
      "Ġpaying": 5617,
      "Ġburn": 5618,
      "ĠJose": 5619,
      "rastructure": 5620,
      "ĠFull": 5621,
      "Ġeducational": 5622,
      "Ġdesigns": 5623,
      "ĠID": 5624,
      "ĠProv": 5625,
      "Ġassum": 5626,
      "ĠJohnson": 5627,
      "Ġreligious": 5628,
      "related": 5629,
      "Ġanx": 5630,
      "Ġtests": 5631,
      "Ġbroken": 5632,
      "dden": 5633,
      "CR": 5634,
      "Ġmir": 5635,
      "Ġdelivered": 5636,
      "Ġfle": 5637,
      "Ġrevenue": 5638,
      "Ġtwice": 5639,
      "ĠAward": 5640,
      "Ġtables": 5641,
      "Ġune": 5642,
      "Ġstars": 5643,
      "elines": 5644,
      "Ġshock": 5645,
      "een": 5646,
      "ĠId": 5647,
      "Ġcommitment": 5648,
      "Ġteen": 5649,
      "ownt": 5650,
      "Ġinstance": 5651,
      "Ġwearing": 5652,
      "Ġdecre": 5653,
      "Ġflight": 5654,
      "Ġmine": 5655,
      "ait": 5656,
      "Ġfactor": 5657,
      "ĠWild": 5658,
      "ĠBas": 5659,
      "Ġhighlight": 5660,
      "ĠTown": 5661,
      "aren": 5662,
      "Ġdetailed": 5663,
      "Ġgoods": 5664,
      "Ġsupported": 5665,
      "Ġtast": 5666,
      "met": 5667,
      "nergy": 5668,
      "Ġapproved": 5669,
      "Ġlaunched": 5670,
      "Ġadvertising": 5671,
      "ĠOper": 5672,
      "Ġrecovery": 5673,
      "Ġdrugs": 5674,
      "Ġelimin": 5675,
      "Ġprison": 5676,
      "Ġimproved": 5677,
      "Ġparticipants": 5678,
      "Ġdetect": 5679,
      "Ġfreedom": 5680,
      "Ġlux": 5681,
      "Ġprovider": 5682,
      "Ġbound": 5683,
      "Ġturns": 5684,
      "ĠSecret": 5685,
      "Ġaudio": 5686,
      "Ġagreed": 5687,
      "aser": 5688,
      "irmed": 5689,
      "Ġbelief": 5690,
      "ĠCup": 5691,
      "Ġcommand": 5692,
      "Ġcrisis": 5693,
      "Ġtea": 5694,
      "ĠCy": 5695,
      "ĠEconom": 5696,
      "Ġkill": 5697,
      "Ġtelling": 5698,
      "Ġfly": 5699,
      "Ġbrown": 5700,
      "orough": 5701,
      "ĠCath": 5702,
      "ulous": 5703,
      "ĠIP": 5704,
      "azz": 5705,
      "ĠLead": 5706,
      "Ġbrands": 5707,
      "ĠVict": 5708,
      "Ġcomponents": 5709,
      "Ġclinical": 5710,
      "Ġdraft": 5711,
      "ĠInte": 5712,
      "Ġyesterday": 5713,
      "Ġyards": 5714,
      "Ġdefend": 5715,
      "Ġsudden": 5716,
      "Ġchief": 5717,
      "rad": 5718,
      "Ġprepare": 5719,
      "lla": 5720,
      "Ġtechnologies": 5721,
      "ĠDoes": 5722,
      "cean": 5723,
      "ĠUsing": 5724,
      "ĠCas": 5725,
      "Ġven": 5726,
      "Ġswim": 5727,
      "erry": 5728,
      "Ġworksh": 5729,
      "luding": 5730,
      "Ġarrived": 5731,
      "Ġrot": 5732,
      "Ġdiss": 5733,
      "ĠCharl": 5734,
      "Ġweak": 5735,
      "Ġsister": 5736,
      "Ġsupporting": 5737,
      "Ġtruck": 5738,
      "Ġlabel": 5739,
      "Ġspeaking": 5740,
      "ossible": 5741,
      "ĠRussian": 5742,
      "Ġoccasion": 5743,
      "Ġsymb": 5744,
      "44": 5745,
      "ĠDi": 5746,
      "Ġjudge": 5747,
      "ĠNetwork": 5748,
      "Ġconsequ": 5749,
      "ĠProte": 5750,
      "Ġincorpor": 5751,
      "Ġdetermined": 5752,
      "Ġspeech": 5753,
      "ĠPlus": 5754,
      "ĠSeries": 5755,
      "ena": 5756,
      "Ġtrouble": 5757,
      "Ġfoods": 5758,
      "hetic": 5759,
      "Ġroof": 5760,
      "ario": 5761,
      "Ġinspired": 5762,
      "My": 5763,
      "ĠGal": 5764,
      "Ġscr": 5765,
      "Ġsquare": 5766,
      "ĠDownload": 5767,
      "ensions": 5768,
      "Ġmeat": 5769,
      "ĠWeek": 5770,
      "Ġhousing": 5771,
      "Ġcreation": 5772,
      "ĠWay": 5773,
      "Ġaid": 5774,
      "Ġwitness": 5775,
      "Ġpu": 5776,
      "Ġcop": 5777,
      "Ġcloser": 5778,
      "Ġreduced": 5779,
      "Ġchoices": 5780,
      "ĠRussia": 5781,
      "Ġplanned": 5782,
      "Ġhero": 5783,
      "ĠPan": 5784,
      "Ġuniversity": 5785,
      "ĠMaster": 5786,
      "kes": 5787,
      "Ġec": 5788,
      "ĠMen": 5789,
      "Ġsevere": 5790,
      ".âĢĻ": 5791,
      "Ġentirely": 5792,
      "Ġaffected": 5793,
      "Ġconsidering": 5794,
      "ĠSupport": 5795,
      "Ġelement": 5796,
      "Ġliqu": 5797,
      "Ġprocessing": 5798,
      "hors": 5799,
      "Ġmeal": 5800,
      "ĠWal": 5801,
      "ria": 5802,
      "Ġconcern": 5803,
      "Ġremark": 5804,
      "FL": 5805,
      "Ġang": 5806,
      "ĠON": 5807,
      "Ġkinds": 5808,
      "Ġhttps": 5809,
      "Ġsac": 5810,
      "Ġends": 5811,
      "nov": 5812,
      "Ġepisode": 5813,
      "Ġdangerous": 5814,
      "Ġneighborhood": 5815,
      "Ġimagine": 5816,
      "tra": 5817,
      "ĠFederal": 5818,
      "ĠTechnology": 5819,
      "Ġtickets": 5820,
      "Ġexplained": 5821,
      "ĠAndroid": 5822,
      "CE": 5823,
      "Ġparking": 5824,
      "alled": 5825,
      "Ġsad": 5826,
      "encing": 5827,
      "ĠKore": 5828,
      "ĠMexico": 5829,
      "ĠGlobal": 5830,
      "Ġinvestors": 5831,
      "leg": 5832,
      "estyle": 5833,
      "ĠAT": 5834,
      "Sh": 5835,
      "Ġtreated": 5836,
      "burg": 5837,
      "ighter": 5838,
      "Ġremaining": 5839,
      "ĠConference": 5840,
      "32": 5841,
      "ef": 5842,
      "ĠAdv": 5843,
      "ulations": 5844,
      "erves": 5845,
      "Ġinvestigation": 5846,
      "irty": 5847,
      "ibilities": 5848,
      "ĠAngeles": 5849,
      "ht": 5850,
      "lets": 5851,
      "Ġcomplic": 5852,
      "Ġvictory": 5853,
      "ĠChildren": 5854,
      "ems": 5855,
      "orry": 5856,
      "iser": 5857,
      "ĠPR": 5858,
      "Ġadvoc": 5859,
      "ĠSar": 5860,
      "Ġofficer": 5861,
      "prene": 5862,
      "Ġeffectively": 5863,
      "Ġcoast": 5864,
      "ĠMartin": 5865,
      "Ġdial": 5866,
      "ĠMax": 5867,
      "Ġvary": 5868,
      "CS": 5869,
      "Ġtro": 5870,
      "Ġperspective": 5871,
      "Ġterror": 5872,
      "Ġvit": 5873,
      "Ġpoly": 5874,
      "Ġboat": 5875,
      "oration": 5876,
      "Ġconstit": 5877,
      "IF": 5878,
      "Ġcategory": 5879,
      "rick": 5880,
      "ĠLab": 5881,
      "ĠAdminist": 5882,
      "col": 5883,
      "ultural": 5884,
      "oor": 5885,
      "38": 5886,
      "ilit": 5887,
      "Ġcooking": 5888,
      "paper": 5889,
      "ĠJon": 5890,
      "reprene": 5891,
      "Ġwarrant": 5892,
      "Ġreceiving": 5893,
      "Ġresol": 5894,
      "itionally": 5895,
      "real": 5896,
      "Ġparticipate": 5897,
      "Ġcritic": 5898,
      "ĠIra": 5899,
      "Ġcalcul": 5900,
      "When": 5901,
      "Ġexamples": 5902,
      "rome": 5903,
      "Ġmassive": 5904,
      "Ġpure": 5905,
      "hand": 5906,
      "Ġneck": 5907,
      "osoph": 5908,
      "ĠNE": 5909,
      "oga": 5910,
      "Ġknowing": 5911,
      "oston": 5912,
      "Ġagencies": 5913,
      "Ġpicked": 5914,
      "Ġexpertise": 5915,
      "Ġchocolate": 5916,
      "Ġinstalled": 5917,
      "aped": 5918,
      "Ġherself": 5919,
      "Ġcarried": 5920,
      "gage": 5921,
      "ĠWatch": 5922,
      "ĠFurther": 5923,
      "Ġwal": 5924,
      "Ġissued": 5925,
      "Ġregularly": 5926,
      "Ġscientific": 5927,
      "Ġrelatively": 5928,
      "wing": 5929,
      "Ġfunctions": 5930,
      "Ġlit": 5931,
      "Ġconfirm": 5932,
      "iams": 5933,
      "Ġcolour": 5934,
      "Ġhyd": 5935,
      "Ġbelong": 5936,
      "Ġcommission": 5937,
      "ĠJapanese": 5938,
      "ĠHistory": 5939,
      "Ġrecorded": 5940,
      "Ġrough": 5941,
      "ĠThough": 5942,
      "Ġcutting": 5943,
      "LA": 5944,
      "never": 5945,
      "Ġmode": 5946,
      "Ġvoc": 5947,
      "Ġphotograph": 5948,
      "Ġupdates": 5949,
      "Ġvacc": 5950,
      "DF": 5951,
      "OP": 5952,
      "ĠBow": 5953,
      "igration": 5954,
      "Ġremote": 5955,
      "Ġisland": 5956,
      "ĠChief": 5957,
      "ĠVirginia": 5958,
      "Ġconstruct": 5959,
      "ĠÐ": 5960,
      "Ġchart": 5961,
      "Ġfilms": 5962,
      "Ġcrime": 5963,
      "Ġfeedback": 5964,
      "!\"": 5965,
      "Ġsurprise": 5966,
      "Ġcompetitive": 5967,
      "Ġauthority": 5968,
      "Ġinstallation": 5969,
      "Ġregistered": 5970,
      "Ġagent": 5971,
      "Ġaf": 5972,
      "Ġben": 5973,
      "ĠVer": 5974,
      "ĠIsl": 5975,
      "Ġrevealed": 5976,
      "Ġindustrial": 5977,
      "ĠBre": 5978,
      "ĠArts": 5979,
      "Ġboys": 5980,
      "Ġidentified": 5981,
      "Ġinnovative": 5982,
      "55": 5983,
      "Ġ32": 5984,
      "ĠDev": 5985,
      "VID": 5986,
      "aded": 5987,
      "Ġcheese": 5988,
      "ĠCommun": 5989,
      "ĠExt": 5990,
      "iability": 5991,
      "Ġwealth": 5992,
      "Ġmatters": 5993,
      "ĠPenn": 5994,
      "west": 5995,
      "ĠJones": 5996,
      "Ġusual": 5997,
      "oti": 5998,
      "Ġunlike": 5999,
      "Ġ2001": 6000,
      "Ġgrown": 6001,
      "ĠMur": 6002,
      "Ġperfectly": 6003,
      "aks": 6004,
      "Ġchain": 6005,
      "atre": 6006,
      "ĠLand": 6007,
      "For": 6008,
      "34": 6009,
      "ĠDespite": 6010,
      "Ġtopics": 6011,
      "cia": 6012,
      "ĠHen": 6013,
      "Ġwinner": 6014,
      "Ġhappening": 6015,
      "Ġmel": 6016,
      "Ġguest": 6017,
      "Ġobvious": 6018,
      "ĠCA": 6019,
      "ogue": 6020,
      "ĠIndust": 6021,
      "Ġhousehold": 6022,
      "Ġaccepted": 6023,
      "Ġcharged": 6024,
      "ĠSqu": 6025,
      "Ġinvolve": 6026,
      "ias": 6027,
      "Ġresource": 6028,
      "ĠCre": 6029,
      "Ġpractical": 6030,
      "Ġchosen": 6031,
      "ĠRev": 6032,
      "Ġemployment": 6033,
      "Ġoutdoor": 6034,
      "Ġmissed": 6035,
      "Ġtrading": 6036,
      "Ġemotional": 6037,
      "ĠBrand": 6038,
      "ĠHaw": 6039,
      "Ġresearchers": 6040,
      "Ġadministr": 6041,
      "Ġpurchased": 6042,
      "irms": 6043,
      "ĠHD": 6044,
      "ĠAccess": 6045,
      "ĠContin": 6046,
      "ĠLee": 6047,
      "icing": 6048,
      "ĠLearn": 6049,
      "ployment": 6050,
      "Ġpm": 6051,
      "Ġoblig": 6052,
      "eah": 6053,
      "Ġmere": 6054,
      "Ġmoments": 6055,
      "cknow": 6056,
      "Ġunf": 6057,
      "Ġprotein": 6058,
      "Ġfolks": 6059,
      "ĠEnd": 6060,
      "Ġbuildings": 6061,
      "Ġodd": 6062,
      "Ġsignificantly": 6063,
      "Ġtheory": 6064,
      "uality": 6065,
      "Ġcounty": 6066,
      "Ġbread": 6067,
      "Ġsole": 6068,
      "Ġpositions": 6069,
      "Ġcandidates": 6070,
      "alian": 6071,
      "ĠLink": 6072,
      "ĠBoy": 6073,
      "How": 6074,
      "arian": 6075,
      "SP": 6076,
      "Ġworldwide": 6077,
      "Ġexcess": 6078,
      "Ġpump": 6079,
      "ĠIraq": 6080,
      "Ġfulf": 6081,
      "Ġanswers": 6082,
      "Ġcircumstances": 6083,
      "ĠEnergy": 6084,
      "Ġstorm": 6085,
      ".'": 6086,
      "Ġrestrict": 6087,
      "inch": 6088,
      "ĠCH": 6089,
      "rate": 6090,
      "Ġfort": 6091,
      "Ġemphas": 6092,
      "Ġbasket": 6093,
      "mosp": 6094,
      "Ġcontro": 6095,
      "Ġlovely": 6096,
      "Ġregister": 6097,
      "hew": 6098,
      "under": 6099,
      "Ġcomprehensive": 6100,
      "And": 6101,
      "Ġtail": 6102,
      "Ġprocedure": 6103,
      "Ġscored": 6104,
      "Ġaccurate": 6105,
      "uated": 6106,
      "Ġfrequently": 6107,
      "Ġequal": 6108,
      "ĠAustralian": 6109,
      "UT": 6110,
      "ua": 6111,
      "ĠYet": 6112,
      "ĠDid": 6113,
      "appy": 6114,
      "Ġattacks": 6115,
      "Ġdisappoint": 6116,
      "Ġfellow": 6117,
      "Ġcrew": 6118,
      "Ġlicense": 6119,
      "ĠSpring": 6120,
      "Ġvaluable": 6121,
      "net": 6122,
      "Ġinfrastructure": 6123,
      "Ġmal": 6124,
      "ĠRight": 6125,
      "Ġscript": 6126,
      "iner": 6127,
      "reets": 6128,
      "Ġroute": 6129,
      "Ġautomatically": 6130,
      "Ġbattery": 6131,
      "Ġchicken": 6132,
      "edia": 6133,
      "Ġcentre": 6134,
      "Ġtaught": 6135,
      "Ġnone": 6136,
      "Ġgro": 6137,
      "Ġmessages": 6138,
      "On": 6139,
      "hent": 6140,
      "erts": 6141,
      "ĠWalk": 6142,
      "gas": 6143,
      "Ġ2002": 6144,
      "37": 6145,
      "Ġfeatured": 6146,
      "Ġnucle": 6147,
      "ĠPage": 6148,
      "apes": 6149,
      "Ġrisks": 6150,
      "ĠYoung": 6151,
      "Ġmonit": 6152,
      "ĠMic": 6153,
      "Ġholds": 6154,
      "Ġunivers": 6155,
      "ĠSteve": 6156,
      "hus": 6157,
      "ĠCat": 6158,
      "ĠCost": 6159,
      "Ġhonor": 6160,
      "Ġguarantee": 6161,
      "ĠOhio": 6162,
      "No": 6163,
      "Ġconstantly": 6164,
      "Ġfollows": 6165,
      "ĠMiddle": 6166,
      "ĠBoston": 6167,
      "rics": 6168,
      "Ġcycle": 6169,
      "ĠSometimes": 6170,
      "Ġlosing": 6171,
      "iors": 6172,
      "ii": 6173,
      "weight": 6174,
      "Ġmonthly": 6175,
      "illy": 6176,
      "New": 6177,
      "ĠCreat": 6178,
      "ĠMinister": 6179,
      "Ġerror": 6180,
      "ĠFair": 6181,
      "ĠJackson": 6182,
      "48": 6183,
      "MP": 6184,
      "Ġhur": 6185,
      "Ġrenew": 6186,
      "Ġhistorical": 6187,
      "lymp": 6188,
      "Ġped": 6189,
      "acks": 6190,
      "mond": 6191,
      "ournament": 6192,
      "Ġlights": 6193,
      "ĠCorpor": 6194,
      "icit": 6195,
      "cers": 6196,
      "Ġgrew": 6197,
      "Ġturning": 6198,
      "ĠTem": 6199,
      "anged": 6200,
      "ĠKey": 6201,
      "Ġspr": 6202,
      "Ġfurniture": 6203,
      "ĠAri": 6204,
      "ĠMid": 6205,
      "Ġrand": 6206,
      "Ġmagazine": 6207,
      "ĠWilliams": 6208,
      "Ġbreakfast": 6209,
      "Ġdoors": 6210,
      "Ġshoes": 6211,
      "Ġshooting": 6212,
      "Ġaffordable": 6213,
      "Ġfro": 6214,
      "Ġleague": 6215,
      "Ġdistribution": 6216,
      "ĠThree": 6217,
      "ĠDani": 6218,
      "Ġearned": 6219,
      "Ġprocedures": 6220,
      "Ġforest": 6221,
      "Ġfields": 6222,
      "Ġiron": 6223,
      "Ġsimpl": 6224,
      "ĠÂ©": 6225,
      "Ġsan": 6226,
      "Ġproviders": 6227,
      "ĠGall": 6228,
      "Ġok": 6229,
      "Ġsick": 6230,
      "Ġreput": 6231,
      "ĠWhich": 6232,
      "luded": 6233,
      "Ġstudio": 6234,
      "Ġmeetings": 6235,
      "ĠCarolina": 6236,
      "Ġkeeps": 6237,
      "Ġprotected": 6238,
      "ĠOpt": 6239,
      "Ġmedicine": 6240,
      "Ġathlet": 6241,
      "Ġmusical": 6242,
      "ĠCanadian": 6243,
      "emic": 6244,
      "Ġ300": 6245,
      "merce": 6246,
      "ĠEU": 6247,
      "Ġacknow": 6248,
      "Ġcorn": 6249,
      "ĠDu": 6250,
      "road": 6251,
      "Ġwindows": 6252,
      "Ġlaugh": 6253,
      "ĠLive": 6254,
      "ĠCook": 6255,
      "pot": 6256,
      "Ġcovers": 6257,
      "Ġtack": 6258,
      "sm": 6259,
      "Ġhook": 6260,
      "Ġelectronic": 6261,
      "hered": 6262,
      "Ġshares": 6263,
      "Ġworst": 6264,
      "ĠHand": 6265,
      "ĠEr": 6266,
      "ĠFinally": 6267,
      "xy": 6268,
      "ĠSoft": 6269,
      "ansion": 6270,
      "Ġofficers": 6271,
      "Ġelig": 6272,
      "Ġenem": 6273,
      "ĠArab": 6274,
      "An": 6275,
      "Ġguard": 6276,
      "à¤": 6277,
      "omy": 6278,
      "Ġcriminal": 6279,
      "Ġappreciate": 6280,
      "eless": 6281,
      "Ġcontrast": 6282,
      "ĠAcademy": 6283,
      "Ġabuse": 6284,
      "Ġinches": 6285,
      "Ġconducted": 6286,
      "iety": 6287,
      "Ġdish": 6288,
      "Ġdram": 6289,
      "ĠTit": 6290,
      "Ġchannel": 6291,
      "Ġattorney": 6292,
      "ĠPac": 6293,
      "Ġdomestic": 6294,
      "Ġking": 6295,
      "ĠJun": 6296,
      "rum": 6297,
      "Ġdegrees": 6298,
      "Ġscheduled": 6299,
      "Ġperman": 6300,
      "49": 6301,
      "ĠCentre": 6302,
      "Ġawareness": 6303,
      "Ġenable": 6304,
      "ĠFestival": 6305,
      "Ġincredible": 6306,
      "pass": 6307,
      "Ġinstitutions": 6308,
      "Ġcro": 6309,
      "Ġ2021": 6310,
      "ĠStill": 6311,
      "ĠPrice": 6312,
      "ĠRichard": 6313,
      "ÃŃ": 6314,
      "Ġoutput": 6315,
      "Ġassets": 6316,
      "Ġmut": 6317,
      "ĠTru": 6318,
      "anges": 6319,
      "ora": 6320,
      "Ġrestaurants": 6321,
      "ta": 6322,
      "ansas": 6323,
      "Ġroutine": 6324,
      "ĠDate": 6325,
      "Ġlib": 6326,
      "Ġmanufacturing": 6327,
      "you": 6328,
      "ĠOR": 6329,
      "Ġupcoming": 6330,
      "ĠPack": 6331,
      "Ġengineering": 6332,
      "anish": 6333,
      "Ġdrivers": 6334,
      "ospit": 6335,
      "Ġgrab": 6336,
      "ĠLibrary": 6337,
      "ampionship": 6338,
      "OD": 6339,
      "ĠTherefore": 6340,
      "ĠManager": 6341,
      "Ġsessions": 6342,
      "Ġproceed": 6343,
      "ca": 6344,
      "Ġwalked": 6345,
      "Ġcompens": 6346,
      "Ġrecognized": 6347,
      "Ġdatabase": 6348,
      "Ġhorse": 6349,
      "Ġfixed": 6350,
      "Ġrandom": 6351,
      "Ġpresentation": 6352,
      "Ġhurt": 6353,
      "Ġarms": 6354,
      "ĠFour": 6355,
      "Ġplate": 6356,
      "pret": 6357,
      "Ġtrib": 6358,
      "Ġalcohol": 6359,
      "hi": 6360,
      "anger": 6361,
      "Ġsettings": 6362,
      "Ġsubstant": 6363,
      "Ġfighting": 6364,
      "Ġnavig": 6365,
      "ĠMS": 6366,
      "Ġnoticed": 6367,
      "They": 6368,
      "ĠGeorg": 6369,
      "ĠRest": 6370,
      "Ġtypical": 6371,
      "Ġstone": 6372,
      "arrow": 6373,
      "Ġentertainment": 6374,
      "Ġcontest": 6375,
      "Ġreliable": 6376,
      "ĠAff": 6377,
      "Ġrow": 6378,
      "ĠHotel": 6379,
      "GB": 6380,
      "cuit": 6381,
      "ĠPass": 6382,
      "Ġplug": 6383,
      "Ġast": 6384,
      "Ġvisiting": 6385,
      "ĠOlymp": 6386,
      "Ġefficiency": 6387,
      "So": 6388,
      "ĠÂ·": 6389,
      "oosing": 6390,
      "39": 6391,
      "Ġmillions": 6392,
      "Ġsuitable": 6393,
      "Ġsituations": 6394,
      "Ġfacing": 6395,
      "Ġorganic": 6396,
      "Is": 6397,
      "Ġforth": 6398,
      "Ġreporting": 6399,
      "ĠSports": 6400,
      "ĠColl": 6401,
      "loc": 6402,
      "ĠAgain": 6403,
      "cking": 6404,
      "Ġdelight": 6405,
      "Ġsupports": 6406,
      "Ġclothes": 6407,
      "gent": 6408,
      "Ġtalent": 6409,
      "UN": 6410,
      "ĠApplic": 6411,
      "ĠMA": 6412,
      "oster": 6413,
      "Ġvirtual": 6414,
      "Ġtrend": 6415,
      "can": 6416,
      "rete": 6417,
      "ĠLittle": 6418,
      "forcement": 6419,
      "ĠSaf": 6420,
      "race": 6421,
      "Ġlayer": 6422,
      "Ġdeals": 6423,
      "ĠEqu": 6424,
      "Ġdelicious": 6425,
      "Ġregional": 6426,
      "ĠPlace": 6427,
      "Ġinjuries": 6428,
      "ĠAD": 6429,
      "Ġatmosp": 6430,
      "Ġconfig": 6431,
      "ĠMichigan": 6432,
      "Ġrealized": 6433,
      "oking": 6434,
      "Ġbowl": 6435,
      "ĠCir": 6436,
      "ĠKen": 6437,
      "TA": 6438,
      "ĠMat": 6439,
      "ĠBal": 6440,
      "Ġincreases": 6441,
      "31": 6442,
      "Ġcarefully": 6443,
      "Ġtaxes": 6444,
      "ĠAsia": 6445,
      "Ġpayments": 6446,
      "ĠDef": 6447,
      "Ġsin": 6448,
      "Ġnurs": 6449,
      "Ġmotion": 6450,
      "Ġidentity": 6451,
      "Ġjustice": 6452,
      "comm": 6453,
      "Ġwheel": 6454,
      "Ġwalls": 6455,
      "Ġvillage": 6456,
      "pes": 6457,
      "Ġinput": 6458,
      "Ġtasks": 6459,
      "ĠLog": 6460,
      "Ġconfirmed": 6461,
      "achel": 6462,
      "ĠGirl": 6463,
      "Ġunable": 6464,
      "ĠTour": 6465,
      "ĠSenate": 6466,
      "Ġpremium": 6467,
      "writ": 6468,
      "Ġcrazy": 6469,
      "ĠSP": 6470,
      "ĠKn": 6471,
      "gend": 6472,
      "Ġbless": 6473,
      "abled": 6474,
      "Ġjack": 6475,
      "Ġimpossible": 6476,
      "Ġdebate": 6477,
      "ĠParis": 6478,
      "ĠLib": 6479,
      "osite": 6480,
      "Ġextended": 6481,
      "inet": 6482,
      "Ġdump": 6483,
      "Ġretire": 6484,
      "ĠIran": 6485,
      "Ġstands": 6486,
      "ĠDigital": 6487,
      "car": 6488,
      "Ġcake": 6489,
      "ĠSearch": 6490,
      "yard": 6491,
      "abet": 6492,
      "Ġkne": 6493,
      "ĠNever": 6494,
      "Ġpublish": 6495,
      "Ġassessment": 6496,
      "Ġwid": 6497,
      "Ġdim": 6498,
      "ĠFrancisco": 6499,
      "Ġsymbol": 6500,
      "ugh": 6501,
      "ĠUt": 6502,
      "47": 6503,
      "liance": 6504,
      "Ġsusp": 6505,
      "âĢĻ.": 6506,
      "Ġsurrounding": 6507,
      "uting": 6508,
      "Ġsuggested": 6509,
      "Ġillustr": 6510,
      "Ġfoundation": 6511,
      "ĠMean": 6512,
      "Ġsurprised": 6513,
      "Ġreform": 6514,
      "Ġacid": 6515,
      "Ġsolar": 6516,
      "ĠEp": 6517,
      "Ġpolitics": 6518,
      "Ġflowers": 6519,
      "Ġchapter": 6520,
      "Ġteeth": 6521,
      "Ġfigures": 6522,
      "Ġsurf": 6523,
      "Ġexpectations": 6524,
      "comes": 6525,
      "ĠTrust": 6526,
      "Ġchallenging": 6527,
      "Ġcandidate": 6528,
      "Ġseriously": 6529,
      "Ġhate": 6530,
      "Ġnative": 6531,
      "Ġsauce": 6532,
      "Ġreasonable": 6533,
      "Ġpil": 6534,
      "Ġcampus": 6535,
      "Ġticket": 6536,
      "Ġsample": 6537,
      "Ġengage": 6538,
      "Ġentered": 6539,
      "ĠHaving": 6540,
      "orders": 6541,
      "Ġauthorities": 6542,
      "inations": 6543,
      "Ġadvis": 6544,
      "Ġpulled": 6545,
      "worth": 6546,
      "ĠRepublican": 6547,
      "Ġongoing": 6548,
      "ĠQuest": 6549,
      "Ġ48": 6550,
      "ĠHospital": 6551,
      "Ġportion": 6552,
      "Ġlistening": 6553,
      "eration": 6554,
      "Cl": 6555,
      "Ġprofit": 6556,
      "Ġimpressive": 6557,
      "ĠColumb": 6558,
      "cribe": 6559,
      "Ġcooper": 6560,
      "Ġfuck": 6561,
      "Ġexposure": 6562,
      "Ġowned": 6563,
      "vy": 6564,
      "Ġicon": 6565,
      "Ġsyn": 6566,
      "Ġille": 6567,
      "Ġbirthday": 6568,
      "Ġtwe": 6569,
      "Ġdecade": 6570,
      "adow": 6571,
      "ĠBuy": 6572,
      "Ġinstructions": 6573,
      "Ġserves": 6574,
      "Ġregulations": 6575,
      "Ġbonus": 6576,
      "05": 6577,
      "Ġ195": 6578,
      "ĠControl": 6579,
      "astern": 6580,
      "Ġrein": 6581,
      "Ġgrade": 6582,
      "ĠVideo": 6583,
      "eries": 6584,
      "Ġadm": 6585,
      "Ġyounger": 6586,
      "Ġsilver": 6587,
      "Ġloves": 6588,
      "Ġfunny": 6589,
      "aturally": 6590,
      "ache": 6591,
      "Ġwet": 6592,
      "rible": 6593,
      "Ġreturns": 6594,
      "Ġliked": 6595,
      "stone": 6596,
      "Ġresolution": 6597,
      "Ġbelieved": 6598,
      "eding": 6599,
      "Ġ75": 6600,
      "ĠCB": 6601,
      "Ġdifferences": 6602,
      "Pro": 6603,
      "sembly": 6604,
      "Ġmuscle": 6605,
      "Ġprompt": 6606,
      "Ġfo": 6607,
      "ĠPrem": 6608,
      "inder": 6609,
      "Ġfacts": 6610,
      "Ġpatterns": 6611,
      "Ġexclusive": 6612,
      "ĠMult": 6613,
      "Ġsuccessfully": 6614,
      "Ġbodies": 6615,
      "ĠCopy": 6616,
      "ĠLow": 6617,
      "Ġroot": 6618,
      "Ġappeal": 6619,
      "elly": 6620,
      "Ġupper": 6621,
      "Ġvul": 6622,
      "ĠCurrent": 6623,
      "Ġcock": 6624,
      "ĠTry": 6625,
      "Ġfairly": 6626,
      "ala": 6627,
      "Ġtiny": 6628,
      "Ġedition": 6629,
      "person": 6630,
      "ĠFOR": 6631,
      "Ġaffili": 6632,
      "Ġcommittee": 6633,
      "Ġpainting": 6634,
      "Ġdepth": 6635,
      "Ġcarbon": 6636,
      "Ġdropped": 6637,
      "01": 6638,
      "OC": 6639,
      "Ġcounsel": 6640,
      "Ġindeed": 6641,
      "ĠHard": 6642,
      "ĠHelp": 6643,
      "Ġarts": 6644,
      "TC": 6645,
      "ĠWH": 6646,
      "elf": 6647,
      "Ġlikes": 6648,
      "Ġdiscussed": 6649,
      "Ġflood": 6650,
      "Ġspoke": 6651,
      "Ġriver": 6652,
      "46": 6653,
      "ĠUnfortunately": 6654,
      "Ġhealthcare": 6655,
      "Ġmountain": 6656,
      "Ġstim": 6657,
      "ĠKim": 6658,
      "Ġscholars": 6659,
      "Ġdestroy": 6660,
      "Ġoriginally": 6661,
      "respond": 6662,
      "lights": 6663,
      "ĠItalian": 6664,
      "Ġconsistent": 6665,
      "ĠVictor": 6666,
      "Ġnom": 6667,
      "Ġheight": 6668,
      "Ġages": 6669,
      "Ġvital": 6670,
      "Ġprivacy": 6671,
      "Ġtomorrow": 6672,
      "ĠBible": 6673,
      "Ġplanet": 6674,
      "ĠCoast": 6675,
      "oman": 6676,
      "eline": 6677,
      "Ġslowly": 6678,
      "Ġdistinct": 6679,
      "Ġimprovement": 6680,
      "Ġstretch": 6681,
      "Ġinterior": 6682,
      "inem": 6683,
      "ĠCert": 6684,
      "ĠRa": 6685,
      "Ġmixed": 6686,
      "Ġhouses": 6687,
      "Ġsight": 6688,
      "VD": 6689,
      "rid": 6690,
      "ĠHope": 6691,
      "date": 6692,
      "Ġthorough": 6693,
      "ras": 6694,
      "AA": 6695,
      "Ġbear": 6696,
      "Ġincident": 6697,
      "ĠMuslim": 6698,
      "Ġdownt": 6699,
      "Ġinfo": 6700,
      "ĠNight": 6701,
      "agues": 6702,
      "Ġconclus": 6703,
      "agon": 6704,
      "ATION": 6705,
      "Ġyellow": 6706,
      "Ġexpression": 6707,
      "Ġconfident": 6708,
      "berry": 6709,
      "ĠMP": 6710,
      "Ġrelief": 6711,
      "Ġreward": 6712,
      "Ġsky": 6713,
      "Ġpitch": 6714,
      "Ġillness": 6715,
      "Ġpossibility": 6716,
      "Ġbelieves": 6717,
      "ĠCross": 6718,
      "Ġlegs": 6719,
      "Ġphase": 6720,
      "II": 6721,
      "Ġhasn": 6722,
      "Ġhits": 6723,
      "away": 6724,
      "ĠKh": 6725,
      "Ġadds": 6726,
      "Ġconver": 6727,
      "ĠFarm": 6728,
      "Ġloans": 6729,
      "Ġregistration": 6730,
      "Ġincl": 6731,
      "cue": 6732,
      "va": 6733,
      "Ġsmile": 6734,
      "ĠCe": 6735,
      "Ġspin": 6736,
      "dy": 6737,
      "ĠInf": 6738,
      "Ġslot": 6739,
      "long": 6740,
      "tle": 6741,
      "Ġstatements": 6742,
      "isk": 6743,
      "Ġdefined": 6744,
      "ĠAR": 6745,
      "Ġprove": 6746,
      "Ġeveryday": 6747,
      "otal": 6748,
      "Ġbanks": 6749,
      "ĠProfessor": 6750,
      "Ġentreprene": 6751,
      "That": 6752,
      "ixture": 6753,
      "SS": 6754,
      "But": 6755,
      "Ġpapers": 6756,
      "ĠWrit": 6757,
      "uction": 6758,
      "Ġhang": 6759,
      "ĠIre": 6760,
      "Ġgear": 6761,
      "Ġtrig": 6762,
      "Ġskill": 6763,
      "Ġdelay": 6764,
      "ĠSon": 6765,
      "ĠSky": 6766,
      "Ġgraduate": 6767,
      "ĠCode": 6768,
      "ĠMeet": 6769,
      "ĠSpanish": 6770,
      "Ġnegoti": 6771,
      "utional": 6772,
      "Ġenthus": 6773,
      "Ġprospect": 6774,
      "Ġbat": 6775,
      "ĠLt": 6776,
      "Ġinnovation": 6777,
      "ĠSpirit": 6778,
      "Ġthin": 6779,
      "Ġsubmit": 6780,
      "ayer": 6781,
      "ĠDar": 6782,
      "asts": 6783,
      "Ġinvent": 6784,
      "ĠFun": 6785,
      "alse": 6786,
      "ĠLin": 6787,
      "Ġspiritual": 6788,
      "Ġbare": 6789,
      "icial": 6790,
      "Ġtalks": 6791,
      "ĠExecutive": 6792,
      "ĠRyan": 6793,
      "owing": 6794,
      "Ġvast": 6795,
      "Ġcelebrate": 6796,
      "ĠPoint": 6797,
      "Ġdiverse": 6798,
      "Ġmachines": 6799,
      "Ġapartment": 6800,
      "oty": 6801,
      "Ġexternal": 6802,
      "Ġsuc": 6803,
      "ĠStudents": 6804,
      "Ġlifestyle": 6805,
      "etime": 6806,
      "Ġthread": 6807,
      "Ġcapable": 6808,
      "Ġlad": 6809,
      "ĠAssist": 6810,
      "Ġnormally": 6811,
      "ĠCra": 6812,
      "bi": 6813,
      "Ġgod": 6814,
      "inding": 6815,
      "Ġstreets": 6816,
      "PR": 6817,
      "lete": 6818,
      "uling": 6819,
      "Ġfeelings": 6820,
      "ensity": 6821,
      "Ġtalked": 6822,
      "REE": 6823,
      "ĠVan": 6824,
      "Ġpod": 6825,
      "Ġtrained": 6826,
      "ĠEll": 6827,
      "Ġshift": 6828,
      "Ġsoil": 6829,
      "Ġlessons": 6830,
      "Ġtested": 6831,
      "Ġclosely": 6832,
      "Ġpartnership": 6833,
      "ĠRoyal": 6834,
      "ĠAndrew": 6835,
      "Ġfeaturing": 6836,
      "Ġhabit": 6837,
      "urning": 6838,
      "Ġaside": 6839,
      "ĠSanta": 6840,
      "Ġauthors": 6841,
      "Ġconvenient": 6842,
      "Ġbes": 6843,
      "nic": 6844,
      "ppers": 6845,
      "Ġsupplies": 6846,
      "Ġflour": 6847,
      "Ġsuggests": 6848,
      "ĠJewish": 6849,
      "ĠThus": 6850,
      "Ġnetworks": 6851,
      "Ġimmediate": 6852,
      "ERS": 6853,
      "ĠPerhaps": 6854,
      "secut": 6855,
      "tr": 6856,
      "Ġtall": 6857,
      "Ġformed": 6858,
      "Ġbasically": 6859,
      "Ġweekly": 6860,
      "ĠCast": 6861,
      "ĠRam": 6862,
      "oral": 6863,
      "Ġultimately": 6864,
      "Ġpharm": 6865,
      "Ġdates": 6866,
      "Don": 6867,
      "ĠSouthern": 6868,
      "Ġtransition": 6869,
      "Ġempt": 6870,
      "Ġnearby": 6871,
      "EE": 6872,
      "ingu": 6873,
      "Ġdiam": 6874,
      "ollywood": 6875,
      "Ġcontemporary": 6876,
      "Ġtag": 6877,
      "Ġbreath": 6878,
      "Ġhell": 6879,
      "ĠSite": 6880,
      "athy": 6881,
      "Ġblogg": 6882,
      "ether": 6883,
      "ĠBush": 6884,
      "Ġphotograp": 6885,
      "awn": 6886,
      "Ġsheet": 6887,
      "ĠHun": 6888,
      "ĠDivision": 6889,
      "Tube": 6890,
      "host": 6891,
      "enger": 6892,
      "Ġrecognize": 6893,
      "Ġlicens": 6894,
      "Ġglad": 6895,
      "ĠExpl": 6896,
      "Ġhardware": 6897,
      "Ġshots": 6898,
      "ampion": 6899,
      "born": 6900,
      "Ġpassing": 6901,
      "ĠOrig": 6902,
      "ĠStat": 6903,
      "ĠColorado": 6904,
      "Ġdining": 6905,
      "Ġgay": 6906,
      "ĠNon": 6907,
      "Ġmuseum": 6908,
      "Ġpersonally": 6909,
      "cover": 6910,
      "aints": 6911,
      "elcome": 6912,
      "Ġprepar": 6913,
      "Ġguitar": 6914,
      "ĠBon": 6915,
      "Ġexecut": 6916,
      "ĠDie": 6917,
      "ints": 6918,
      "Ġgolf": 6919,
      "olar": 6920,
      "Ġpleased": 6921,
      "Ġconflict": 6922,
      "Ġliquid": 6923,
      "Ġdescription": 6924,
      "weet": 6925,
      "Ġphilosoph": 6926,
      "sters": 6927,
      "iverse": 6928,
      "mar": 6929,
      "Ġtrick": 6930,
      "Ġappointment": 6931,
      "uine": 6932,
      "Ġimproving": 6933,
      "ĠArmy": 6934,
      "ĠTerm": 6935,
      "Ġhumans": 6936,
      "resents": 6937,
      "Ġcable": 6938,
      "Ġphen": 6939,
      "Ġattrib": 6940,
      "cling": 6941,
      "ouch": 6942,
      "ĠUlt": 6943,
      "Ġmoist": 6944,
      "Ġvend": 6945,
      "ĠSher": 6946,
      "asters": 6947,
      "Ġtech": 6948,
      "Ġhall": 6949,
      "isters": 6950,
      "grad": 6951,
      "atoes": 6952,
      "ĠPot": 6953,
      "Ġid": 6954,
      "Ġproof": 6955,
      "Ġagents": 6956,
      "Ġairport": 6957,
      "Ġheav": 6958,
      "Ġincreasingly": 6959,
      "Ġcollaboration": 6960,
      "Ġwarn": 6961,
      "ĠGames": 6962,
      "EST": 6963,
      "ĠJustice": 6964,
      "Ġdiscipl": 6965,
      "endar": 6966,
      "inos": 6967,
      "otton": 6968,
      "bles": 6969,
      "Ġhoping": 6970,
      "Ġease": 6971,
      "Ġtut": 6972,
      "Ġsuffering": 6973,
      "Ġrear": 6974,
      "ailable": 6975,
      "ĠDisc": 6976,
      "Ġobviously": 6977,
      "Ġlegislation": 6978,
      "ĠÃ": 6979,
      "ĠSn": 6980,
      "ĠHor": 6981,
      "Ġ33": 6982,
      "Ġcouncil": 6983,
      "Ġfiled": 6984,
      "ĠDC": 6985,
      "Ġspaces": 6986,
      "Ġstrategic": 6987,
      "Ġstruggle": 6988,
      "ĠPop": 6989,
      "Ġoperate": 6990,
      "ĠRights": 6991,
      "Ġsomewhere": 6992,
      "Ġsizes": 6993,
      "ĠMach": 6994,
      "greg": 6995,
      "rition": 6996,
      "ĠChair": 6997,
      "Ġtechnique": 6998,
      "Ġaccessible": 6999,
      "gypt": 7000,
      "Ġobjects": 7001,
      "Ġnarr": 7002,
      "ĠCatholic": 7003,
      "Ġtiss": 7004,
      "Ġordered": 7005,
      "Ġcreates": 7006,
      "ba": 7007,
      "Ġanticip": 7008,
      "Ġmand": 7009,
      "Ġbeer": 7010,
      "Ġjun": 7011,
      "Ġrecording": 7012,
      "Ġdescribe": 7013,
      "ĠGeorgia": 7014,
      "LY": 7015,
      "ĠMov": 7016,
      "ĠAsh": 7017,
      "iano": 7018,
      "ĠTurn": 7019,
      "ĠCharles": 7020,
      "Ġguidance": 7021,
      "profit": 7022,
      "Ġexplains": 7023,
      "Ġwriters": 7024,
      "bel": 7025,
      "amental": 7026,
      "Ġmanaging": 7027,
      "stream": 7028,
      "Ġwatched": 7029,
      "ellect": 7030,
      "ĠItaly": 7031,
      "Ġentr": 7032,
      "Ġintent": 7033,
      "âĦ": 7034,
      "Ġchose": 7035,
      "ml": 7036,
      "Ġauthent": 7037,
      "ĠPut": 7038,
      "Ġdealing": 7039,
      "GE": 7040,
      "Ġmini": 7041,
      "that": 7042,
      "Ġsignal": 7043,
      "Ġauto": 7044,
      "ĠSup": 7045,
      "Ġcrucial": 7046,
      "lyn": 7047,
      "Ġ38": 7048,
      "whel": 7049,
      "ĠSH": 7050,
      "Ġhat": 7051,
      "Ġoutstanding": 7052,
      "ographic": 7053,
      "Ġsmell": 7054,
      "Ġmoves": 7055,
      "Ġlinked": 7056,
      "Ġbedroom": 7057,
      "Ġpounds": 7058,
      "ĠTay": 7059,
      "ĠFar": 7060,
      "ĠConf": 7061,
      "07": 7062,
      "Ex": 7063,
      "ĠResp": 7064,
      "Ġdomin": 7065,
      "ĠCa": 7066,
      "sell": 7067,
      "ĠFed": 7068,
      "ĠRose": 7069,
      "Ġsuspect": 7070,
      "oned": 7071,
      "Ġconstant": 7072,
      "ĠOl": 7073,
      "Ġ37": 7074,
      "Ġeggs": 7075,
      "Ġancient": 7076,
      "Ġgender": 7077,
      "Ġalleged": 7078,
      "ĠOil": 7079,
      "Ġindex": 7080,
      "Ġrepresents": 7081,
      "idays": 7082,
      "ashed": 7083,
      "ĠDaniel": 7084,
      "Ġplatforms": 7085,
      "65": 7086,
      "Ġsurprising": 7087,
      "Ġtrends": 7088,
      "orable": 7089,
      "Ġpursu": 7090,
      "ĠFriend": 7091,
      "itage": 7092,
      "Ġfacilit": 7093,
      "Ġ?": 7094,
      "Ġpromise": 7095,
      "Ġorganized": 7096,
      "Ġresistance": 7097,
      "ĠEst": 7098,
      "ĠUk": 7099,
      "Ġanyway": 7100,
      "Ġinstruct": 7101,
      "izz": 7102,
      "aze": 7103,
      "utch": 7104,
      "Ġmainly": 7105,
      "Ġcollected": 7106,
      "ih": 7107,
      "ĠEs": 7108,
      "ĠEnvironment": 7109,
      "ĠDisney": 7110,
      "Ġbathroom": 7111,
      "Ġfavourite": 7112,
      "ĠGuide": 7113,
      "ĠLocal": 7114,
      "Ġmonitoring": 7115,
      "ĠWr": 7116,
      "ĠDaily": 7117,
      "Ġinterface": 7118,
      "Ġimplementation": 7119,
      "Ġestimated": 7120,
      "law": 7121,
      "Ġbrowser": 7122,
      "ico": 7123,
      "ĠHa": 7124,
      "Ġads": 7125,
      "ðŁ": 7126,
      "ĠDog": 7127,
      "Ġmonitor": 7128,
      "ĠBox": 7129,
      "Ġtip": 7130,
      "redit": 7131,
      "ĠConnect": 7132,
      "Ġelev": 7133,
      "08": 7134,
      "ĠShould": 7135,
      "Ġclothing": 7136,
      "rage": 7137,
      "Ġheads": 7138,
      "ĠAccount": 7139,
      "Ġcontribute": 7140,
      "Ġvacation": 7141,
      "anny": 7142,
      "Be": 7143,
      "iana": 7144,
      "ĠMs": 7145,
      "Ġurban": 7146,
      "pat": 7147,
      "Ġvulner": 7148,
      "Americ": 7149,
      "Ġadventure": 7150,
      "Ġgent": 7151,
      "ĠHon": 7152,
      "Ġapproval": 7153,
      "folio": 7154,
      "igned": 7155,
      "ĠBeing": 7156,
      "Ġguidelines": 7157,
      "Ã¡": 7158,
      "onna": 7159,
      "pel": 7160,
      "ĠJenn": 7161,
      "Ġ34": 7162,
      "Ġachieved": 7163,
      "ĠFord": 7164,
      "Ġresulting": 7165,
      "ilst": 7166,
      "alog": 7167,
      "Ġforever": 7168,
      "Ġletters": 7169,
      "Ġprecise": 7170,
      "VE": 7171,
      "rich": 7172,
      "class": 7173,
      "Ġbottle": 7174,
      "umes": 7175,
      "ĠIreland": 7176,
      "obby": 7177,
      "Ġerr": 7178,
      "Ġtank": 7179,
      "Ġlandscape": 7180,
      "âĦ¢": 7181,
      "Ġlapt": 7182,
      "Ġfasc": 7183,
      "Ġdoctors": 7184,
      "ĠYouTube": 7185,
      "Ġatmosphere": 7186,
      "Ġanxiety": 7187,
      "ĠPerform": 7188,
      "adium": 7189,
      "raid": 7190,
      "Ġtransportation": 7191,
      "Ġabsor": 7192,
      "lder": 7193,
      "Ġknock": 7194,
      "Ġreplacement": 7195,
      "Ġweapons": 7196,
      "Ġexec": 7197,
      "Ġclar": 7198,
      "Ġsomewhat": 7199,
      "Ġdrinking": 7200,
      "Ġevol": 7201,
      "ĠEgypt": 7202,
      "ennis": 7203,
      "Ġinformed": 7204,
      "ARD": 7205,
      "**": 7206,
      "celer": 7207,
      "made": 7208,
      "Ġprotest": 7209,
      "rency": 7210,
      "Ġconserv": 7211,
      "Ġacts": 7212,
      "Ġhospit": 7213,
      "ĠSpace": 7214,
      "ĠType": 7215,
      "alle": 7216,
      "Ġbroadcast": 7217,
      "Ġinspiration": 7218,
      "Ġproven": 7219,
      "Ġinterpret": 7220,
      "Ġnecessarily": 7221,
      "Ġcapture": 7222,
      "ĠRon": 7223,
      "Ġspokes": 7224,
      "ĠScot": 7225,
      "Ġintegrated": 7226,
      "ĠCOVID": 7227,
      "Ġgrass": 7228,
      "ĠSmall": 7229,
      "Ġstyles": 7230,
      "Ġrail": 7231,
      "Ġrental": 7232,
      "Ġreader": 7233,
      "Â°": 7234,
      "uls": 7235,
      "anna": 7236,
      "Ġsubsequ": 7237,
      "Ġnarrow": 7238,
      "Ġpleasure": 7239,
      "zing": 7240,
      "Ġattended": 7241,
      "yers": 7242,
      "Ġextract": 7243,
      "Ġfitness": 7244,
      "ĠPosted": 7245,
      "Ġsaved": 7246,
      "ĠHarr": 7247,
      "umps": 7248,
      "Ġfilter": 7249,
      "onym": 7250,
      "UL": 7251,
      "Ġzone": 7252,
      "ĠRay": 7253,
      "lv": 7254,
      "Ġlie": 7255,
      "ĠVill": 7256,
      "Ġlucky": 7257,
      "Ġnuclear": 7258,
      "SE": 7259,
      "ĠInstagram": 7260,
      "ĠThink": 7261,
      "Ġborder": 7262,
      "Ġdust": 7263,
      "ĠRemember": 7264,
      "Ġhire": 7265,
      "Ġperforming": 7266,
      "Ġagric": 7267,
      "Ġproposal": 7268,
      "Ġrose": 7269,
      "FC": 7270,
      "Ġengagement": 7271,
      "zil": 7272,
      "cons": 7273,
      "ĠJersey": 7274,
      "ĠSU": 7275,
      "cked": 7276,
      "Ġnoise": 7277,
      "Ġmagic": 7278,
      "Ġprimarily": 7279,
      "Ġqualified": 7280,
      "vi": 7281,
      "ĠBlo": 7282,
      "irts": 7283,
      "Ġversions": 7284,
      "Ġdiscl": 7285,
      "ĠAC": 7286,
      "ĠPract": 7287,
      "Ġtonight": 7288,
      "Ġreligion": 7289,
      "rip": 7290,
      "Ġshel": 7291,
      "Ġdirected": 7292,
      "Ġextent": 7293,
      "Ġwidely": 7294,
      "Ġpra": 7295,
      "Ġwithd": 7296,
      "PM": 7297,
      "Ġfishing": 7298,
      "Ġdestination": 7299,
      "Ġera": 7300,
      "Ġcorrespond": 7301,
      "Ġfaces": 7302,
      "%.": 7303,
      "ghan": 7304,
      "Ġpit": 7305,
      "she": 7306,
      "ucky": 7307,
      "Ġfinds": 7308,
      "front": 7309,
      "Ġreaction": 7310,
      "ĠCond": 7311,
      "ĠJob": 7312,
      "Ġspark": 7313,
      "ĠFinancial": 7314,
      "Ġsoph": 7315,
      "ĠFred": 7316,
      "Ġargument": 7317,
      "Ġsuffe": 7318,
      "arters": 7319,
      "Ġvisited": 7320,
      "case": 7321,
      "ĠHeart": 7322,
      "42": 7323,
      "Ġoven": 7324,
      "ĠMarketing": 7325,
      "Ġplot": 7326,
      "ATE": 7327,
      "Ġamend": 7328,
      "racy": 7329,
      "ĠAsk": 7330,
      "bar": 7331,
      "Ġexperiment": 7332,
      "Ġattached": 7333,
      "Ġcommunications": 7334,
      "AY": 7335,
      "Ġsustainable": 7336,
      "Ġapparently": 7337,
      "Ġbab": 7338,
      "Ġmic": 7339,
      "Ġintelligence": 7340,
      "ĠAriz": 7341,
      "Ġflag": 7342,
      "Ġbrill": 7343,
      "Ġweren": 7344,
      "Ġshouldn": 7345,
      "ĠPhys": 7346,
      "Ġreferred": 7347,
      "Ġcoc": 7348,
      "Ġstuck": 7349,
      "teen": 7350,
      "Ġfaculty": 7351,
      "ĠMill": 7352,
      "Ġhistoric": 7353,
      "erate": 7354,
      "lements": 7355,
      "ML": 7356,
      "Ġalive": 7357,
      "Ġcausing": 7358,
      "Ġhopes": 7359,
      "Ðµ": 7360,
      "Ġgifts": 7361,
      "09": 7362,
      "ĠFre": 7363,
      "ĠBell": 7364,
      "Ġwest": 7365,
      "Ġexpressed": 7366,
      "Ġsavings": 7367,
      "othe": 7368,
      "ĠOrder": 7369,
      "ĠLeg": 7370,
      "ĠTravel": 7371,
      "iami": 7372,
      "Ġpin": 7373,
      "Ġchances": 7374,
      "Ġsufficient": 7375,
      "Ġgenerate": 7376,
      "Ġstood": 7377,
      "ĠSecretary": 7378,
      "neys": 7379,
      "Ġconscious": 7380,
      "Ġsoci": 7381,
      "Ġpersons": 7382,
      "ument": 7383,
      "Ġtransp": 7384,
      "ogen": 7385,
      "ĠDun": 7386,
      "Ġcos": 7387,
      "Ġawards": 7388,
      "adel": 7389,
      "isms": 7390,
      "Ġduty": 7391,
      "ĠPen": 7392,
      "ologist": 7393,
      "Ġluxury": 7394,
      "ĠDub": 7395,
      "Ġdrawing": 7396,
      "Our": 7397,
      "ĠAdministration": 7398,
      "Ġpace": 7399,
      "Ġpercentage": 7400,
      "itution": 7401,
      "Ġchoosing": 7402,
      "Ġdomain": 7403,
      "Ġfirms": 7404,
      "Ġreplaced": 7405,
      "ĠPriv": 7406,
      "ĠPacific": 7407,
      "Ġgenuine": 7408,
      "ĠNeed": 7409,
      "rm": 7410,
      "ura": 7411,
      "Ġcuts": 7412,
      "Ġ400": 7413,
      "ĠPS": 7414,
      "Ġmembership": 7415,
      "Ġcomponent": 7416,
      "Ġreputation": 7417,
      "Ġbags": 7418,
      "ĠMrs": 7419,
      "Ġoverwhel": 7420,
      "Ġ1999": 7421,
      "Ġeligible": 7422,
      "Ġamounts": 7423,
      "ĠPak": 7424,
      "Ġseasons": 7425,
      "iece": 7426,
      "Ġreduction": 7427,
      "Ġinstrument": 7428,
      "ikes": 7429,
      "ĠClean": 7430,
      "Ġhole": 7431,
      "ĠSat": 7432,
      "Ġaggress": 7433,
      "inson": 7434,
      "Ġstrange": 7435,
      "ĠTraining": 7436,
      "BI": 7437,
      "Ġpowder": 7438,
      "Ġ1990": 7439,
      "quir": 7440,
      "foot": 7441,
      "ipl": 7442,
      "ĠBa": 7443,
      "plete": 7444,
      "Ġpotentially": 7445,
      "Ġroles": 7446,
      "oured": 7447,
      "Ġinvited": 7448,
      "Ġtab": 7449,
      "Ġprinciples": 7450,
      "Ġsharp": 7451,
      "Ġacting": 7452,
      "ĠClin": 7453,
      "iversary": 7454,
      "Ð¾": 7455,
      "Ġpipe": 7456,
      "Ġpill": 7457,
      "iger": 7458,
      "ĠLind": 7459,
      "Ġ2022": 7460,
      "Ġrepeated": 7461,
      "Ġaccomplish": 7462,
      "Ġisol": 7463,
      "âĢĻ,": 7464,
      "Ġdevelopers": 7465,
      "ĠCab": 7466,
      "ĠPolicy": 7467,
      "Ġhidden": 7468,
      "ĠKar": 7469,
      "ĠKenn": 7470,
      "lessly": 7471,
      "Ġunderst": 7472,
      "level": 7473,
      "Ġtracks": 7474,
      "uration": 7475,
      "Ġsearching": 7476,
      "Ġje": 7477,
      "Ġtradition": 7478,
      "88": 7479,
      "Ġmeals": 7480,
      "stra": 7481,
      "Ġneither": 7482,
      "Ġbroke": 7483,
      "ĠTax": 7484,
      "sue": 7485,
      "acle": 7486,
      "ava": 7487,
      "Ġ55": 7488,
      "Ġlighting": 7489,
      "Ġterrit": 7490,
      "Ġincredibly": 7491,
      "ĠOS": 7492,
      "Ġsending": 7493,
      "ĠJoseph": 7494,
      "ĠEnt": 7495,
      "ĠField": 7496,
      "Ġfindings": 7497,
      "Ġprofessor": 7498,
      "stein": 7499,
      "Ġtempl": 7500,
      "ati": 7501,
      "ione": 7502,
      "ĠAdam": 7503,
      "Ġdefault": 7504,
      "ĠPrin": 7505,
      "oup": 7506,
      "Ġsucceed": 7507,
      "Ġreducing": 7508,
      "ĠPersonal": 7509,
      "ĠJac": 7510,
      "Ġlargely": 7511,
      "Ġrecommendations": 7512,
      "Ġtone": 7513,
      "Ġengaged": 7514,
      "essel": 7515,
      "Ġforum": 7516,
      "Ġfalse": 7517,
      "urb": 7518,
      "ĠHim": 7519,
      "Ġexpenses": 7520,
      "Ġflexible": 7521,
      "abetes": 7522,
      "holders": 7523,
      "Ġprogramme": 7524,
      "Ġobtained": 7525,
      "uster": 7526,
      "Ġ150": 7527,
      "ĠWorks": 7528,
      "Ġmurder": 7529,
      "ran": 7530,
      "uter": 7531,
      "Ġvictims": 7532,
      "ĠRun": 7533,
      "Ġoppon": 7534,
      "ĠMountain": 7535,
      "ĠArea": 7536,
      "Ġcategories": 7537,
      "Ġflavor": 7538,
      "Ġunus": 7539,
      "Ġrating": 7540,
      "Ġdesigner": 7541,
      "Ġmanual": 7542,
      "Ġwhenever": 7543,
      "Al": 7544,
      "star": 7545,
      "ogether": 7546,
      "Ġliterally": 7547,
      "Ġbench": 7548,
      "ĠTaylor": 7549,
      "inent": 7550,
      "ults": 7551,
      "ĠSummer": 7552,
      "ificate": 7553,
      "ĠCarl": 7554,
      "Ġclaimed": 7555,
      "bre": 7556,
      "ĠSea": 7557,
      "Ġsplit": 7558,
      "ureau": 7559,
      "Ġquote": 7560,
      "cipal": 7561,
      "Ġsaving": 7562,
      "ĠStan": 7563,
      "Ġoccurred": 7564,
      "itis": 7565,
      "amber": 7566,
      "Ġscientists": 7567,
      "ĠSuch": 7568,
      "Ġmemories": 7569,
      "ĠFox": 7570,
      "ĠVery": 7571,
      "ĠFact": 7572,
      "Ġenterprise": 7573,
      "ĠTable": 7574,
      "Ġsupplement": 7575,
      "Ġrequests": 7576,
      "Ġresidential": 7577,
      "Ġsensitive": 7578,
      "Ġevil": 7579,
      "Ġfalling": 7580,
      "Ġpriority": 7581,
      "Ġeast": 7582,
      "Ġoffices": 7583,
      "Ġfing": 7584,
      "ĠKent": 7585,
      "06": 7586,
      "PC": 7587,
      "ubs": 7588,
      "Ġscenes": 7589,
      "Ġlies": 7590,
      "Ġsolve": 7591,
      "Ġshower": 7592,
      "ĠRod": 7593,
      "ĠLabor": 7594,
      "inton": 7595,
      "ĠStudies": 7596,
      "Ġafraid": 7597,
      "Ġtournament": 7598,
      "alty": 7599,
      "ĠBrian": 7600,
      "Ġphr": 7601,
      "ĠJoin": 7602,
      "Ġmile": 7603,
      "Ġmatches": 7604,
      "Ġwash": 7605,
      "VER": 7606,
      "Ġintroduction": 7607,
      "ĠSus": 7608,
      "Ġdebut": 7609,
      "Ġcontinuing": 7610,
      "nam": 7611,
      "ĠSav": 7612,
      "ĠZeal": 7613,
      "Ġstunning": 7614,
      "âĢĺ": 7615,
      "ĠProdu": 7616,
      "02": 7617,
      "Ġattractive": 7618,
      "Ġformal": 7619,
      "earing": 7620,
      "aping": 7621,
      "izer": 7622,
      "Ġexpansion": 7623,
      "Ġawarded": 7624,
      "Ġexception": 7625,
      "Ġwra": 7626,
      "ĠCru": 7627,
      "Ġrig": 7628,
      "Ġgiant": 7629,
      "then": 7630,
      "Ġproducing": 7631,
      "riers": 7632,
      "Ġentit": 7633,
      "Ġheaded": 7634,
      "anned": 7635,
      "zer": 7636,
      "Ġbact": 7637,
      "Ġhealing": 7638,
      "âĢ¦.": 7639,
      "Ġfounded": 7640,
      "Ġlawyer": 7641,
      "Con": 7642,
      "ifies": 7643,
      "ĠEss": 7644,
      "Ġdynamic": 7645,
      "ĠAp": 7646,
      "ĠCopyright": 7647,
      "ppy": 7648,
      "Ġpermission": 7649,
      "ounter": 7650,
      "HS": 7651,
      "Ġleather": 7652,
      "Ġphotography": 7653,
      "Ġempty": 7654,
      "Ġtired": 7655,
      "season": 7656,
      "ĠMiami": 7657,
      "stery": 7658,
      "Ġbell": 7659,
      "ĠNick": 7660,
      "Ġrice": 7661,
      "CD": 7662,
      "Ġjoining": 7663,
      "Ġcoordin": 7664,
      "page": 7665,
      "Ġalongside": 7666,
      "Ġcarrying": 7667,
      "oes": 7668,
      "iki": 7669,
      "Ġunw": 7670,
      "Ġdad": 7671,
      "lled": 7672,
      "Ġnaturally": 7673,
      "Ġdiseases": 7674,
      "lers": 7675,
      "Ġstronger": 7676,
      "ĠArizona": 7677,
      "Ġmob": 7678,
      "Ġtwenty": 7679,
      "ĠPhoto": 7680,
      "ĠFather": 7681,
      "Ġreject": 7682,
      "Ġultimate": 7683,
      "Ġmortgage": 7684,
      "Ġunion": 7685,
      "Ġblind": 7686,
      "Ġfinance": 7687,
      "anes": 7688,
      "ĠTer": 7689,
      "ĠMobile": 7690,
      "icted": 7691,
      "Ġopposite": 7692,
      "ĠLy": 7693,
      "ĠSenior": 7694,
      "Ð°": 7695,
      "ĠHou": 7696,
      "ĠRequ": 7697,
      "ĠZealand": 7698,
      "Ġ;": 7699,
      "Ġ~": 7700,
      "Ġ65": 7701,
      "ĠHenry": 7702,
      "ĠRoll": 7703,
      "Ġcompliance": 7704,
      "Ġpossess": 7705,
      "Ġdefinition": 7706,
      "Ġarrive": 7707,
      "Ġbridge": 7708,
      "bury": 7709,
      "Ġcapabilities": 7710,
      "All": 7711,
      "Ġbreaking": 7712,
      "friendly": 7713,
      "ĠWebs": 7714,
      "rated": 7715,
      "Ġneighb": 7716,
      "77": 7717,
      "ĠBuilding": 7718,
      "Ġeverybody": 7719,
      "Ġinner": 7720,
      "ĠStore": 7721,
      "ĠAmong": 7722,
      "Ġillegal": 7723,
      "ĠRef": 7724,
      "Ġbirds": 7725,
      "03": 7726,
      "41": 7727,
      "Ġfestival": 7728,
      "Ġinvolving": 7729,
      "ĠBrad": 7730,
      "Ġregardless": 7731,
      "Ġdeposit": 7732,
      "Ġpermanent": 7733,
      "ĠLtd": 7734,
      "Ġremained": 7735,
      "DS": 7736,
      "Ġstake": 7737,
      "Ġ($": 7738,
      "Ġrecover": 7739,
      "Ġgaming": 7740,
      "including": 7741,
      "Ġrecognition": 7742,
      "ĠHoly": 7743,
      "ĠSystems": 7744,
      "Com": 7745,
      "Pl": 7746,
      "Ġcompr": 7747,
      "ventional": 7748,
      "athan": 7749,
      "ĠÂ»": 7750,
      "Ġinvolves": 7751,
      "making": 7752,
      "phy": 7753,
      "Ġsuddenly": 7754,
      "Ġanymore": 7755,
      "Ġtum": 7756,
      "Ġbull": 7757,
      "ĠSection": 7758,
      "Ġdivision": 7759,
      "43": 7760,
      "Ar": 7761,
      "acc": 7762,
      "Ġpink": 7763,
      "Ġlets": 7764,
      "Ġrecy": 7765,
      "Ġpublication": 7766,
      "Ġdepends": 7767,
      "Ġending": 7768,
      "Ġinteract": 7769,
      "Ġmood": 7770,
      "ystem": 7771,
      "Ġcareful": 7772,
      "Ġdivid": 7773,
      "ĠAwards": 7774,
      "Ġcontrols": 7775,
      "Ġfifth": 7776,
      "Ġtact": 7777,
      "Ġseed": 7778,
      "Ġcolumn": 7779,
      "Ġcomparison": 7780,
      "ĠEvent": 7781,
      "Ġprinted": 7782,
      "Ġmerch": 7783,
      "cific": 7784,
      "aron": 7785,
      "Ġflash": 7786,
      "etary": 7787,
      "Ġstead": 7788,
      "ĠAsian": 7789,
      "Ġmanagers": 7790,
      "Ġhosting": 7791,
      "haust": 7792,
      "Ġvirus": 7793,
      "Ġdriven": 7794,
      "ĠBrazil": 7795,
      "TV": 7796,
      "Ġmixture": 7797,
      "iform": 7798,
      "chester": 7799,
      "ĠWithout": 7800,
      "Ġblocks": 7801,
      "letter": 7802,
      "Ġseats": 7803,
      "nders": 7804,
      "ĠBritain": 7805,
      "boy": 7806,
      "Ġthinks": 7807,
      "Ġlau": 7808,
      "ĠDVD": 7809,
      "Ġpersonality": 7810,
      "ĠMedicine": 7811,
      "Ġraw": 7812,
      "Ġeverywhere": 7813,
      "ĠTech": 7814,
      "Ġcoal": 7815,
      "Ġbunch": 7816,
      "ĠProper": 7817,
      "ĠJr": 7818,
      "Ġcovering": 7819,
      "nda": 7820,
      "Ġenforcement": 7821,
      "Ġdreams": 7822,
      "quality": 7823,
      "ĠExam": 7824,
      "ĠMeanwhile": 7825,
      "Ġpubl": 7826,
      "].": 7827,
      "ĠNumber": 7828,
      "andemic": 7829,
      "aper": 7830,
      "iders": 7831,
      "Ġintellect": 7832,
      "Ġscheme": 7833,
      "bell": 7834,
      "Ġliterature": 7835,
      "ĠSafety": 7836,
      "Ġma": 7837,
      "Ġ)": 7838,
      "asure": 7839,
      "Ġbutt": 7840,
      "Ġnewly": 7841,
      "ĠNic": 7842,
      "ĠRoom": 7843,
      "Ġarchitecture": 7844,
      "ĠCN": 7845,
      "Ġrevolution": 7846,
      "ĠNorthern": 7847,
      "ĠSelect": 7848,
      "och": 7849,
      "Ġwins": 7850,
      "Ġsees": 7851,
      "Ġintense": 7852,
      "amps": 7853,
      "Ġavailability": 7854,
      "Ġlimits": 7855,
      "onto": 7856,
      "Ġforgot": 7857,
      "ĠProm": 7858,
      "Ġharder": 7859,
      "Ġconsideration": 7860,
      "iti": 7861,
      "Ġyield": 7862,
      "Ġnic": 7863,
      "bits": 7864,
      "uous": 7865,
      "rogen": 7866,
      "Ġexplan": 7867,
      "orgeous": 7868,
      "ĠLooking": 7869,
      "Ġexposed": 7870,
      "Ġshops": 7871,
      "Ġcute": 7872,
      "Ġcharm": 7873,
      "imize": 7874,
      "Ġconcert": 7875,
      "RS": 7876,
      "ĠAdditionally": 7877,
      "ĠHollywood": 7878,
      "izza": 7879,
      "Ġhandling": 7880,
      "Ġindustries": 7881,
      "Ġrising": 7882,
      "Ġtrave": 7883,
      "Ġstrike": 7884,
      "uing": 7885,
      "Ġbaseball": 7886,
      "EA": 7887,
      "Ġundert": 7888,
      "remony": 7889,
      "ĠGM": 7890,
      "Ġregions": 7891,
      "ĠEveryone": 7892,
      "Ġbatt": 7893,
      "Ġloud": 7894,
      "ĠBru": 7895,
      "ĠDam": 7896,
      "ateful": 7897,
      "Ġcontrovers": 7898,
      "ambling": 7899,
      "rog": 7900,
      "Ġwrites": 7901,
      "swe": 7902,
      "ĠEric": 7903,
      "Ġshoulder": 7904,
      "Ġenjoying": 7905,
      "Ġconcrete": 7906,
      "inity": 7907,
      "ĠCase": 7908,
      "ĠKat": 7909,
      "Ġbars": 7910,
      "Ġborrow": 7911,
      "icide": 7912,
      "Ġvice": 7913,
      "Ġtreatments": 7914,
      "Ġwave": 7915,
      "ĠHarry": 7916,
      "pack": 7917,
      "ĠTele": 7918,
      "Ġphones": 7919,
      "Ġinfection": 7920,
      "Ġsubmitted": 7921,
      "Ġunex": 7922,
      "Ġflying": 7923,
      "lose": 7924,
      "Ġ1998": 7925,
      "Ġreserved": 7926,
      "oices": 7927,
      "anted": 7928,
      "ressed": 7929,
      "Ġequival": 7930,
      "Ġfundamental": 7931,
      "Ġsubjects": 7932,
      "300": 7933,
      "ds": 7934,
      "ĠFall": 7935,
      "Ġputs": 7936,
      "ĠDrive": 7937,
      "leep": 7938,
      "ĠJosh": 7939,
      "issions": 7940,
      "Ġsuffered": 7941,
      "roke": 7942,
      "Ġcompare": 7943,
      "uct": 7944,
      "Ġjew": 7945,
      "Ġgard": 7946,
      "Ġoffensive": 7947,
      "To": 7948,
      "pir": 7949,
      "ĠDark": 7950,
      "Ġcommunicate": 7951,
      "Ġmanufacturers": 7952,
      "ĠThings": 7953,
      "Ġvisible": 7954,
      "ĠDavis": 7955,
      "Ġtape": 7956,
      "Ġcenters": 7957,
      "ĠSupreme": 7958,
      "ĠBall": 7959,
      "ĠVi": 7960,
      "Ġconnections": 7961,
      "Ġlip": 7962,
      "ĠDO": 7963,
      "wart": 7964,
      "tes": 7965,
      "CO": 7966,
      "Ġobserved": 7967,
      "sts": 7968,
      "nell": 7969,
      "ĠOK": 7970,
      "Ġalt": 7971,
      "ĠSS": 7972,
      "bration": 7973,
      "inte": 7974,
      "Ġinsight": 7975,
      "Ġdesired": 7976,
      "Ġmarked": 7977,
      "tw": 7978,
      "words": 7979,
      "usal": 7980,
      "Ġcertified": 7981,
      "eras": 7982,
      "ĠFREE": 7983,
      "Ġportfolio": 7984,
      "Ġexistence": 7985,
      "Ġinitiative": 7986,
      "ĠBroad": 7987,
      "ĠâĢĻ": 7988,
      "Ġcommonly": 7989,
      "Ġrecon": 7990,
      "Ġconsequences": 7991,
      "AB": 7992,
      "Ġeleg": 7993,
      "Ġprogramming": 7994,
      "Ġfraud": 7995,
      "Ġgentle": 7996,
      "ĠFoot": 7997,
      "phones": 7998,
      "ĠKingdom": 7999,
      "Ġlaid": 8000,
      "ocracy": 8001,
      "Ġarrested": 8002,
      "ĠSilver": 8003,
      "04": 8004,
      "Ġblank": 8005,
      "inois": 8006,
      "ĠVisit": 8007,
      "icket": 8008,
      "ĠIrish": 8009,
      "RI": 8010,
      "ĠAvenue": 8011,
      "bridge": 8012,
      "ESS": 8013,
      "Ġgotten": 8014,
      "Fi": 8015,
      "Ġtie": 8016,
      "ĠTreat": 8017,
      "olit": 8018,
      "Ġpepper": 8019,
      "Ġreturning": 8020,
      "Ġcookies": 8021,
      "alysis": 8022,
      "stal": 8023,
      "da": 8024,
      "Ġgym": 8025,
      "Ġpresents": 8026,
      "ĠKevin": 8027,
      "des": 8028,
      "Ġbaking": 8029,
      "Ġreact": 8030,
      "Ġhung": 8031,
      "olis": 8032,
      "Ġnewspaper": 8033,
      "Ġlogo": 8034,
      ",'": 8035,
      "ĠCP": 8036,
      "Ġconsumption": 8037,
      "Ġdrawn": 8038,
      "Ġdowntown": 8039,
      "Ġstrict": 8040,
      "icious": 8041,
      "ĠPo": 8042,
      "ĠGarden": 8043,
      "ĠLine": 8044,
      "ĠUr": 8045,
      "Ġrecipes": 8046,
      "ĠForce": 8047,
      "ĠRand": 8048,
      "ĠPrime": 8049,
      "ĠSmart": 8050,
      "atell": 8051,
      "Ġoutcome": 8052,
      "annel": 8053,
      "ĠCON": 8054,
      "Ġdemands": 8055,
      "ĠOak": 8056,
      "Ġupload": 8057,
      "Ġuncom": 8058,
      "Ġlists": 8059,
      "Ġchannels": 8060,
      "ila": 8061,
      "ĠHas": 8062,
      "Ġbasketball": 8063,
      "Ġfarmers": 8064,
      "Ġsacr": 8065,
      "Ġgranted": 8066,
      "Ġoutcomes": 8067,
      "Ġcolleagues": 8068,
      "Ġlesson": 8069,
      "Ġol": 8070,
      "liament": 8071,
      "Ġtitles": 8072,
      "Ġlect": 8073,
      "Ġstructures": 8074,
      "Ġframework": 8075,
      "aska": 8076,
      "uma": 8077,
      "arks": 8078,
      "ĠShare": 8079,
      "Ġbehalf": 8080,
      "Ġencouraged": 8081,
      "Ġpreparation": 8082,
      "Ġyard": 8083,
      "Ġcompensation": 8084,
      "ĠMir": 8085,
      "Un": 8086,
      "Ġtor": 8087,
      "ulating": 8088,
      "Ġexperim": 8089,
      "coin": 8090,
      "ĠEnjoy": 8091,
      "Ġpreferred": 8092,
      "ĠWilson": 8093,
      "Ġcontrolled": 8094,
      "Ġassume": 8095,
      "Ġfaced": 8096,
      "Ġretirement": 8097,
      "ĠLLC": 8098,
      "Ġfinger": 8099,
      "ruption": 8100,
      "ĠAgency": 8101,
      "ĠCountry": 8102,
      "ĠLearning": 8103,
      "ĠBad": 8104,
      "Ġtraveling": 8105,
      "ials": 8106,
      "Ġevolution": 8107,
      "Ġmarks": 8108,
      "Ġrefund": 8109,
      "ĠQueen": 8110,
      "ĠMiller": 8111,
      "claim": 8112,
      "Ġcriteria": 8113,
      "ĠEmer": 8114,
      "cker": 8115,
      "Ġdeeply": 8116,
      "Ġstaying": 8117,
      "ĠProfessional": 8118,
      "run": 8119,
      "Ġdecent": 8120,
      "ja": 8121,
      "Ġkit": 8122,
      "missions": 8123,
      "ped": 8124,
      "Ġcopyright": 8125,
      "ĠiPad": 8126,
      "Ġconvin": 8127,
      "Ġpurchasing": 8128,
      "Ġfru": 8129,
      "Ġdepression": 8130,
      "Ġopinions": 8131,
      "ĠCivil": 8132,
      "ĠWould": 8133,
      "Ġconsists": 8134,
      "Ġdollar": 8135,
      "ĠðŁ": 8136,
      "Ġaband": 8137,
      "Ġinjured": 8138,
      "cular": 8139,
      "Ġdeeper": 8140,
      "Ġobst": 8141,
      "Ġvegetables": 8142,
      "raction": 8143,
      "Ġforecast": 8144,
      "ĠPur": 8145,
      "ĠHell": 8146,
      "iking": 8147,
      "oken": 8148,
      "Ġnights": 8149,
      "Ġvolunteers": 8150,
      "oto": 8151,
      "ĠName": 8152,
      "Ġenables": 8153,
      "regon": 8154,
      "Ġvent": 8155,
      "ĠWi": 8156,
      "Ġcontained": 8157,
      "ĠCloud": 8158,
      "Ġapproaches": 8159,
      "Ġham": 8160,
      "Ġexceed": 8161,
      "Ġvessel": 8162,
      "Ġcompat": 8163,
      "Ġvoters": 8164,
      "Ġinch": 8165,
      "Ġhel": 8166,
      "ccer": 8167,
      "TER": 8168,
      "ership": 8169,
      "Ġequally": 8170,
      "Ġscan": 8171,
      "ĠBrook": 8172,
      "Ġboxes": 8173,
      "ĠBaby": 8174,
      "Ġacceler": 8175,
      "Ġwarning": 8176,
      "Ġimprovements": 8177,
      "Ġsuperior": 8178,
      "85": 8179,
      "uties": 8180,
      "ĠNO": 8181,
      "ĠPA": 8182,
      "ĠNorm": 8183,
      "phia": 8184,
      "ĠCommon": 8185,
      "Ġru": 8186,
      "Ġriding": 8187,
      "Ġassistant": 8188,
      "Ġmerely": 8189,
      "fall": 8190,
      "Ġ39": 8191,
      "Ġconcerning": 8192,
      "Ġvibr": 8193,
      "Ġspots": 8194,
      "ĠNatural": 8195,
      "ĠMD": 8196,
      "Ġcasual": 8197,
      "ĠFa": 8198,
      "Ġmeets": 8199,
      "ĠSales": 8200,
      "ĠStock": 8201,
      "Ġheading": 8202,
      "iler": 8203,
      "Ġextension": 8204,
      "Ġstayed": 8205,
      "ĠSoftware": 8206,
      "ĠPDF": 8207,
      "ĠNFL": 8208,
      "FA": 8209,
      "cm": 8210,
      "wear": 8211,
      "Ġsuggestions": 8212,
      "Ġelectrical": 8213,
      "xx": 8214,
      "ĠHouston": 8215,
      "ĠMembers": 8216,
      "LS": 8217,
      "Ġtied": 8218,
      "Ġdrag": 8219,
      "One": 8220,
      "Ġstrongly": 8221,
      "ĠFig": 8222,
      "Ġdispos": 8223,
      "intage": 8224,
      "Ġclassroom": 8225,
      "Ġroads": 8226,
      "ĠDave": 8227,
      "âĢ³": 8228,
      "ĠMade": 8229,
      "orses": 8230,
      "Ġlatter": 8231,
      "ĠSeattle": 8232,
      "ĠBeaut": 8233,
      "Ġequipped": 8234,
      "ĠSep": 8235,
      "acher": 8236,
      "Ġevaluation": 8237,
      "Ġcalendar": 8238,
      "Ġfunctional": 8239,
      "Ġdrinks": 8240,
      "Ġmaintaining": 8241,
      "ador": 8242,
      "Ġlady": 8243,
      "ĠPu": 8244,
      "Ġgreatly": 8245,
      "Ġescape": 8246,
      "Ġwake": 8247,
      "ĠPsych": 8248,
      "Ġinstant": 8249,
      "ĠEngineering": 8250,
      "Ġstir": 8251,
      "Ġdefensive": 8252,
      "ĠEastern": 8253,
      "ĠJason": 8254,
      "Ġposting": 8255,
      "ĠGuard": 8256,
      "ilton": 8257,
      "ĠBull": 8258,
      "Ġ49": 8259,
      "Ġfalls": 8260,
      "hire": 8261,
      "adelphia": 8262,
      "ĠUSB": 8263,
      "Ġtub": 8264,
      "ĠIllinois": 8265,
      "Ġupgrade": 8266,
      "ĠSpain": 8267,
      "ĠFollowing": 8268,
      "ĠCut": 8269,
      "Ġplane": 8270,
      "ĠPrint": 8271,
      "Ġcalm": 8272,
      "66": 8273,
      "iot": 8274,
      "aters": 8275,
      "ĠJord": 8276,
      "Ġuncertain": 8277,
      "Ġclosing": 8278,
      "Ġcomplicated": 8279,
      "Ġloose": 8280,
      "war": 8281,
      "Ġexhaust": 8282,
      "ĠStandard": 8283,
      "Ġadvent": 8284,
      "Ġgained": 8285,
      "usive": 8286,
      "Ġgenerated": 8287,
      "etry": 8288,
      "Ġelected": 8289,
      "Ġbills": 8290,
      "orous": 8291,
      "iac": 8292,
      "ĠCredit": 8293,
      "Ġunderstood": 8294,
      "Ġsentence": 8295,
      "lude": 8296,
      "ulum": 8297,
      "ĠStephen": 8298,
      "Ġpandemic": 8299,
      "Ġmac": 8300,
      "Ġrequirement": 8301,
      "Ġpreparing": 8302,
      "Le": 8303,
      "ĠRos": 8304,
      "ĠMother": 8305,
      "ĠIce": 8306,
      "rug": 8307,
      "books": 8308,
      "vard": 8309,
      "Ġchest": 8310,
      "Ġraising": 8311,
      "Ġboss": 8312,
      "ceived": 8313,
      "mates": 8314,
      "Ġ42": 8315,
      "Ġpowers": 8316,
      "Ġtrips": 8317,
      "nesota": 8318,
      "Press": 8319,
      "ĠAge": 8320,
      "Ġrelative": 8321,
      "Ġpersonnel": 8322,
      "Ġapplicable": 8323,
      "ashes": 8324,
      "ĠLA": 8325,
      "nce": 8326,
      "igation": 8327,
      "Ġparam": 8328,
      "ĠDemocratic": 8329,
      "dri": 8330,
      "Ġstom": 8331,
      "Ġattitude": 8332,
      "Ġperformances": 8333,
      "ĠCapital": 8334,
      "ĠBE": 8335,
      "Ġarmy": 8336,
      "apore": 8337,
      "Ġfranch": 8338,
      "ĠGolden": 8339,
      "Ġrely": 8340,
      "ilty": 8341,
      "Ġoffense": 8342,
      "GA": 8343,
      "ĠBes": 8344,
      "Ġpocket": 8345,
      "Ġzero": 8346,
      "days": 8347,
      "isa": 8348,
      "ington": 8349,
      "ĠStudent": 8350,
      "Ġprohib": 8351,
      "aine": 8352,
      "unn": 8353,
      "Ġfounder": 8354,
      "ĠSound": 8355,
      "atin": 8356,
      "Ġstable": 8357,
      "ĠFilm": 8358,
      "Ġunusual": 8359,
      "Ġrum": 8360,
      "asting": 8361,
      "ught": 8362,
      "De": 8363,
      "ĠTony": 8364,
      "jo": 8365,
      "oted": 8366,
      "pson": 8367,
      "Ġprayer": 8368,
      "Ġensuring": 8369,
      "ĠInsurance": 8370,
      "ĠSize": 8371,
      "Ġaccord": 8372,
      "Ġcomputers": 8373,
      "Ġgorgeous": 8374,
      "Ġinspe": 8375,
      "ifting": 8376,
      "Ġpassword": 8377,
      "ĠBarb": 8378,
      "ĠInterest": 8379,
      "zed": 8380,
      "Ġspecialist": 8381,
      "ĠAfghan": 8382,
      "Ġmistake": 8383,
      "Ġblend": 8384,
      "from": 8385,
      "Ġrural": 8386,
      "ĠRecent": 8387,
      "ĠShort": 8388,
      "Ġmedication": 8389,
      "bow": 8390,
      "gor": 8391,
      "ĠTenn": 8392,
      "Ġaircraft": 8393,
      "Ġtracking": 8394,
      "heim": 8395,
      "Ġsought": 8396,
      "isdom": 8397,
      "Ġdispl": 8398,
      "ensus": 8399,
      "Ġphenomen": 8400,
      "Ġresort": 8401,
      "Ġunknown": 8402,
      "Ġantib": 8403,
      "ounded": 8404,
      "199": 8405,
      "ĠLiving": 8406,
      "Ġhyper": 8407,
      "Ġrepresented": 8408,
      "Ġbomb": 8409,
      "raine": 8410,
      "Ġchildhood": 8411,
      "Ġracing": 8412,
      "Ġopens": 8413,
      "Ġsuffer": 8414,
      "Ġasks": 8415,
      "tics": 8416,
      "ĠCorporation": 8417,
      "cut": 8418,
      "Ġcharacteristics": 8419,
      "ĠBased": 8420,
      "eling": 8421,
      "ĠModern": 8422,
      "ĠSeason": 8423,
      "Ġthousand": 8424,
      "zes": 8425,
      "Ġpointed": 8426,
      "ĠLew": 8427,
      "Ġreaching": 8428,
      "ĠSC": 8429,
      "rett": 8430,
      "Ġlifetime": 8431,
      "isted": 8432,
      "Ġemails": 8433,
      "ĠAnth": 8434,
      "Ġadopted": 8435,
      "Ġbuyers": 8436,
      "ĠCL": 8437,
      "ĠDNA": 8438,
      "ortion": 8439,
      "Ġshirt": 8440,
      "atics": 8441,
      "ĠQuality": 8442,
      "iley": 8443,
      "Ġpacked": 8444,
      "Ġapplying": 8445,
      "ĠOregon": 8446,
      "Ġhosted": 8447,
      "Ġ1980": 8448,
      "Ġjuice": 8449,
      "eties": 8450,
      "Ġparticipation": 8451,
      "ĠMess": 8452,
      "Ġfewer": 8453,
      "Ġvolunteer": 8454,
      "Ġrapidly": 8455,
      "sen": 8456,
      "abeth": 8457,
      "Ġneut": 8458,
      "ĠIde": 8459,
      "uten": 8460,
      "ĠVice": 8461,
      "Ġceremony": 8462,
      "Ġsynt": 8463,
      "Ġsingles": 8464,
      "irus": 8465,
      "ĠRadio": 8466,
      "Ġpig": 8467,
      "lections": 8468,
      "ERE": 8469,
      "Ġlaptop": 8470,
      "ko": 8471,
      "ĠMos": 8472,
      "Ġattempts": 8473,
      "Ġstages": 8474,
      "Ġwanting": 8475,
      "Ġflexibility": 8476,
      "ĠSarah": 8477,
      "Ġadequ": 8478,
      "Ġ|": 8479,
      "ĠRub": 8480,
      "aka": 8481,
      "angers": 8482,
      "Ġspeaker": 8483,
      "inter": 8484,
      "Ġheaven": 8485,
      "Ġbrilliant": 8486,
      "ĠColumbia": 8487,
      "Ġusage": 8488,
      "ĠSwed": 8489,
      "OO": 8490,
      "Ġscores": 8491,
      "Ġdanger": 8492,
      "ĠTal": 8493,
      "ĠMinnesota": 8494,
      "Ġintegration": 8495,
      "Ġlegit": 8496,
      "Ġadmit": 8497,
      "ilipp": 8498,
      "ĠAutom": 8499,
      "Ġinitially": 8500,
      "month": 8501,
      "ĠDream": 8502,
      "ĠGive": 8503,
      "Ġlegend": 8504,
      "Ġfocusing": 8505,
      "Ġremoval": 8506,
      "Ġactor": 8507,
      "Ġstored": 8508,
      "Ġsections": 8509,
      "pending": 8510,
      "ĠToronto": 8511,
      "Ġtap": 8512,
      "ĠProcess": 8513,
      "bered": 8514,
      "Ġchecking": 8515,
      "Ġobserv": 8516,
      "ĠPalest": 8517,
      "Ġworkshop": 8518,
      "HA": 8519,
      "ĠSource": 8520,
      "ĠLas": 8521,
      "gged": 8522,
      "ĠPow": 8523,
      "ĠRog": 8524,
      "makers": 8525,
      "Ġtransaction": 8526,
      "Ġemotions": 8527,
      "Ġphilosophy": 8528,
      "ĠEasy": 8529,
      "burgh": 8530,
      "Ġlosses": 8531,
      "86": 8532,
      "Ġdental": 8533,
      "Ġsomehow": 8534,
      "ĠDemocrats": 8535,
      "Ġcontracts": 8536,
      "With": 8537,
      "Ġcompete": 8538,
      "Ġlens": 8539,
      "ĠPRO": 8540,
      "ĠED": 8541,
      "Ġsmoke": 8542,
      "Ĥ¬": 8543,
      "Ġentering": 8544,
      "ĠArticle": 8545,
      "Ġchronic": 8546,
      "Ġworried": 8547,
      "Ġsolo": 8548,
      "Ġexhibition": 8549,
      "print": 8550,
      "ĠWorking": 8551,
      "Ġlift": 8552,
      "ĠLar": 8553,
      "ĠPhiladelphia": 8554,
      "Ġequivalent": 8555,
      "ĠBat": 8556,
      "Ġplain": 8557,
      "liers": 8558,
      "ĠOfficer": 8559,
      "Book": 8560,
      "ĠBul": 8561,
      "iah": 8562,
      "Ġske": 8563,
      "ĠStory": 8564,
      "Ġlanguages": 8565,
      "Ġindicate": 8566,
      "being": 8567,
      "upid": 8568,
      "At": 8569,
      "ĠFac": 8570,
      "Ġdeck": 8571,
      "Ġreveal": 8572,
      "Ġalter": 8573,
      "Ġkm": 8574,
      "ĠWebsite": 8575,
      "epend": 8576,
      "Ġlin": 8577,
      "Ġblow": 8578,
      "erman": 8579,
      "yes": 8580,
      "Ġopposition": 8581,
      "ĠCustomer": 8582,
      "Ġscoring": 8583,
      "Ġvisits": 8584,
      "ĠCome": 8585,
      "char": 8586,
      "ĠRoman": 8587,
      "ĠDiego": 8588,
      "Ġtill": 8589,
      "Ġrecre": 8590,
      "ĠSure": 8591,
      "ckets": 8592,
      "Ġassociation": 8593,
      "Ġdivor": 8594,
      "ĠShop": 8595,
      "Ġhotels": 8596,
      ">,": 8597,
      "allas": 8598,
      "ĠKansas": 8599,
      "Ġprize": 8600,
      "Ġstruggling": 8601,
      "Bl": 8602,
      "Ġgene": 8603,
      "Ġassault": 8604,
      "Ġfrustr": 8605,
      "brid": 8606,
      "alo": 8607,
      "ĠAction": 8608,
      "sylv": 8609,
      "heast": 8610,
      "ĠAh": 8611,
      "Ġminimal": 8612,
      "Ġwithdraw": 8613,
      "Ġliability": 8614,
      "Ġgate": 8615,
      "ifer": 8616,
      "Ġpackaging": 8617,
      "Ġocean": 8618,
      "ller": 8619,
      "ĠTalk": 8620,
      "Ġaccessories": 8621,
      "ĠSteven": 8622,
      "Ġobjective": 8623,
      "ĠMethod": 8624,
      "ĠHistor": 8625,
      "Ġgap": 8626,
      "ĠPhone": 8627,
      "Ġmild": 8628,
      "ĠBudd": 8629,
      "pport": 8630,
      "ĠBern": 8631,
      "Ġasset": 8632,
      "Ġdismiss": 8633,
      "Ġweird": 8634,
      "Ġorange": 8635,
      "Ġkilling": 8636,
      "ĠChange": 8637,
      "Ġcourts": 8638,
      "Ġgrateful": 8639,
      "bro": 8640,
      "ĠEX": 8641,
      "Ġauthentic": 8642,
      "eness": 8643,
      "Ġconcepts": 8644,
      "By": 8645,
      "agra": 8646,
      "%,": 8647,
      "intend": 8648,
      "Ġhadn": 8649,
      "site": 8650,
      "ĠLED": 8651,
      "Ġmuscles": 8652,
      "Ġcombat": 8653,
      "Ġsurvive": 8654,
      "Ġemployer": 8655,
      "Ġoccurs": 8656,
      "inating": 8657,
      "ĠTen": 8658,
      "Ġstruck": 8659,
      "Ġtoler": 8660,
      "Ġscope": 8661,
      "RL": 8662,
      "ĠMah": 8663,
      "Ġdisplayed": 8664,
      "Ġnose": 8665,
      "Ġwaters": 8666,
      "ĠSE": 8667,
      "Ġloving": 8668,
      "athered": 8669,
      "Ġwondering": 8670,
      "looking": 8671,
      "Ġmargin": 8672,
      "ĠEliz": 8673,
      "Ġaccused": 8674,
      "Ġcombine": 8675,
      "rection": 8676,
      "swered": 8677,
      "lee": 8678,
      "acon": 8679,
      "mo": 8680,
      "ools": 8681,
      "Ġaccuracy": 8682,
      "Ġconclusion": 8683,
      "Ġerrors": 8684,
      "Ġinteractive": 8685,
      "Ġessentially": 8686,
      "amsung": 8687,
      "Ġentitled": 8688,
      "ĠMom": 8689,
      "Ġadmitted": 8690,
      "Ġprivile": 8691,
      "Ġexceptional": 8692,
      "Ġpregnant": 8693,
      "ĠDoc": 8694,
      "ĠJay": 8695,
      "ĠAirport": 8696,
      "Ġacquis": 8697,
      "enth": 8698,
      "ĠGreek": 8699,
      "Ġcolon": 8700,
      "Ġwise": 8701,
      "ĠBang": 8702,
      "ĠCapt": 8703,
      "Ġspa": 8704,
      "ĠIII": 8705,
      "Ġseeds": 8706,
      "Ġcomprom": 8707,
      "Ġrepresentative": 8708,
      "fers": 8709,
      "ĠMu": 8710,
      "Ġinvestments": 8711,
      "Ġlean": 8712,
      "Ġimper": 8713,
      "Ġattach": 8714,
      "aza": 8715,
      "ĠCasino": 8716,
      "dated": 8717,
      "unes": 8718,
      "ĠBit": 8719,
      "oked": 8720,
      "market": 8721,
      "Ġprinting": 8722,
      "Ġfilling": 8723,
      "Ġwhilst": 8724,
      "Ġdecline": 8725,
      "sylvania": 8726,
      "RC": 8727,
      "Ġkiss": 8728,
      "Ġtissue": 8729,
      "ĠMotor": 8730,
      "Ġsecondary": 8731,
      "Ġvenue": 8732,
      "Ġmm": 8733,
      "Ġintention": 8734,
      "Ġdiversity": 8735,
      "Ġstations": 8736,
      "Ġdrama": 8737,
      "Ġgrace": 8738,
      "ĠKorea": 8739,
      "Ġheavily": 8740,
      "ashing": 8741,
      "Ġflower": 8742,
      "Ġcups": 8743,
      "Ph": 8744,
      "ĠLady": 8745,
      "Ġarray": 8746,
      "Ġanniversary": 8747,
      "ĠChall": 8748,
      "vas": 8749,
      "ĠHold": 8750,
      "Ġ1997": 8751,
      "obe": 8752,
      "Ġouts": 8753,
      "mble": 8754,
      "Ġly": 8755,
      "Ġrestrictions": 8756,
      "wan": 8757,
      "ĠHay": 8758,
      "ĠMember": 8759,
      "Ġyoga": 8760,
      "utter": 8761,
      "ĠEth": 8762,
      "sis": 8763,
      "style": 8764,
      "Ġdose": 8765,
      "Ġremem": 8766,
      "dis": 8767,
      "Ġsouthern": 8768,
      "Ġpushed": 8769,
      "wich": 8770,
      "Ġcameras": 8771,
      "ĠRepublicans": 8772,
      "ĠForest": 8773,
      "ĠDom": 8774,
      "Ġenthusi": 8775,
      "Ġorient": 8776,
      "Ġokay": 8777,
      "ĠGreg": 8778,
      "unicip": 8779,
      "Ġarr": 8780,
      "ĠAng": 8781,
      "ĠWant": 8782,
      "ĠOwn": 8783,
      "Ã³": 8784,
      "Ġholidays": 8785,
      "ĠSEO": 8786,
      "Ġsoldiers": 8787,
      "Ġsamples": 8788,
      "ĠVen": 8789,
      "fa": 8790,
      "Ġdishes": 8791,
      "Ġslots": 8792,
      "Ġpricing": 8793,
      "ĠVegas": 8794,
      "Ġdeploy": 8795,
      "Ġalarm": 8796,
      "Ġimportantly": 8797,
      "iary": 8798,
      "Ġminister": 8799,
      "Ġrespectively": 8800,
      "Ġjur": 8801,
      "Ġcontaining": 8802,
      "Ġprime": 8803,
      "Ġtooth": 8804,
      "ĠMatthew": 8805,
      "mg": 8806,
      "Ġbands": 8807,
      "ĠGard": 8808,
      "ĠDead": 8809,
      "Ġlisting": 8810,
      "ĠSquare": 8811,
      "Do": 8812,
      "awa": 8813,
      "Ġdelivering": 8814,
      "ĠBed": 8815,
      "power": 8816,
      "Ġsorry": 8817,
      "owa": 8818,
      "Ġ46": 8819,
      "Ġpride": 8820,
      "Ġtemporary": 8821,
      "ĠMemorial": 8822,
      "ipt": 8823,
      "Ġmask": 8824,
      "olt": 8825,
      "Ġscreens": 8826,
      "Ġdamaged": 8827,
      "Ġspeakers": 8828,
      "Ġintroduce": 8829,
      "Ġfocuses": 8830,
      "Ġinsert": 8831,
      "Ġarrival": 8832,
      "ucks": 8833,
      "Ġinterviews": 8834,
      "American": 8835,
      "ĠEverything": 8836,
      "Ġadvantages": 8837,
      "Ġpul": 8838,
      "ĠHappy": 8839,
      "ĠOs": 8840,
      "ĠViet": 8841,
      "Ġspray": 8842,
      "Ġstring": 8843,
      "rets": 8844,
      "Ġfits": 8845,
      "ĠCro": 8846,
      "ĠSA": 8847,
      "Ġpermit": 8848,
      "Ġcrash": 8849,
      "Ġemotion": 8850,
      "ĠAvailable": 8851,
      "Ġ!": 8852,
      "Ġtherap": 8853,
      "Ġcotton": 8854,
      "Read": 8855,
      "Ġnations": 8856,
      "aret": 8857,
      "Ġpackages": 8858,
      "ĠChapter": 8859,
      "Ġ1996": 8860,
      "ĠEffect": 8861,
      "Ġattending": 8862,
      "ĠBM": 8863,
      "ART": 8864,
      "ĠLimited": 8865,
      "ĠTheatre": 8866,
      "ĠConsult": 8867,
      "Ġclubs": 8868,
      "ĠSem": 8869,
      "Ġstudied": 8870,
      "ĠSingapore": 8871,
      "Ġofficially": 8872,
      "Ġchampion": 8873,
      "Ġtrim": 8874,
      "2012": 8875,
      "theless": 8876,
      "una": 8877,
      "Ġswing": 8878,
      "ĠAtlanta": 8879,
      "Ġloyal": 8880,
      "ĠMoney": 8881,
      "ĠJordan": 8882,
      "ĠRick": 8883,
      "ĠLevel": 8884,
      "Ġgovernments": 8885,
      "Ġrequested": 8886,
      "Ġelectricity": 8887,
      "Ġmg": 8888,
      "ĠVers": 8889,
      "Ġsomebody": 8890,
      "ĠContinue": 8891,
      "oir": 8892,
      "onic": 8893,
      "Ġmole": 8894,
      "Ġanswered": 8895,
      "ibl": 8896,
      "Ġproducer": 8897,
      "rieved": 8898,
      "Ġstudying": 8899,
      "ĠPrior": 8900,
      "Ġhighlights": 8901,
      "Ġsurge": 8902,
      "Ġlawsu": 8903,
      "Ġbehavi": 8904,
      "ĠImpro": 8905,
      "Ġphotographs": 8906,
      "Ġbone": 8907,
      "Ġsurve": 8908,
      "Ġengaging": 8909,
      "ĠRegist": 8910,
      "ĠEmail": 8911,
      "ockey": 8912,
      "ĠClinton": 8913,
      "Ġinstitution": 8914,
      "ĠTotal": 8915,
      "ĠGi": 8916,
      "Ġcoat": 8917,
      "ĠPatrick": 8918,
      "Ġintellectual": 8919,
      "Ġunexpected": 8920,
      "Ġresident": 8921,
      "Ġsinger": 8922,
      "Ġaddresses": 8923,
      "Ġencounter": 8924,
      "ĠMoreover": 8925,
      "Ġparticipating": 8926,
      "Ġsubstantial": 8927,
      "Ġhanging": 8928,
      "ĠLatin": 8929,
      "Ġstatistics": 8930,
      "Ġsetup": 8931,
      "Ġcontainer": 8932,
      "Ġdemonstrate": 8933,
      "ĠProtection": 8934,
      "She": 8935,
      "ĠKelly": 8936,
      "Ġjudgment": 8937,
      "Ġannouncement": 8938,
      "ĠCS": 8939,
      "ĠBand": 8940,
      "Ġdrives": 8941,
      "Ġexists": 8942,
      "Ġdiabetes": 8943,
      "Ġdent": 8944,
      "ĠCand": 8945,
      "Ġcelebration": 8946,
      "Ġminds": 8947,
      "ĠMagazine": 8948,
      "ĠPakistan": 8949,
      "Ġbrush": 8950,
      "Ġopposed": 8951,
      "ĠDonald": 8952,
      "Ġpromoting": 8953,
      "Ġsinging": 8954,
      "ĠPolit": 8955,
      "ĠDue": 8956,
      "Ġinstruction": 8957,
      "59": 8958,
      "ĠMajor": 8959,
      "ĠStone": 8960,
      "inking": 8961,
      "Ġbreaks": 8962,
      "Ġhide": 8963,
      "%)": 8964,
      "Ġbass": 8965,
      "ĠDeb": 8966,
      "Ġindicated": 8967,
      "Ġgolden": 8968,
      "Ġgraphics": 8969,
      "viously": 8970,
      "icking": 8971,
      "Ġelectron": 8972,
      "Ġswimming": 8973,
      "Ġproved": 8974,
      "HT": 8975,
      "Ġcontributions": 8976,
      "Ġtalented": 8977,
      "tail": 8978,
      "Ġbid": 8979,
      "cribed": 8980,
      "ĠExperience": 8981,
      "ĠNAS": 8982,
      "ĠCancer": 8983,
      "ĠPennsylvania": 8984,
      "onder": 8985,
      "Ġgallery": 8986,
      "game": 8987,
      "Ġporn": 8988,
      "anth": 8989,
      "Ġmaintained": 8990,
      "PD": 8991,
      "Ġclock": 8992,
      "Ġbooking": 8993,
      "hour": 8994,
      "Ġexploring": 8995,
      "ĠTransport": 8996,
      "Ġacquired": 8997,
      "Ġsatisfied": 8998,
      "iffe": 8999,
      "Ġguilty": 9000,
      "ĠAdvis": 9001,
      "Ġfiction": 9002,
      "Ġmold": 9003,
      "ĠBry": 9004,
      "ĠAnnual": 9005,
      "Ġwireless": 9006,
      "Ġpasses": 9007,
      "gi": 9008,
      "high": 9009,
      "low": 9010,
      "Ġtort": 9011,
      "Ġpp": 9012,
      "asted": 9013,
      "Ġcorrectly": 9014,
      "'.": 9015,
      "pay": 9016,
      "onsin": 9017,
      "Ġinteraction": 9018,
      "limited": 9019,
      "Ġaer": 9020,
      "oln": 9021,
      "ĠStaff": 9022,
      "Ġboards": 9023,
      "child": 9024,
      "Ġchecked": 9025,
      "Ġmoral": 9026,
      "Ġcabin": 9027,
      "Ġaims": 9028,
      "Ġhitting": 9029,
      "Ġ1970": 9030,
      "76": 9031,
      "isconsin": 9032,
      "umer": 9033,
      "Ġjewel": 9034,
      "ĠMarc": 9035,
      "Oh": 9036,
      "ulpt": 9037,
      "rowse": 9038,
      "Ġfest": 9039,
      "ira": 9040,
      "Ġexport": 9041,
      "sect": 9042,
      "jection": 9043,
      "owed": 9044,
      "Ġtrem": 9045,
      "iscal": 9046,
      "Ġmistakes": 9047,
      "Ð¸": 9048,
      "ĠBase": 9049,
      "ĠFA": 9050,
      "nie": 9051,
      "Ġwestern": 9052,
      "ĠGro": 9053,
      "Ġlayers": 9054,
      "IE": 9055,
      "ĠChoose": 9056,
      "Ġcoup": 9057,
      "ĠPartners": 9058,
      "Ġgarage": 9059,
      "oen": 9060,
      "Ġneuro": 9061,
      "56": 9062,
      "ĠHi": 9063,
      "Ġmassage": 9064,
      "78": 9065,
      "ĠSteel": 9066,
      "ĠIslam": 9067,
      "ĠFL": 9068,
      "ludes": 9069,
      "ĠSex": 9070,
      "Ġdesigners": 9071,
      "Ġfactory": 9072,
      "Ġorganis": 9073,
      "Ġrarely": 9074,
      "sex": 9075,
      "je": 9076,
      "Ġdesper": 9077,
      "Ġhip": 9078,
      "Ġscrew": 9079,
      "ĠFront": 9080,
      "Ġcul": 9081,
      "stract": 9082,
      "ĠModel": 9083,
      "ĠGrow": 9084,
      "odge": 9085,
      "Ġemployers": 9086,
      "Ġlake": 9087,
      "asty": 9088,
      "Ġhearts": 9089,
      "Ġcm": 9090,
      "ĠTR": 9091,
      "ĠOx": 9092,
      "Ġsubsid": 9093,
      "proof": 9094,
      "Ġenemy": 9095,
      "ĠSir": 9096,
      "kel": 9097,
      "ĠExpress": 9098,
      "Ġdescribes": 9099,
      "ĠBooks": 9100,
      "ĠCBD": 9101,
      "htt": 9102,
      "Ġnerv": 9103,
      "Ġhes": 9104,
      "Ġresponses": 9105,
      "Ġ250": 9106,
      "ĠTell": 9107,
      "wr": 9108,
      "ali": 9109,
      "riculum": 9110,
      "Ġwarranty": 9111,
      "App": 9112,
      "charge": 9113,
      "ĠStay": 9114,
      "oding": 9115,
      "Ġdisaster": 9116,
      "Ġemployed": 9117,
      "step": 9118,
      "ĠBridge": 9119,
      "Ġspell": 9120,
      "Ġdiscussions": 9121,
      "ĠFurthermore": 9122,
      "reement": 9123,
      "Ġownership": 9124,
      "acular": 9125,
      "anguage": 9126,
      "ĠJam": 9127,
      "Ġletting": 9128,
      "Ġhaz": 9129,
      "Ġcharity": 9130,
      "Ġgig": 9131,
      "Ġholes": 9132,
      "roit": 9133,
      "Ġcomplim": 9134,
      "ĠContent": 9135,
      "chers": 9136,
      "ĠBuff": 9137,
      "Ġshell": 9138,
      "Ġjail": 9139,
      "eping": 9140,
      "Ġcow": 9141,
      "gel": 9142,
      "ĠAustin": 9143,
      "ĠHIV": 9144,
      "Ġbuff": 9145,
      "ificial": 9146,
      "Ġversus": 9147,
      "break": 9148,
      "ĠMaterial": 9149,
      "Ġoverse": 9150,
      "erty": 9151,
      "ĠElizabeth": 9152,
      "vironments": 9153,
      "Ad": 9154,
      "quis": 9155,
      "oom": 9156,
      "Ġlowest": 9157,
      "Ġgarlic": 9158,
      "ĠStudy": 9159,
      "Ġterr": 9160,
      "Ġrac": 9161,
      "Ġtemperatures": 9162,
      "WS": 9163,
      "esy": 9164,
      "Ġinsights": 9165,
      "axy": 9166,
      "Ġformula": 9167,
      "agers": 9168,
      "UM": 9169,
      "ĠSamsung": 9170,
      "Ġ1995": 9171,
      "Ġhyp": 9172,
      "Ġtelephone": 9173,
      "tery": 9174,
      "Ġ120": 9175,
      "roller": 9176,
      "Ã¼": 9177,
      "ĠCR": 9178,
      "ĠKids": 9179,
      "Ġdefine": 9180,
      "AND": 9181,
      "Ġmountains": 9182,
      "ĠEN": 9183,
      "iatric": 9184,
      "ĠPict": 9185,
      "ordinary": 9186,
      "Ġguaranteed": 9187,
      "Ġfingers": 9188,
      "ĠDallas": 9189,
      "ĠEver": 9190,
      "mate": 9191,
      "Ġhiring": 9192,
      "Ġdiagnosis": 9193,
      "400": 9194,
      "Ġtoile": 9195,
      "Ġgam": 9196,
      "Ġemerging": 9197,
      "ĠHost": 9198,
      "agan": 9199,
      "Ġtargeted": 9200,
      "istent": 9201,
      "flow": 9202,
      "ĠMuch": 9203,
      "verty": 9204,
      "Ġconsistently": 9205,
      "Se": 9206,
      "Ġathletes": 9207,
      "etts": 9208,
      "ĠStation": 9209,
      "Ġsleeping": 9210,
      "Ġimplemented": 9211,
      "airy": 9212,
      "essee": 9213,
      "Ġpregnancy": 9214,
      "ĠTam": 9215,
      "Ġabilities": 9216,
      "Ġcrack": 9217,
      "Ġentrance": 9218,
      "Ġroots": 9219,
      "Ġconsultation": 9220,
      "ĠHR": 9221,
      "Ġsevent": 9222,
      "urities": 9223,
      "Ġuniform": 9224,
      "Ġaudi": 9225,
      "Ġexpanded": 9226,
      "Ġequity": 9227,
      "Ġviewing": 9228,
      "Ġelsewhere": 9229,
      "Ġpushing": 9230,
      "urse": 9231,
      "ĠPH": 9232,
      "oore": 9233,
      "Ġpoverty": 9234,
      "ĠPaper": 9235,
      "Ġladies": 9236,
      "Ġunem": 9237,
      "Ġrecruit": 9238,
      "Ġcoaching": 9239,
      "Ġaccounting": 9240,
      "Ġstomach": 9241,
      "ĠPhilipp": 9242,
      "Ġcontribution": 9243,
      "Ġsatisfaction": 9244,
      "Ġlicensed": 9245,
      "Ġrecru": 9246,
      "Ġperiods": 9247,
      "zzle": 9248,
      "Ġsafely": 9249,
      "Ġuniverse": 9250,
      "ĠBrother": 9251,
      "ĠToy": 9252,
      "ractions": 9253,
      "Ġsegment": 9254,
      "Ġessays": 9255,
      "Ġbrothers": 9256,
      "Ġperm": 9257,
      "2013": 9258,
      "Ġcircuit": 9259,
      "Ġwinners": 9260,
      "ĠET": 9261,
      "ugs": 9262,
      "Ġ08": 9263,
      "Ġcrypt": 9264,
      "Ġnorthern": 9265,
      "Ġdeveloper": 9266,
      "ĠEarly": 9267,
      "Ġfib": 9268,
      "unate": 9269,
      "Ġautomatic": 9270,
      "Ġfur": 9271,
      "ounce": 9272,
      "ĠLic": 9273,
      "Ġpicking": 9274,
      "ĠBreak": 9275,
      "Ġpromotion": 9276,
      "Ġresid": 9277,
      "Ġhoriz": 9278,
      "Ġdistributed": 9279,
      "Ġterrible": 9280,
      "criptions": 9281,
      "Ġlun": 9282,
      "Ġresulted": 9283,
      "Ġski": 9284,
      "Ġpenalty": 9285,
      "Ġ95": 9286,
      "ĠBlu": 9287,
      "Ġratio": 9288,
      "ĠTrade": 9289,
      "Ġresponded": 9290,
      "ĠWelcome": 9291,
      "engers": 9292,
      "Ġcircle": 9293,
      "Ġvirtually": 9294,
      "Ġconvert": 9295,
      "Ġediting": 9296,
      "Ġ>>": 9297,
      "ĠWisconsin": 9298,
      "ĠNob": 9299,
      "etch": 9300,
      "Ġconventional": 9301,
      "Ġrepeat": 9302,
      "df": 9303,
      "igen": 9304,
      "Ġresidence": 9305,
      "world": 9306,
      "Ġromantic": 9307,
      "ĠSix": 9308,
      "Ġkil": 9309,
      "Ġque": 9310,
      "oli": 9311,
      "Ġtube": 9312,
      "Ġmyth": 9313,
      "ĠArm": 9314,
      "achus": 9315,
      "Ġpilot": 9316,
      "this": 9317,
      "ĠKong": 9318,
      "Ġovercome": 9319,
      "Ġpassionate": 9320,
[...]
